{"<s>":0,"<pad>":1,"</s>":2,"<unk>":3,"!":4,"\"":5,"#":6,"$":7,"%":8,"&":9,"'":10,"(":11,")":12,"*":13,"+":14,",":15,"-":16,".":17,"/":18,"0":19,"1":20,"2":21,"3":22,"4":23,"5":24,"6":25,"7":26,"8":27,"9":28,":":29,";":30,"<":31,"=":32,">":33,"?":34,"@":35,"A":36,"B":37,"C":38,"D":39,"E":40,"F":41,"G":42,"H":43,"I":44,"J":45,"K":46,"L":47,"M":48,"N":49,"O":50,"P":51,"Q":52,"R":53,"S":54,"T":55,"U":56,"V":57,"W":58,"X":59,"Y":60,"Z":61,"[":62,"\\":63,"]":64,"^":65,"_":66,"`":67,"a":68,"b":69,"c":70,"d":71,"e":72,"f":73,"g":74,"h":75,"i":76,"j":77,"k":78,"l":79,"m":80,"n":81,"o":82,"p":83,"q":84,"r":85,"s":86,"t":87,"u":88,"v":89,"w":90,"x":91,"y":92,"z":93,"{":94,"|":95,"}":96,"~":97,"¡":98,"¢":99,"£":100,"¤":101,"¥":102,"¦":103,"§":104,"¨":105,"©":106,"ª":107,"«":108,"¬":109,"®":110,"¯":111,"°":112,"±":113,"²":114,"³":115,"´":116,"µ":117,"¶":118,"·":119,"¸":120,"¹":121,"º":122,"»":123,"¼":124,"½":125,"¾":126,"¿":127,"À":128,"Á":129,"Â":130,"Ã":131,"Ä":132,"Å":133,"Æ":134,"Ç":135,"È":136,"É":137,"Ê":138,"Ë":139,"Ì":140,"Í":141,"Î":142,"Ï":143,"Ð":144,"Ñ":145,"Ò":146,"Ó":147,"Ô":148,"Õ":149,"Ö":150,"×":151,"Ø":152,"Ù":153,"Ú":154,"Û":155,"Ü":156,"Ý":157,"Þ":158,"ß":159,"à":160,"á":161,"â":162,"ã":163,"ä":164,"å":165,"æ":166,"ç":167,"è":168,"é":169,"ê":170,"ë":171,"ì":172,"í":173,"î":174,"ï":175,"ð":176,"ñ":177,"ò":178,"ó":179,"ô":180,"õ":181,"ö":182,"÷":183,"ø":184,"ù":185,"ú":186,"û":187,"ü":188,"ý":189,"þ":190,"ÿ":191,"Ā":192,"ā":193,"Ă":194,"ă":195,"Ą":196,"ą":197,"Ć":198,"ć":199,"Ĉ":200,"ĉ":201,"Ċ":202,"ċ":203,"Č":204,"č":205,"Ď":206,"ď":207,"Đ":208,"đ":209,"Ē":210,"ē":211,"Ĕ":212,"ĕ":213,"Ė":214,"ė":215,"Ę":216,"ę":217,"Ě":218,"ě":219,"Ĝ":220,"ĝ":221,"Ğ":222,"ğ":223,"Ġ":224,"ġ":225,"Ģ":226,"ģ":227,"Ĥ":228,"ĥ":229,"Ħ":230,"ħ":231,"Ĩ":232,"ĩ":233,"Ī":234,"ī":235,"Ĭ":236,"ĭ":237,"Į":238,"į":239,"İ":240,"ı":241,"Ĳ":242,"ĳ":243,"Ĵ":244,"ĵ":245,"Ķ":246,"ķ":247,"ĸ":248,"Ĺ":249,"ĺ":250,"Ļ":251,"ļ":252,"Ľ":253,"ľ":254,"Ŀ":255,"ŀ":256,"Ł":257,"ł":258,"Ń":259,"Ġt":260,"he":261,"Ġa":262,"in":263,"Ġthe":264,"re":265,"on":266,"is":267,"at":268,"Ġw":269,"Ġs":270,"er":271,"en":272,"Ġo":273,"nd":274,"it":275,"Ġc":276,"Ġb":277,"es":278,"Ġto":279,"Ġf":280,"or":281,"Ġp":282,"an":283,"Ġof":284,"Ġin":285,"ing":286,"Ġand":287,"al":288,"Ġh":289,"ar":290,"ed":291,"ion":292,"ou":293,"Ġm":294,"Ġth":295,"Ġd":296,"ro":297,"ic":298,"le":299,"Ġ,":300,"ent":301,"Ġre":302,"as":303,"om":304,"Ġ.":305,"Ġn":306,"Ġis":307,"il":308,"Ġbe":309,"ve":310,"Ġthat":311,"st":312,"ly":313,"Ġe":314,"ct":315,"Ġl":316,"Ġg":317,"im":318,"ot":319,"ut":320,"Ġon":321,"Ġhe":322,"Ġfor":323,"id":324,"ur":325,"se":326,"Ġwh":327,"ation":328,"et":329,"ĠC":330,"ol":331,"am":332,"ce":333,"pe":334,"ow":335,"Ġu":336,"ri":337,"ith":338,"ver":339,"ad":340,"Ġwith":341,"ir":342,"ĠM":343,"Ġwe":344,"Ġas":345,"Ġit":346,"Ġst":347,"Ġpro":348,"Ġcon":349,"ĠE":350,"ay":351,"Ġal":352,"The":353,"gh":354,"ment":355,"ĠĊ":356,"ĠS":357,"Ġde":358,"ul":359,"ill":360,"ter":361,"ch":362,"ort":363,"ld":364,"ra":365,"Ġha":366,"ĠP":367,"res":368,"Ġare":369,"Ġan":370,"her":371,"ak":372,"ĠI":373,"Ġ'":374,"Ġhis":375,"Ġthis":376,"Ġby":377,"ate":378,"Ġnot":379,"omm":380,"if":381,"Ġsu":382,"Ġy":383,"pp":384,"Ġat":385,"Ġne":386,"em":387,"Ġhave":388,"os":389,"el":390,"ould":391,"op":392,"ers":393,"ess":394,"end":395,"uro":396,"ĠA":397,"ich":398,"Ġsh":399,"ant":400,"ge":401,"li":402,"ain":403,"ity":404,"ore":405,"ac":406,"us":407,"Ġex":408,"Ġse":409,"ive":410,"nt":411,"urope":412,"ble":413,"ĠEurope":414,"Ġher":415,"Ġv":416,"Ġwhich":417,"Ġhas":418,"ust":419,"art":420,"ght":421,"Ġle":422,"est":423,"un":424,"qu":425,"rom":426,"oc":427,"ĠB":428,"sion":429,"ies":430,"Ġk":431,"and":432,"od":433,"iv":434,"Ġwill":435,"Ġcom":436,"um":437,"Ġbut":438,"Ġfrom":439,"ist":440,"ĠComm":441,"Ġint":442,"Ġyou":443,"Ġwho":444,"ie":445,"port":446,"Ġim":447,"ĠEuropean":448,"ial":449,"Ġag":450,"ĠR":451,"ure":452,"Ġr":453,"ard":454,"Ġdo":455,"all":456,"Ġhim":457,"Ġor":458,"Ġall":459,"Ġwhe":460,"ect":461,"ĠG":462,"ĠT":463,"Ġgo":464,"out":465,"ud":466,"Ġen":467,"Ġthey":468,"ĠD":469,"Ġres":470,"Ġch":471,"ission":472,"ther":473,"Ġwor":474,"ff":475,"Ġwas":476,"ome":477,"ber":478,"Ġme":479,"rou":480,"ig":481,"ally":482,"Ġj":483,"Ġ-":484,"Ġab":485,"Ġtheir":486,"ions":487,"ĠJ":488,"pt":489,"Ġcou":490,"ĠL":491,"ke":492,"so":493,"Ġcan":494,"th":495,"Ġout":496,"ĠH":497,"ĠCommission":498,"ry":499,"ous":500,"ind":501,"ident":502,"ack":503,"ĠU":504,"'s":505,"ake":506,"ab":507,"Ġpl":508,"Ġad":509,"Ġalso":510,"Ġpol":511,"Ġthere":512,"Ġup":513,"ĠSt":514,"Ġwould":515,"ire":516,"ĠF":517,"Ġdis":518,"very":519,"Ġshe":520,"ates":521,"Ġpart":522,"au":523,"Ġcont":524,"Ġac":525,"are":526,"pl":527,"ue":528,"ere":529,"ag":530,"ans":531,"ast":532,"Ġli":533,"ong":534,"ree":535,"Ġun":536,"Ġbeen":537,"Ġso":538,"ations":539,"Ġman":540,"ĠMr":541,"one":542,"Ġtr":543,"Th":544,"ice":545,"Ġbec":546,"ĠN":547,"ide":548,"our":549,"Ġam":550,"Ġcomp":551,"Ġthem":552,"ance":553,"ost":554,"ime":555,"Ġshould":556,"ult":557,"reat":558,"ks":559,"Ġfa":560,"Ġone":561,"ary":562,"ap":563,"vel":564,"Ġ1":565,"ĠPres":566,"Ġreg":567,"ĠUn":568,"ear":569,"ament":570,"ĠK":571,"con":572,"Ġour":573,"ish":574,"We":575,"Ġinto":576,"age":577,"ll":578,"ru":579,"able":580,"Ġmust":581,"iz":582,"Ġother":583,"cess":584,"Ġabout":585,"ip":586,"arli":587,"In":588,"Ġqu":589,"Ġmore":590,"ame":591,"Ġus":592,"ia":593,"pport":594,"ose":595,"ell":596,"orm":597,"Ġinc":598,"ight":599,"fter":600,"ical":601,"du":602,"ments":603,"ĠPresident":604,"Ġlike":605,"nc":606,"Ġcount":607,"itt":608,"Ġwork":609,"Ġcomm":610,"ile":611,"ries":612,"Ġar":613,"00":614,"ĠW":615,"It":616,"Ġpre":617,"Ġcl":618,"Ġri":619,"fore":620,"Ġact":621,"now":622,"Ġev":623,"Ġwhen":624,"ated":625,"ine":626,"arliament":627,"av":628,"ember":629,"Ġpe":630,"Ġits":631,"per":632,"og":633,"ee":634,"ress":635,"Ġapp":636,"oin":637,"Ġ2":638,"ens":639,"pos":640,"Ġatt":641,"ence":642,"Ġneed":643,"ious":644,"Ġoff":645,"Ġreport":646,"Ġdec":647,"Ġlo":648,"wn":649,"Ġnew":650,"ĠUnion":651,"ition":652,"Ġtime":653,"anc":654,"ause":655,"si":656,"Ġco":657,"Ġmar":658,"ang":659,"sel":660,"ade":661,"nder":662,"Ġwhat":663,"oy":664,"Ġonly":665,"Ġcons":666,"Ġro":667,"Ġimp":668,"ach":669,"ĠParliament":670,"Ġright":671,"ever":672,"Ġknow":673,"Ġyear":674,"form":675,"Ġpos":676,"Ġbet":677,"urn":678,"ob":679,"Ġvery":680,"pect":681,"ĠStates":682,"ok":683,"ise":684,"ase":685,"Ġra":686,"ounc":687,"Ġover":688,"Ġagain":689,"Ġget":690,"ub":691,"ople":692,"Ġno":693,"ign":694,"Ġtw":695,"Ġconc":696,"Ġsa":697,"Ġrec":698,"Ġthan":699,"Ġtak":700,"Ġfin":701,"He":702,"Ġif":703,"Ġsome":704,"ĠMember":705,"ord":706,"get":707,"Ġmy":708,"Ġunder":709,"Ġte":710,"ject":711,"This":712,"Ġimport":713,"oint":714,"tern":715,"ĠEU":716,"enc":717,"ace":718,"Ġfind":719,"ational":720,"ives":721,"Ġwhere":722,"ves":723,"ĠCh":724,"Ġthese":725,"ouncil":726,"Ġ`":727,"Ġpeople":728,"lic":729,"ĠCouncil":730,"ng":731,"Ġbecause":732,"ays":733,"Ġthen":734,"ite":735,"owever":736,"gr":737,"irst":738,"Ġinv":739,"Ġcr":740,"ink":741,"Ġhad":742,"ution":743,"Ġem":744,"Ġnow":745,"Ġjust":746,"Ġpropos":747,"Ġspe":748,"Ġsc":749,"Ġi":750,"ings":751,"Ġany":752,"ction":753,"Ġsp":754,"we":755,"ities":756,"Ġind":757,"ne":758,"Ġ''":759,"hen":760,"erm":761,"ild":762,"Ġtwo":763,"ife":764,"ass":765,"Ġser":766,"Âł":767,"Ġpolic":768,"Ġ``":769,"ather":770,"Ġpr":771,"ian":772,"velop":773,"Ġafter":774,"Ġtake":775,"Ġbeing":776,"ater":777,"Ġob":778,"Ġdisc":779,"other":780,"Ġeff":781,"Ġtra":782,"ĠV":783,"ep":784,"ory":785,"ving":786,"als":787,"Ġback":788,"Ġmake":789,"âĢ":790,"Ġacc":791,"ouse":792,"Ġfe":793,"Ġcountries":794,"der":795,"xt":796,"low":797,"act":798,"ility":799,"Ġsupport":800,"und":801,"ily":802,"ick":803,"Ġsee":804,"iff":805,"Ġinst":806,"ating":807,"ures":808,"ved":809,"conom":810,"ĠO":811,"lie":812,"Ġwant":813,"Ġend":814,"Ġfirst":815,"ern":816,"ular":817,"Ġdevelop":818,"Ġwere":819,"own":820,"Ġper":821,"Ġrel":822,"Ġrem":823,"over":824,"riend":825,"ood":826,"Ġdem":827,"Ġass":828,"Ġleg":829,"roup":830,"red":831,"uc":832,"ors":833,"ath":834,"Ġ(":835,"Ġway":836,"ween":837,"Ġimportant":838,"Ġpartic":839,"Ġkill":840,"ict":841,"ough":842,"ced":843,"ful":844,"Ġbetween":845,"tain":846,"Ġref":847,"Ġsub":848,"oth":849,"ues":850,"self":851,"gin":852,"aw":853,"ific":854,"lud":855,"rough":856,"old":857,"pon":858,"ention":859,"resent":860,"amp":861,"As":862,"Ġbelie":863,"Ġdoes":864,"lear":865,"Ġiss":866,"Ġtrans":867,"igh":868,"ket":869,"Ġreal":870,"ative":871,"ward":872,"Ġagree":873,"Ġeconom":874,"Ġpoint":875,"Ġsoc":876,"Ġsuch":877,"Ġdiff":878,"Ġconf":879,"Ġwell":880,"Ġtell":881,"irect":882,"Ġsay":883,"Ġthrough":884,"Ġprov":885,"Ġpolicy":886,"lp":887,"Ġcall":888,"cept":889,"Ġret":890,"hes":891,"Ġown":892,"Ġstr":893,"uring":894,"Ġfact":895,"te":896,"Ġcar":897,"ms":898,"Ġent":899,"Ġhelp":900,"Ġaw":901,"Ġop":902,"Ġthink":903,"ound":904,"row":905,"Ġyears":906,"Ġpolit":907,"Mr":908,"unity":909,"Ġthose":910,"Ġdes":911,"'t":912,"Ġeven":913,"gy":914,"Ġevery":915,"ov":916,"Ġmeet":917,"hed":918,"sible":919,"uch":920,"Ġproble":921,"iew":922,"Ġsy":923,"Ġgu":924,"uman":925,"Ġset":926,"Ġbefore":927,"Ġprodu":928,"ount":929,"Ġmade":930,"Ġgood":931,"ual":932,"Ġappro":933,"mer":934,"Ġagainst":935,"Ġconcern":936,"ail":937,"ft":938,"air":939,"Ġparticular":940,"Ġadd":941,"ning":942,"Ġfam":943,"Ġrespon":944,"Ġmany":945,"Ġquest":946,"its":947,"ublic":948,"ph":949,"Ġwom":950,"hing":951,"Ġbas":952,"Ġvot":953,"day":954,"Ġprot":955,"Ġgreat":956,"Ġwhile":957,"ove":958,"ited":959,"They":960,"Ġfriend":961,"Ġclear":962,"ange":963,"ady":964,"aj":965,"Ġ19":966,"lect":967,"Ġlong":968,"Ġinclud":969,"Ġsec":970,"round":971,"ually":972,"ren":973,"ision":974,"Ġbl":975,"Ġrep":976,"Ġmarket":977,"ural":978,"ency":979,"hip":980,"arm":981,"ces":982,"ah":983,"ices":984,"Ġes":985,"Ġcol":986,"cial":987,"Ġinform":988,"Ġsame":989,"ittee":990,"However":991,"Ġfil":992,"ts":993,"Ġboth":994,"ince":995,"ons":996,"Ġdown":997,"ied":998,"Ġhow":999,"Ġmon":1000,"me":1001,"Ġbelieve":1002,"Ġsit":1003,"Ġdirect":1004,"bers":1005,"Ġhuman":1006,"Ġrights":1007,"Ġcould":1008,"Ġap":1009,"Ġdeb":1010,"king":1011,"Ġstill":1012,"led":1013,"Ġmost":1014,"ting":1015,"Ġmak":1016,"stem":1017,"ollow":1018,"Ġcontin":1019,"Ġpolitical":1020,"Wh":1021,"When":1022,"Ġ200":1023,"Ġlife":1024,"Ġtoo":1025,"Ġca":1026,"Ġchild":1027,"ene":1028,"ric":1029,"Ġrequ":1030,"Ġext":1031,"Ġgroup":1032,"gram":1033,"Ġdef":1034,"Ġsm":1035,"Ġmuch":1036,"uth":1037,"ract":1038,"There":1039,"Ġtherefore":1040,"Ġorder":1041,"ty":1042,"ised":1043,"rib":1044,"uation":1045,"les":1046,"Ġlead":1047,"Ġfund":1048,"ters":1049,"rit":1050,"Ġbr":1051,"Ġeconomic":1052,"Ġuse":1053,"ork":1054,"Ġput":1055,"Ġsystem":1056,"Ġreturn":1057,"Ġbeh":1058,"ec":1059,"Ġintern":1060,"She":1061,"ener":1062,"Ġstart":1063,"Ġcour":1064,"arge":1065,"Ġregard":1066,"lement":1067,"Ġinter":1068,"Ġfilm":1069,"ides":1070,"Ġfollow":1071,"Ġexp":1072,"ars":1073,"After":1074,"ents":1075,"ted":1076,"Ġpers":1077,"Ġbegin":1078,"Ġsocial":1079,"ism":1080,"ope":1081,"Ġworld":1082,"Ġprotect":1083,"Ġhand":1084,"ploy":1085,"gan":1086,"Ġshow":1087,"erest":1088,"Ġfather":1089,"Ġlast":1090,"Ġsaid":1091,"ank":1092,"Ġmat":1093,"Ġcountry":1094,"ertain":1095,"iven":1096,"Ġfinanc":1097,"Ġins":1098,"Ġprom":1099,"ave":1100,"land":1101,"embers":1102,"Ġhome":1103,"Ġens":1104,"ĠThe":1105,"Ġhere":1106,"arn":1107,"Ġcur":1108,"Ġpublic":1109,"Ġbo":1110,"Ġbro":1111,"Ġsur":1112,"ered":1113,"Ġincre":1114,"Ġfr":1115,"Ġeffect":1116,"Ġprogram":1117,"ax":1118,"oh":1119,"gg":1120,"Ġpri":1121,"Ġyoung":1122,"Ġconsid":1123,"itiz":1124,"Ġinterest":1125,"Ġresult":1126,"eration":1127,"ately":1128,"irl":1129,"Ġhigh":1130,"ety":1131,"Ġmeas":1132,"oney":1133,"Ġfamily":1134,"Ġproposal":1135,"Ġloc":1136,"ĠY":1137,"Ġfut":1138,"cond":1139,"udget":1140,"Ġmay":1141,"Ġview":1142,"Ġnext":1143,"Ġday":1144,"Ġyour":1145,"Ġquestion":1146,"Ġsituation":1147,"nment":1148,"Ġplan":1149,"Ġhapp":1150,"alth":1151,"omet":1152,"Ġfuture":1153,"Ġcitiz":1154,"Ġgover":1155,"olution":1156,"Ġplace":1157,"Ġtells":1158,"Ġnum":1159,"ss":1160,"Ġdra":1161,"empt":1162,"Ġexpl":1163,"ute":1164,"inc":1165,"Ġbu":1166,"RB":1167,"ĠCommissioner":1168,"iron":1169,"Ġhouse":1170,"rat":1171,"Ġadop":1172,"ient":1173,"Ġprev":1174,"Ġturn":1175,"ib":1176,"ner":1177,"ruct":1178,"Ġdet":1179,"ĠâĢ":1180,"But":1181,"Ġamend":1182,"Ġlaw":1183,"That":1184,"men":1185,"Ġserv":1186,"Ġtaken":1187,"man":1188,"Ġpresent":1189,"Ġful":1190,"Ġdevelopment":1191,"Ġsign":1192,"On":1193,"not":1194,"ool":1195,"ret":1196,"rent":1197,"Ġissue":1198,"Ġrun":1199,"Ġplay":1200,"olog":1201,"vers":1202,"Ġrest":1203,"Ġnational":1204,"Ġmoney":1205,"Ġlove":1206,"Ġlevel":1207,"ĠCommittee":1208,"Ġpossible":1209,"Ġcome":1210,"ready":1211,"LRB":1212,"Ġlook":1213,"Ġable":1214,"Ġcompet":1215,"ĠIn":1216,"ines":1217,"Ġfl":1218,"Ġfall":1219,"Ġsuc":1220,"Ġprocess":1221,"Ġcase":1222,"ulation":1223,"Ġcertain":1224,"Ġhowever":1225,"ven":1226,"Ġanother":1227,"âĢĻ":1228,"Ġalready":1229,"Ġcitizens":1230,"Ġdiffere":1231,"Ġuh":1232,"Ġthree":1233,"viron":1234,"ked":1235,"ĠMar":1236,"vironment":1237,"Ġsim":1238,"Ġtal":1239,"Ġwithout":1240,"err":1241,"ĠCon":1242,"Ġinvol":1243,"Ġstate":1244,"Ġgoing":1245,"chie":1246,"Ġwithin":1247,"Ġmin":1248,"Ġfinancial":1249,"Ġpow":1250,"alf":1251,"Ġgive":1252,"Ġstand":1253,"Ġtry":1254,"Ġgoes":1255,"Ġtakes":1256,"Ġgirl":1257,"Ġdiscus":1258,"Ġbus":1259,"sib":1260,"ean":1261,"Ġaway":1262,"At":1263,"Ġfight":1264,"Ġcre":1265,"Ġcannot":1266,"Ġallow":1267,"Ġsomet":1268,"Ġmain":1269,"Ġrespect":1270,"ness":1271,"iss":1272,"Ġtoday":1273,"Ġdebate":1274,"Ġreas":1275,"urity":1276,"iving":1277,"Ġbudget":1278,"Ġest":1279,"Ġdid":1280,"ists":1281,"Ġold":1282,"Ġmeasures":1283,"ority":1284,"Ġcourse":1285,"Ġcoop":1286,"ug":1287,"reed":1288,"urther":1289,"Ġachie":1290,"Ġdeal":1291,"Ġaccept":1292,"Ġhope":1293,"Ġinformation":1294,"Ġjob":1295,"Ġleav":1296,"Ġarea":1297,"Ġmother":1298,"Ġduring":1299,"Ġfar":1300,"Ġinvest":1301,"ody":1302,"ĠMrs":1303,"Ġaff":1304,"ĠAr":1305,"less":1306,"ased":1307,"ital":1308,"Ġterm":1309,"Ġsince":1310,"Ġfinds":1311,"Ġneg":1312,"utions":1313,"ew":1314,"Ġgener":1315,"CB":1316,"Ġattempt":1317,"Ġarri":1318,"Ġvis":1319,"eg":1320,"Ġwhy":1321,"ctor":1322,"Ġimplement":1323,"ried":1324,"Ġph":1325,"Ġinf":1326,"isl":1327,"Ġconst":1328,"Ġeach":1329,"iness":1330,"Ġagreement":1331,"nce":1332,"Ġ;":1333,"Ġnumber":1334,"rol":1335,"Ġesc":1336,"isation":1337,"ains":1338,"Ġsaf":1339,"work":1340,"Ġhead":1341,"Ġdemoc":1342,"chn":1343,"oot":1344,"ling":1345,"Ġwomen":1346,"Ġadv":1347,"pr":1348,"any":1349,"imin":1350,"Ġbecome":1351,"Ġcond":1352,"Ġenvironment":1353,"ond":1354,"arch":1355,"ird":1356,"ross":1357,"eur":1358,"ister":1359,"Ġnight":1360,"Ġhimself":1361,"Ġopen":1362,"Ġcommon":1363,"Ġauth":1364,"itions":1365,"Ġinit":1366,"Ġsmall":1367,"Ġbecom":1368,"Ġimpro":1369,"Ġcor":1370,"Ġrelations":1371,"ash":1372,"Ġtoget":1373,"Ġtogether":1374,"ĠFr":1375,"Ġgl":1376,"Ġlegisl":1377,"Ġmaj":1378,"Ġcurrent":1379,"ently":1380,"Ġemploy":1381,"Ġ3":1382,"Ġav":1383,"Ġorgan":1384,"ys":1385,"Ġpolice":1386,"Ġpur":1387,"ages":1388,"icult":1389,"Ġdeath":1390,"Ġinstit":1391,"ĠâĢĵ":1392,"Ġspec":1393,"ĠSh":1394,"Ġhaving":1395,"Ġfew":1396,"Ġreally":1397,"Ġgr":1398,"wards":1399,"augh":1400,"Ġensure":1401,"pporteur":1402,"Ġgiven":1403,"Ġobject":1404,"ĠTh":1405,"Ġprinc":1406,"Ġcomes":1407,"Ġproblems":1408,"Ġproblem":1409,"io":1410,"Ġener":1411,"ality":1412,"Ġappe":1413,"Ġmeans":1414,"Ġcomple":1415,"ark":1416,"Ġimm":1417,"Ġlet":1418,"Ġnecess":1419,"Ġcooperation":1420,"illion":1421,"Ġaction":1422,"Ġinternational":1423,"ises":1424,"arent":1425,"by":1426,"Ġstud":1427,"chool":1428,"ison":1429,"na":1430,"cc":1431,"eep":1432,"Ġform":1433,"Ġstre":1434,"Ġreve":1435,"Ġaid":1436,"ĠDe":1437,"ock":1438,"ample":1439,"Ġmen":1440,"orities":1441,"ck":1442,"ron":1443,"Ġattack":1444,"ential":1445,"att":1446,"imes":1447,"ny":1448,"Ġchildren":1449,"ĠCommunity":1450,"If":1451,"Ġsecond":1452,"Ġdist":1453,"Ġdifferent":1454,"Ġsomething":1455,"Ġrapporteur":1456,"ically":1457,"Ġredu":1458,"Ġfeel":1459,"Ġconv":1460,"itive":1461,"ared":1462,"Ġenergy":1463,"Ġlater":1464,"ĠAl":1465,"uses":1466,"Ġexample":1467,"ules":1468,"Ġpay":1469,"abl":1470,"Ġdri":1471,"wh":1472,"Ġexper":1473,"ided":1474,"Ġseem":1475,"Ġwel":1476,"Ġmed":1477,"Ġmod":1478,"come":1479,"Ġpres":1480,"Ġsuccess":1481,"ape":1482,"Ġincluding":1483,"Ġwife":1484,"Ġperson":1485,"ability":1486,"ÂłÂł":1487,"Ġfore":1488,"ĠHouse":1489,"stand":1490,"Ġopport":1491,"rodu":1492,"ĠUnited":1493,"ional":1494,"Ġsecurity":1495,"entle":1496,"Ġpass":1497,"Ġworking":1498,"ik":1499,"Ġfav":1500,"Ġbre":1501,"Ġcare":1502,"ined":1503,"Ġgrow":1504,"meric":1505,"ged":1506,"Ġbusiness":1507,"Ġschool":1508,"Ġused":1509,"Ġlegal":1510,"Ġrepresent":1511,"Ġgets":1512,"Ġfriends":1513,"ges":1514,"Ġgentle":1515,"Ġaccess":1516,"oti":1517,"Ġtechn":1518,"Ġconsider":1519,"Ġfurther":1520,"Ġ20":1521,"Ġval":1522,"ards":1523,"thing":1524,"ĠAm":1525,"ising":1526,"Ġenc":1527,"Ġequ":1528,"adies":1529,"Ġhealth":1530,"reaty":1531,"Ġrev":1532,"ants":1533,"Ġonce":1534,"Ġcent":1535,"Ġvote":1536,"ix":1537,"Ġsol":1538,"Ġdifficult":1539,"Ġbetter":1540,"ale":1541,"Ġunt":1542,"ittle":1543,"ina":1544,"Ġoper":1545,"Ġissues":1546,"Ġposition":1547,"Ġindust":1548,"up":1549,"Ġrequire":1550,"Ġaround":1551,"ases":1552,"ple":1553,"selves":1554,"Ġparticularly":1555,"Ġcost":1556,"Ġprotection":1557,"Ġpower":1558,"Ġeffort":1559,"Ġwhether":1560,"Ġson":1561,"Ġcolle":1562,"Ġtries":1563,"Ġnecessary":1564,"Ġche":1565,"Ġmet":1566,"ead":1567,"Ġgentlemen":1568,"Ġelect":1569,"Ġmakes":1570,"Ġaccount":1571,"ey":1572,"Ġmatter":1573,"rac":1574,"ways":1575,"Ġnegoti":1576,"Ġthings":1577,"Ġsoon":1578,"Ġadm":1579,"Ġestabl":1580,"Ġword":1581,"ĠAmeric":1582,"Ġ199":1583,"Ġlarge":1584,"Ġboy":1585,"tic":1586,"Ġchange":1587,"Ġfound":1588,"Ġstory":1589,"light":1590,"Ġdep":1591,"az":1592,"Ġpract":1593,"Ġcontrol":1594,"lus":1595,"Ġnever":1596,"Ġdone":1597,"gress":1598,"Ġconsum":1599,"Ġstrate":1600,"Ġrole":1601,"Ġwar":1602,"ield":1603,"Ġname":1604,"Ġlocal":1605,"oura":1606,"Ġide":1607,"Ġprep":1608,"Ġleave":1609,"ration":1610,"Ġ:":1611,"Ġproduct":1612,"ends":1613,"Ġfree":1614,"Ġsing":1615,"Ġtown":1616,"Ġneeds":1617,"Ġmur":1618,"the":1619,"Ġkeep":1620,"Ġsupp":1621,"Ġdirective":1622,"Ġareas":1623,"aughter":1624,"ims":1625,"ins":1626,"amed":1627,"adam":1628,"Ġrece":1629,"sibility":1630,"Ġdecision":1631,"Ġservices":1632,"Ġserious":1633,"Ġspeak":1634,"Ġwhole":1635,"Ġmaking":1636,"ster":1637,"Ġbring":1638,"ances":1639,"Ġwish":1640,"Ġcap":1641,"Ġfail":1642,"Ġcrit":1643,"ĠPro":1644,"Ġvi":1645,"Ġcontinue":1646,"Ġwoman":1647,"den":1648,"side":1649,"ten":1650,"Ġmove":1651,"Ġuntil":1652,"Ġvar":1653,"Ġfac":1654,"For":1655,"Ġbest":1656,"lig":1657,"Ġrealiz":1658,"Ġbecomes":1659,"though":1660,"Ġspecific":1661,"Ġreason":1662,"ĠAn":1663,"Ġtaking":1664,"aps":1665,"With":1666,"Ġproced":1667,"Ġlittle":1668,"Ġpromot":1669,"Ġstep":1670,"ources":1671,"Ġdiscover":1672,"ier":1673,"Ġgra":1674,"ished":1675,"ified":1676,"idency":1677,"Ġtowards":1678,"Ġless":1679,"Ġchar":1680,"Ġsector":1681,"Ġask":1682,"Ġkilled":1683,"Ġbegins":1684,"eed":1685,"Ġoffic":1686,"Ġproject":1687,"Ġdest":1688,"aring":1689,"Ġtrain":1690,"uck":1691,"ĠGroup":1692,"Ġmean":1693,"ending":1694,"Ġopin":1695,"ĠTreaty":1696,"Ġladies":1697,"isions":1698,"Ġtax":1699,"airs":1700,"Ġalong":1701,"ger":1702,"Ġcontrib":1703,"Ġresolution":1704,"Ġbene":1705,"com":1706,"ps":1707,"Ġterms":1708,"ilit":1709,"Ġchang":1710,"Ġbreak":1711,"ont":1712,"Ġsubject":1713,"Ġur":1714,"Ġevent":1715,"Ġalways":1716,"Ġrules":1717,"Ġ5":1718,"amework":1719,"Ġbuild":1720,"Ġel":1721,"Ġnat":1722,"Ġiniti":1723,"Ġrese":1724,"Ġgovernment":1725,"Ġbasis":1726,"eah":1727,"ably":1728,"Ġdr":1729,"Ġprogress":1730,"Ġintrodu":1731,"Ġcreat":1732,"Ġbehalf":1733,"Ġbrother":1734,"Ġthank":1735,"ics":1736,"leg":1737,"ohn":1738,"Ġlearn":1739,"erv":1740,"ible":1741,"Ġpo":1742,"ek":1743,"Ġdemand":1744,"atch":1745,"Ġtrade":1746,"orth":1747,"ai":1748,"ify":1749,"Ġamendments":1750,"ogn":1751,"Ġed":1752,"Ġviol":1753,"Ġdaughter":1754,"ral":1755,"Ġpar":1756,"Ġsw":1757,"rist":1758,"Ġsuff":1759,"ĠIt":1760,"Ġreform":1761,"Ġeffective":1762,"pecial":1763,"iety":1764,"Ġroom":1765,"Ġair":1766,"Ġleft":1767,"Ġprof":1768,"Ġclose":1769,"ination":1770,"Ġsever":1771,"Ġhappen":1772,"ience":1773,"Ġ4":1774,"Ġproposals":1775,"ultural":1776,"Ġocc":1777,"ering":1778,"Ġunderstand":1779,"Ġfinally":1780,"isis":1781,"erence":1782,"ressed":1783,"ĠMembers":1784,"Ġdecides":1785,"Ġpop":1786,"Ġbenef":1787,"\\/":1788,"Ġapproach":1789,"Ġshort":1790,"to":1791,"Ġread":1792,"While":1793,"Ġdead":1794,"unt":1795,"Ġrecogn":1796,"Ġprogramme":1797,"my":1798,"Ġleaves":1799,"Ġseveral":1800,"Ġmembers":1801,"Ġtri":1802,"What":1803,"Ġcrisis":1804,"Ġdon":1805,"Ġthough":1806,"error":1807,"ex":1808,"Ġactiv":1809,"asing":1810,"ured":1811,"Ġkind":1812,"while":1813,"Ġmonth":1814,"Ġfavour":1815,"Ġann":1816,"Ġadopted":1817,"Ġdiscuss":1818,"One":1819,"Ġconcerned":1820,"sequ":1821,"iting":1822,"Ġsays":1823,"Ġrather":1824,"orn":1825,"ense":1826,"Ġstop":1827,"ĠZ":1828,"used":1829,"la":1830,"pri":1831,"Ġexist":1832,"reedom":1833,"Ġcommun":1834,"Ġstrong":1835,"Ġlab":1836,"imate":1837,"Ġmillion":1838,"ĠSp":1839,"ha":1840,"ley":1841,"Ġfle":1842,"Ġwants":1843,"Ġmention":1844,"oon":1845,"Ġprovide":1846,"Ġforward":1847,"Ġwr":1848,"Ġris":1849,"Al":1850,"Ġactually":1851,"ton":1852,"Ġprincip":1853,"Ġpeace":1854,"Ġlegislation":1855,"gu":1856,"atives":1857,"Ġopp":1858,"ences":1859,"Ġthird":1860,"ĠIs":1861,"Ġframework":1862,"Ġopinion":1863,"Ġfinal":1864,"Ġfull":1865,"ĠRus":1866,"pecially":1867,"ĠState":1868,"Ġdi":1869,"Ġopportunity":1870,"To":1871,"ishing":1872,"Ġpast":1873,"fort":1874,"Ġfood":1875,"Ġple":1876,"Ġtransport":1877,"ceed":1878,"friend":1879,"sp":1880,"oss":1881,"Ġgives":1882,"overnment":1883,"iding":1884,"Ġothers":1885,"sw":1886,"ratic":1887,"use":1888,"Ġremain":1889,"Ġnear":1890,"Ġachieve":1891,"Ġinvolved":1892,"ners":1893,"Ġthreat":1894,"Ġimprove":1895,"Ġasks":1896,"Ġfour":1897,"Ġcommit":1898,"Ġespecially":1899,"Ġnamed":1900,"pped":1901,"arant":1902,"Ġmor":1903,"Ġrelationship":1904,"Ġland":1905,"ĠMin":1906,"Ġrele":1907,"Ġinstitutions":1908,"Ġmanage":1909,"Ġitself":1910,"ef":1911,"Ġcalled":1912,"000":1913,"key":1914,"idence":1915,"racy":1916,"Ġmot":1917,"Ġvarious":1918,"iod":1919,"ension":1920,"Ġassist":1921,"Ġvill":1922,"Ġlive":1923,"Ġsum":1924,"obal":1925,"Ġleast":1926,"els":1927,"Ġgeneral":1928,"Ġwelcome":1929,"Ġess":1930,"Ġsent":1931,"ĠNew":1932,"Ġjoin":1933,"ium":1934,"Ġfreedom":1935,"ler":1936,"band":1937,"here":1938,"irm":1939,"ized":1940,"ires":1941,"ought":1942,"Ġfollowing":1943,"ĠTur":1944,"ane":1945,"pite":1946,"ury":1947,"rest":1948,"Ġbody":1949,"An":1950,"mes":1951,"Ġtreat":1952,"egr":1953,"Ġquite":1954,"amental":1955,"aid":1956,"Ġyet":1957,"ĠSe":1958,"Ġattention":1959,"ivil":1960,"ither":1961,"Ġmight":1962,"ĠInd":1963,"Ġagric":1964,"ĠGerm":1965,"Ġterror":1966,"ung":1967,"Ġenough":1968,"Ġcomb":1969,"ann":1970,"Ġident":1971,"Ġmom":1972,"allen":1973,"Ġauthorities":1974,"ats":1975,"Ġbehind":1976,"Ġguarant":1977,"Ġaddition":1978,"uge":1979,"Ġbased":1980,"itted":1981,"Ġlim":1982,"stit":1983,"Ġmeets":1984,"Ġresources":1985,"Ġforce":1986,"Ġhold":1987,"Ġescape":1988,"Ġconditions":1989,"Ġseen":1990,"Ġdue":1991,"Ġreturns":1992,"Ġamong":1993,"Ġmeeting":1994,"Ġprevent":1995,"Ġlives":1996,"Ġresearch":1997,"Ġmajor":1998,"itor":1999,"Ġface":2000,"Ġtie":2001,"ians":2002,"Ġintegr":2003,"ended":2004,"ule":2005,"Ġtrying":2006,"ĠSc":2007,"Ġparty":2008,"ĠJohn":2009,"Ġexpect":2010,"Ġori":2011,"Ġthemselves":2012,"Ġincrease":2013,"eanwhile":2014,"iation":2015,"Ġextre":2016,"Ġabs":2017,"Ġtrue":2018,"Ġproposed":2019,"sh":2020,"Ġwater":2021,"outh":2022,"Ġquick":2023,"Ġsex":2024,"raph":2025,"Ġpress":2026,"Ġprinciple":2027,"And":2028,"Ġwrit":2029,"ĠAf":2030,"Ġfalls":2031,"Ġshall":2032,"usband":2033,"Ġcomplete":2034,"Ġchallen":2035,"Ġclearly":2036,"Ġsafety":2037,"Ġlist":2038,"Ġemployment":2039,"Ġdoing":2040,"Meanwhile":2041,"Ġproper":2042,"Ġtext":2043,"ired":2044,"ivid":2045,"oo":2046,"most":2047,"ĠPol":2048,"ples":2049,"Ġpat":2050,"Ġsociety":2051,"Ġefforts":2052,"Ġwa":2053,"Ġindustry":2054,"lies":2055,"Ġperform":2056,"Ġmo":2057,"reen":2058,"icient":2059,"ream":2060,"ata":2061,"RCB":2062,"Ġstreng":2063,"ert":2064,"Ġsees":2065,"Ġessential":2066,"mb":2067,"Ġgovern":2068,"Ġpolicies":2069,"arity":2070,"ches":2071,"Ġglobal":2072,"fully":2073,"Ġwords":2074,"Ġcamp":2075,"Ġresponsibility":2076,"Ġcla":2077,"Ġaim":2078,"Ġregul":2079,"osed":2080,"Ġfield":2081,"Ġshoot":2082,"Ġhusband":2083,"Ġimportance":2084,"way":2085,"Ġthing":2086,"Ġperiod":2087,"Ġlot":2088,"Ġupon":2089,"Ġkid":2090,"ests":2091,"Ġeng":2092,"Ġaccident":2093,"Ġpriv":2094,"Ġaware":2095,"Ġtoe":2096,"Ġbal":2097,"aged":2098,"oe":2099,"Ġsk":2100,"Ġsingle":2101,"ĠAg":2102,"Ġfarm":2103,"Ġvict":2104,"Ġshows":2105,"Ġeveryone":2106,"cing":2107,"Ġpoints":2108,"ames":2109,"iet":2110,"Ġparent":2111,"Ġaffect":2112,"Ġvoted":2113,"ĠPresidency":2114,"Ġsugg":2115,"Ġcity":2116,"Ġstrategy":2117,"Ġago":2118,"ulture":2119,"Ġtravel":2120,"ĠLe":2121,"Ġsure":2122,"Ġusing":2123,"Ġgreater":2124,"Ġdou":2125,"These":2126,"Ġliving":2127,"Ġansw":2128,"Ġste":2129,"Ġexc":2130,"Ġgun":2131,"Ġnon":2132,"edi":2133,"Ġends":2134,"Ġbig":2135,"Ġeduc":2136,"Ġentire":2137,"Ġdoc":2138,"Ġappropri":2139,"osp":2140,"Ġroad":2141,"Ġenvironmental":2142,"Ġcho":2143,"Ġproducts":2144,"Ġindivid":2145,"rug":2146,"Ġnegotiations":2147,"Ġorigin":2148,"Ġteam":2149,"Ġhard":2150,"Ġinstru":2151,"Ġbar":2152,"ived":2153,"Ġextreme":2154,"ony":2155,"Ġsignific":2156,"Ġoften":2157,"lin":2158,"Ġreveal":2159,"Ġseems":2160,"anger":2161,"Ġfun":2162,"rees":2163,"Ġeas":2164,"ĠRe":2165,"Ġprison":2166,"Ġsecret":2167,"spect":2168,"irc":2169,"aster":2170,"Fin":2171,"vention":2172,"Ġwal":2173,"stain":2174,"Ġfundamental":2175,"Ġsl":2176,"bon":2177,"Ġsav":2178,"Ġoutside":2179,"ĠBar":2180,"ption":2181,"iously":2182,"Ġstat":2183,"Ġregulation":2184,"Ġcivil":2185,"ĠCar":2186,"omb":2187,"Ġcolleag":2188,"Ġdiscussion":2189,"Ġnothing":2190,"Ġty":2191,"Ġmov":2192,"Ġmonths":2193,"Ġpositive":2194,"Ġhist":2195,"Ġsaying":2196,"Ġdays":2197,"Ġgang":2198,"ply":2199,"Ġspecial":2200,"You":2201,"aper":2202,"Ġcalls":2203,"Ġcut":2204,"Ġworkers":2205,"Ġstruct":2206,"Ġinterests":2207,"Ġgot":2208,"Ġeconomy":2209,"Ġadopt":2210,"rate":2211,"Ġdev":2212,"Ġ6":2213,"por":2214,"Ġacross":2215,"ĠLis":2216,"co":2217,"yl":2218,"ification":2219,"Ġdocu":2220,"Ġinvestig":2221,"then":2222,"Ġve":2223,"ator":2224,"Ġformer":2225,"aff":2226,"Ġcompan":2227,"Ġencoura":2228,"Ġship":2229,"mit":2230,"So":2231,"Ġenl":2232,"Ġattempts":2233,"Ġcapt":2234,"Ġincreasing":2235,"sia":2236,"Ġarrives":2237,"ĠBl":2238,"ees":2239,"Ġdeli":2240,"Ġcompetition":2241,"Ġhon":2242,"Ġstates":2243,"Ġavail":2244,"ogue":2245,"Ġmoment":2246,"val":2247,"Ġlow":2248,"Ġobs":2249,"Ġapart":2250,"Ġmind":2251,"Ġwhose":2252,"Ġinternal":2253,"ying":2254,"ĠBr":2255,"Ġanim":2256,"ĠBrit":2257,"Finally":2258,"fortun":2259,"ighb":2260,"ext":2261,"Ġinn":2262,"Ġparents":2263,"ott":2264,"ĠHar":2265,"Ġmilit":2266,"Ġtrad":2267,"Ġinstead":2268,"Ġdraw":2269,"Ġwhom":2270,"Ġregions":2271,"Ġamb":2272,"Ġquickly":2273,"for":2274,"idd":2275,"Ġaccord":2276,"Ġeventually":2277,"Ġdrug":2278,"Ġturns":2279,"Ġdestro":2280,"erry":2281,"ging":2282,"ology":2283,"Ġsimply":2284,"Ġeverything":2285,"ize":2286,"Ġpartners":2287,"Ġfoc":2288,"LCB":2289,"Ġtar":2290,"Ġban":2291,"inist":2292,"ior":2293,"Ġfell":2294,"Ġidea":2295,"Ġdemocracy":2296,"Ġpurs":2297,"Ġapplic":2298,"Ġaspect":2299,"Ġresults":2300,"Ġter":2301,"Ġcirc":2302,"ze":2303,"be":2304,"ĠAmerican":2305,"Ġparticip":2306,"Ġstarts":2307,"Ġpost":2308,"Ġlack":2309,"ication":2310,"aking":2311,"uff":2312,"Ġline":2313,"Ġregion":2314,"ĠChrist":2315,"Ġside":2316,"ush":2317,"Ġimplementation":2318,"Ġruns":2319,"Ġstay":2320,"Ġdemocratic":2321,"Ġheart":2322,"His":2323,"Ġcreate":2324,"pose":2325,"Ġfunds":2326,"Ġconcerns":2327,"eral":2328,"Ġground":2329,"utional":2330,"ull":2331,"Ġplans":2332,"ilities":2333,"Ġbord":2334,"rown":2335,"Ġquality":2336,"'re":2337,"omp":2338,"Ġdraft":2339,"Ġele":2340,"Ġrecent":2341,"Ġimmedi":2342,"Ġquestions":2343,"Ch":2344,"Ġfis":2345,"ole":2346,"Ġtimes":2347,"Ġdemon":2348,"Ġalthough":2349,"ticle":2350,"Ġgrowth":2351,"haps":2352,"Ġcommittee":2353,"ulate":2354,"Ġnet":2355,"ncy":2356,"Ġneighb":2357,"Ġmovie":2358,"Ġdiscovers":2359,"Ġfully":2360,"Ġstrengthen":2361,"ĠGe":2362,"Ġgen":2363,"utes":2364,"ike":2365,"ĠQ":2366,"atic":2367,"Ġcred":2368,"ued":2369,"Ġsuper":2370,"ivers":2371,"Ġlight":2372,"Ġresponsible":2373,"Ġgetting":2374,"Ġlonger":2375,"Ġtransp":2376,"ĠGovernment":2377,"itting":2378,"antly":2379,"Ġenter":2380,"Ġkey":2381,"Ġharm":2382,"Ġever":2383,"Ġcompanies":2384,"Ġleaving":2385,"atory":2386,"ĠHe":2387,"epend":2388,"apt":2389,"Ġord":2390,"Ġreveals":2391,"arth":2392,"aur":2393,"of":2394,"ĠUS":2395,"ĉÂłÂł":2396,"Ġreach":2397,"Ġstandards":2398,"ĠNo":2399,"Ġemph":2400,"Ġextremely":2401,"Ġtop":2402,"Ġprocedure":2403,"Ġweek":2404,"Ġrealizes":2405,"Ġexpress":2406,"lusion":2407,"Ġchanges":2408,"Ġimpact":2409,"Ġrisk":2410,"ana":2411,"Ġfire":2412,"Ġdata":2413,"Un":2414,"ĠWe":2415,"ĠPr":2416,"Ġjud":2417,"oid":2418,"nect":2419,"Ġmurder":2420,"sc":2421,"using":2422,"app":2423,"Ġfive":2424,"par":2425,"Ġsustain":2426,"ney":2427,"une":2428,"Ġresol":2429,"ression":2430,"Ġreject":2431,"Ġcharact":2432,"Ġproduction":2433,"cise":2434,"Ġrecomm":2435,"grat":2436,"Ġpot":2437,"ara":2438,"Ġconfron":2439,"Ġmajority":2440,"Ġarrest":2441,"Ġdecide":2442,"ĠAfric":2443,"elf":2444,"Ġavailable":2445,"Ġgroups":2446,"Ġaud":2447,"Ġdial":2448,"enn":2449,"Ġcongrat":2450,"ĠIntern":2451,"Ġdecisions":2452,"Ġshare":2453,"ourt":2454,"Ġdeterm":2455,"rought":2456,"Ġhor":2457,"Ġsister":2458,"ĠAff":2459,"Ġcertainly":2460,"af":2461,"Ġcat":2462,"son":2463,"cell":2464,"nter":2465,"ĠEUR":2466,"Ġcru":2467,"orld":2468,"Ġwin":2469,"lying":2470,"Ġ7":2471,"Ġmilitary":2472,"ude":2473,"Ġclass":2474,"Ġtalk":2475,"ĠAffairs":2476,"Ġmanagement":2477,"Ġsurv":2478,"Ġsubst":2479,"Ġsolution":2480,"Ġrequest":2481,"Ġcrimin":2482,"ma":2483,"Ġtot":2484,"ĠRom":2485,"Ġcrime":2486,"ĠSw":2487,"Ġhot":2488,"Ġneeded":2489,"ĠIr":2490,"Ġprogrammes":2491,"Ġparliament":2492,"Ġmorning":2493,"Ġbur":2494,"bs":2495,"Ġ10":2496,"Ġdecl":2497,"ĠAd":2498,"Ġeducation":2499,"Ġvisit":2500,"ask":2501,"pping":2502,"Ġexam":2503,"Ġcompany":2504,"ĠWh":2505,"Ġobjectives":2506,"Ġassess":2507,"arian":2508,"ached":2509,"arly":2510,"fortunately":2511,"rict":2512,"ĠDr":2513,"Ġalmost":2514,"Ġscene":2515,"Ġconstit":2516,"Ġindeed":2517,"Ġamount":2518,"Ġhosp":2519,"Ġbad":2520,"Ġemphas":2521,"Ġjobs":2522,"rench":2523,"Ġconsequ":2524,"aul":2525,"Ġill":2526,"ĠTr":2527,"During":2528,"ĠMadam":2529,"Ġrule":2530,"Ġmarried":2531,"Ġplac":2532,"All":2533,"Ġtarget":2534,"ya":2535,"new":2536,"attle":2537,"Ġheld":2538,"Ġbroad":2539,"Ġsold":2540,"Ġtele":2541,"Ġaddress":2542,"go":2543,"Ġvillage":2544,"ĠDan":2545,"ets":2546,"Ġinclude":2547,"Ġcases":2548,"Ġherself":2549,"Ġagreements":2550,"Ġconflic":2551,"aut":2552,"Ġbuilding":2553,"riage":2554,"lo":2555,"Ġestablish":2556,"ĠCourt":2557,"Ġappears":2558,"aches":2559,"ĠItal":2560,"Ġshot":2561,"lt":2562,"Ġpack":2563,"ĠLisbon":2564,"Ġlooking":2565,"Ġalone":2566,"bert":2567,"Ġcosts":2568,"hod":2569,"Ġcontext":2570,"Ġce":2571,"ĠTom":2572,"Ġmiss":2573,"Ġprofess":2574,"ev":2575,"Ġactivities":2576,"istic":2577,"Ġtest":2578,"Ġdoub":2579,"Ġmess":2580,"Ġtre":2581,"ĠFund":2582,"ĠJack":2583,"Ġdanger":2584,"Ġasked":2585,"Ġ8":2586,"Ġclos":2587,"ĠSoc":2588,"Ġdoor":2589,"ĠMon":2590,"Ġcross":2591,"Ġkn":2592,"Madam":2593,"ĠPet":2594,"Ġforces":2595,"Ġevents":2596,"ators":2597,"Ġlost":2598,"Ġhalf":2599,"Ġwriting":2600,"Ġart":2601,"Ġeuro":2602,"Ġcurrently":2603,"Ġcoord":2604,"Ġconvin":2605,"..":2606,"Ġdialogue":2607,"Ġcomprom":2608,"mber":2609,"Ġdemonst":2610,"Ġobjective":2611,"Ġdeveloping":2612,"Ġsystems":2613,"Ġtold":2614,"Ġkills":2615,"oks":2616,"Ġreports":2617,"Ġ9":2618,"ĠAnd":2619,"Ġadminist":2620,"ffice":2621,"Ġbrought":2622,").":2623,"Ġfig":2624,"Ġthought":2625,"Ġcarry":2626,"enda":2627,"Ġservice":2628,"Ġblack":2629,"Ġinfl":2630,"Ġabove":2631,"Ġey":2632,"ledge":2633,"hood":2634,"lied":2635,"Ġrefuses":2636,"Ġcoming":2637,"Ġself":2638,"Ġregional":2639,"ours":2640,"ibility":2641,"Ġamendment":2642,"uclear":2643,"20":2644,"Ġappropriate":2645,"Ġstri":2646,"Ġinitiative":2647,"Ġagricultural":2648,"Ġdiv":2649,"oll":2650,"Ġmentioned":2651,"200":2652,"Ġresc":2653,"Ġemer":2654,"Ġforced":2655,"Ġindividual":2656,"Ġknown":2657,"Ġtook":2658,"akes":2659,"ĠTurkey":2660,"Ġhospital":2661,"Ġdespite":2662,"Ġworks":2663,"Ġreasons":2664,"Ġelse":2665,"Ġmaintain":2666,"Ġmult":2667,"iddle":2668,"Ġrepe":2669,"que":2670,"ĠFrench":2671,"Ġwit":2672,"Ġperm":2673,"ilt":2674,"Ġmis":2675,"Ġcohe":2676,"Ġimmig":2677,"First":2678,"Ġcompl":2679,"Ġfear":2680,"rimin":2681,"Ġmarry":2682,"Ġindepend":2683,"Ġfair":2684,"ĠBritish":2685,"iveness":2686,"Ġmist":2687,"ĠMan":2688,"Ġbri":2689,"Ġgiving":2690,"Ġcouple":2691,"uk":2692,"abled":2693,"Ġunc":2694,"ights":2695,"Ġmus":2696,"Ġenlarge":2697,"eng":2698,"ote":2699,"Ġconcerning":2700,"Ġwatch":2701,"ding":2702,"Ġactions":2703,"ishes":2704,"Ġclimate":2705,"Ġcover":2706,"ively":2707,"Ġsuggest":2708,"ĠKing":2709,"ĠDirect":2710,"ĠPal":2711,"Ġmatters":2712,"Ġrad":2713,"ump":2714,"inks":2715,"Ġfellow":2716,"Ġ201":2717,"ĠSam":2718,"Ġdetail":2719,"Ġescap":2720,"Ġeither":2721,"ruction":2722,"Ġtraining":2723,"reg":2724,"ned":2725,"let":2726,"Ġfront":2727,"Ġemb":2728,"Ġwind":2729,"Europe":2730,"Ġconnect":2731,"Ġhands":2732,"Ġtalking":2733,"Ġmethod":2734,"ened":2735,"Ġmurd":2736,"ĠRo":2737,"beral":2738,"sid":2739,"Ġprovided":2740,"Se":2741,"acy":2742,"cent":2743,"Ġearli":2744,"Ġshown":2745,"Ġdam":2746,"Ġconclud":2747,"Ġsolid":2748,"Ġsave":2749,"Ġforeign":2750,"ĠRussia":2751,"Ġguarantee":2752,"Ġstage":2753,"ĠGeor":2754,"Ġled":2755,"Ġil":2756,"Ġant":2757,"yeah":2758,"ĠEm":2759,"Ġjoint":2760,"ots":2761,"Ġdesign":2762,"),":2763,"ĠAmend":2764,"Ġport":2765,"Ġagrees":2766,"Ġstru":2767,"Ġprivate":2768,"Ġparties":2769,"Ġmarriage":2770,"Ġsignificant":2771,"Ġthus":2772,"Ġyeah":2773,"ĠEl":2774,"de":2775,"Ġanything":2776,"Ġnuclear":2777,"eth":2778,"know":2779,"iples":2780,"ological":2781,"Ġ15":2782,"ici":2783,"Ġpain":2784,"Ġkilling":2785,"Ġmonitor":2786,"head":2787,"Ġenlargement":2788,"ored":2789,"Ġreview":2790,"Ġexcell":2791,"ĠEd":2792,"Ġcommunity":2793,"Ġrecord":2794,"atis":2795,"Ġsens":2796,"Let":2797,"ĠCl":2798,"Ġexch":2799,"Ġperhaps":2800,"chan":2801,"Ġspir":2802,"Ġarr":2803,"Ġofficial":2804,"Ġsix":2805,"ĠAng":2806,"uh":2807,"ctions":2808,"arty":2809,"ories":2810,"ĠWorld":2811,"fer":2812,"hel":2813,"set":2814,"Ġfunding":2815,"rew":2816,"Ġoffer":2817,"vent":2818,"Ġanal":2819,"Ġimpos":2820,"amb":2821,"Ġoffers":2822,"Ġwon":2823,"Ġrob":2824,"Ġfoot":2825,"Ġoffice":2826,"Ġisland":2827,"Ġscient":2828,"Ġprinciples":2829,"Ġsearch":2830,"ĠYork":2831,"Ġilleg":2832,"Ġearlier":2833,"ring":2834,"era":2835,"duct":2836,"Ġdesc":2837,"Ġla":2838,"Ġfollows":2839,"Ġconsumers":2840,"Ġpopulation":2841,"ization":2842,"ĠRep":2843,"anced":2844,"Ġcommitment":2845,"Ġrefer":2846,"Later":2847,"oor":2848,"atisf":2849,"Ġaut":2850,"Ġvol":2851,"line":2852,"Ġtem":2853,"Ġlearns":2854,"Ġanswer":2855,"Ġwrong":2856,"ĠBel":2857,"ĠBal":2858,"uly":2859,"Ġmag":2860,"Ġremains":2861,"Ġdefin":2862,"Ġdog":2863,"Ġver":2864,"ĠCol":2865,"Ġdut":2866,"urs":2867,"Ġobv":2868,"ĠSocial":2869,"ij":2870,"Ġnature":2871,"emoc":2872,"apan":2873,"Ġsurpr":2874,"Ġpoor":2875,"Ġhop":2876,"umb":2877,"Ġjour":2878,"Ġprojects":2879,"rect":2880,"unk":2881,"rupt":2882,"Ġgovernments":2883,"Ġdecided":2884,"Ġsense":2885,"Ġoppos":2886,"joy":2887,"Ġresponse":2888,"Ġrecommend":2889,"ĠReg":2890,"ening":2891,"encies":2892,"Ġpersonal":2893,"eria":2894,"Ġmob":2895,"employ":2896,"more":2897,"Ġinside":2898,"Ġexcept":2899,"Ġthroughout":2900,"Ġpractice":2901,"ternal":2902,"Ġapartment":2903,"Ġdestroy":2904,"Ġgrand":2905,"hern":2906,"Ġregards":2907,"Ġmission":2908,"angu":2909,"Ġregarding":2910,"Ġsepar":2911,"ris":2912,"resident":2913,"Ġpotential":2914,"Ġrecently":2915,"Ġremind":2916,"'ve":2917,"Ġdate":2918,"uing":2919,"ograph":2920,"Ġdream":2921,"Ġpromote":2922,"St":2923,"Ġpen":2924,"Ġexcellent":2925,"Ġprevious":2926,"Ġum":2927,"Ġviolence":2928,"Ġavoid":2929,"ites":2930,"Ġdocument":2931,"Ġbase":2932,"Ġexperience":2933,"ained":2934,"ania":2935,"Ġcompromise":2936,"orrow":2937,"Ġimmediately":2938,"aby":2939,"ĠChar":2940,"Ġsal":2941,"Ġsusp":2942,"Ġassoc":2943,"rael":2944,"ĠArticle":2945,"Ġagreed":2946,"Ġblood":2947,"ĠMay":2948,"Ġheard":2949,"Ġachieved":2950,"Ġcle":2951,"ĠMc":2952,"ĠEng":2953,"uel":2954,"ades":2955,"Ġbenefit":2956,"Ġmanages":2957,"DE":2958,"Ġassistance":2959,"Ġtor":2960,"ĠCo":2961,"Ġmechan":2962,"Ġbook":2963,"isters":2964,"sy":2965,"ously":2966,"Ġvo":2967,"ĠPh":2968,"--":2969,"ĠCent":2970,"ĠOr":2971,"Ġleads":2972,"term":2973,"President":2974,"Ġrecon":2975,"Ġrap":2976,"Ġurg":2977,"ĠPar":2978,"Ġcontr":2979,"Ġcust":2980,"Ġgrant":2981,"Ġz":2982,"Ġearly":2983,"vant":2984,"rain":2985,"Ġarrive":2986,"Ġpriority":2987,"My":2988,"Ġargu":2989,"eneral":2990,"Ġlate":2991,"Ġinitial":2992,"ese":2993,"ĠDav":2994,"Ġpowers":2995,"Ġsuccessful":2996,"Ġindic":2997,"overty":2998,"ĠGerman":2999,"aught":3000,"Ġwanted":3001,"bo":3002,"Ġappear":3003,"ĠChina":3004,"gic":3005,"Ġhappened":3006,"Ġchance":3007,"Ġproceed":3008,"Ġunable":3009,"Ġcause":3010,"Ġthrow":3011,"Ġcontinues":3012,"Ġden":3013,"ĠJapan":3014,"Ġmass":3015,"ĠConvention":3016,"Ġbrief":3017,"ĠGree":3018,"Ġnote":3019,"Ġhappy":3020,"vere":3021,"unch":3022,"Now":3023,"Ġdro":3024,"Sh":3025,"Ġhig":3026,"Ġexec":3027,"olute":3028,"Ġhost":3029,"Ġcontact":3030,"yn":3031,"Ġhuge":3032,"Ġund":3033,"Ġfishing":3034,"oph":3035,"imum":3036,"ĠSec":3037,"Ġgame":3038,"ĠWar":3039,"'m":3040,"rated":3041,"Ġcongratulate":3042,"Ġbed":3043,"hold":3044,"iers":3045,"Ġitem":3046,"Although":3047,"Ġcompletely":3048,"Ġvalue":3049,"ĠMinister":3050,"Ġcapital":3051,"Ġrequired":3052,"Ġaspects":3053,"Ġage":3054,"Ġnews":3055,"Ġmarkets":3056,"Ġinflu":3057,"ched":3058,"Ġenjoy":3059,"ael":3060,"ctors":3061,"ĠBe":3062,"Ġtechnical":3063,"Ġcame":3064,"Ġ18":3065,"Ġpret":3066,"read":3067,"arily":3068,"Ġcharacter":3069,"Ġtour":3070,"Ġten":3071,"Ġvalues":3072,"Ġcriminal":3073,"Ġknows":3074,"equ":3075,"Ġprob":3076,"Ġcolleagues":3077,"Ġdeep":3078,"ills":3079,"Ġlangu":3080,"Ġcoll":3081,"Ġapply":3082,"Ġlabour":3083,"Ġtrou":3084,"unities":3085,"Ġbelieves":3086,"Ġlegislative":3087,"Ġabsolute":3088,"year":3089,"Ġdemands":3090,"ones":3091,"Ġlos":3092,"iles":3093,"ĠEuro":3094,"leep":3095,"Ġsustainable":3096,"Ġtruth":3097,"ery":3098,"Ġdies":3099,"Ġrestrict":3100,"ĠIsrael":3101,"Ġarm":3102,"lex":3103,"Then":3104,"Ġsolidarity":3105,"arency":3106,"Ġhit":3107,"Ġexisting":3108,"Be":3109,"Ġbank":3110,"ops":3111,"Ġpoverty":3112,"Ġuses":3113,"Ġhear":3114,"ĠMed":3115,"Ġcand":3116,"Ġinvestment":3117,"Ġconsumer":3118,"Ġways":3119,"rif":3120,"well":3121,"itional":3122,"Ġweap":3123,"ference":3124,"TO":3125,"ensive":3126,"ĠJan":3127,"Ġconsult":3128,"Ġcommunication":3129,"Ġhistory":3130,"Second":3131,"ĠFrance":3132,"Therefore":3133,"Ġlat":3134,"Ġrelation":3135,"raw":3136,"ĠUN":3137,"ĠFin":3138,"Office":3139,"Ġdom":3140,"Ġsell":3141,"tt":3142,"Ġ$":3143,"where":3144,"Ġcarried":3145,"Ġfamil":3146,"uine":3147,"Ġ12":3148,"Ġhar":3149,"Ġtraff":3150,"Ġwealth":3151,"ederal":3152,"heries":3153,"Ġreading":3154,"Ġinj":3155,"acher":3156,"Ġorganis":3157,"Ġjustice":3158,"Ġcollect":3159,"Ġrequirements":3160,"Ġintegration":3161,"Ġvictims":3162,"imately":3163,"Ġbeaut":3164,"ief":3165,"Ġreality":3166,"ares":3167,"Ġstation":3168,"ĠRaj":3169,"Ġcontract":3170,"Ġsubsid":3171,"Ġcontribution":3172,"Ġreven":3173,"Ġrepl":3174,"vision":3175,"Ġfra":3176,"Ġred":3177,"antic":3178,"ĠFrank":3179,"Our":3180,"Ġconsequences":3181,"irth":3182,"Ġtransparency":3183,"ilar":3184,"Ġleading":3185,"Ġassum":3186,"Ġagenda":3187,"Ġrespond":3188,"Ġwitness":3189,"Ġcultural":3190,"Ġsche":3191,"appe":3192,"Ġbasic":3193,"Ġmut":3194,"rec":3195,"ingly":3196,"ĠPe":3197,"Ġbalance":3198,"right":3199,"ĠRights":3200,"Ġmodel":3201,"Ġraised":3202,"Ġelections":3203,"Ġstrugg":3204,"erc":3205,"Ġterrorism":3206,"Ġincreased":3207,"Ġprocedures":3208,"rand":3209,"ift":3210,"Ġillegal":3211,"Ġopt":3212,"ĠDemoc":3213,"Ġpleased":3214,"Ġknowledge":3215,"Ġhom":3216,"Ġbattle":3217,"Ġseries":3218,"ession":3219,"Ġunemploy":3220,"rial":3221,"Ġsatisf":3222,"Ġcreation":3223,"Ġbeginning":3224,"int":3225,"Ġgirls":3226,"ocks":3227,"Ġ|":3228,"Ġmember":3229,"Ġrevealed":3230,"Ġstatement":3231,"ĠDirective":3232,"Ġboard":3233,"Ġattacks":3234,"Ġclaim":3235,"Ġsound":3236,"nces":3237,"Ġspirit":3238,"ien":3239,"illy":3240,"Ġdoubt":3241,"Ġregulations":3242,"ald":3243,"etary":3244,"Ġemission":3245,"Ġcriteria":3246,"Ġpressure":3247,"Ġchallenges":3248,"ĠPl":3249,"Ġfirm":3250,"Ġinnov":3251,"Ġreflect":3252,"Ġlink":3253,"Ġattract":3254,"Ġprovisions":3255,"uted":3256,"Ġmessage":3257,"Ġpresented":3258,"ĠJim":3259,"Ġstress":3260,"Ġinvolve":3261,"dden":3262,"Ġreduce":3263,"Ġsett":3264,"sian":3265,"roll":3266,"Ġ2000":3267,"Ġleaders":3268,"Ġdire":3269,"Ġrail":3270,"Ġtask":3271,"conomic":3272,"Ġconflict":3273,"ĠPaul":3274,"Ġfocus":3275,"Ġthanks":3276,"Ġmodern":3277,"Ġult":3278,"Ġcrucial":3279,"Ġsafe":3280,"Ġcod":3281,"ĠAust":3282,"ball":3283,"oke":3284,"Ġobtain":3285,"Ġexchange":3286,"Ġweak":3287,"Ġequal":3288,"'.":3289,"Ġstaff":3290,"Ġmusic":3291,"mar":3292,"room":3293,"ĠMor":3294,"Ġconduct":3295,"ĠShe":3296,"Ġsudden":3297,"Ġyes":3298,"Ġprecise":3299,"Ġgirlfriend":3300,"Ġthinking":3301,"ĠPort":3302,"Ġterrit":3303,"Ġpie":3304,"Ġfarmers":3305,"icide":3306,"Ġworth":3307,"vis":3308,"ager":3309,"ĠMal":3310,"Ġapplication":3311,"ĠAb":3312,"Ġsort":3313,"Ġreceived":3314,"izes":3315,"cl":3316,"Ġtreatment":3317,"dom":3318,"Ġourselves":3319,"Ġsets":3320,"olly":3321,"een":3322,"ama":3323,"Ġhighlight":3324,"Ġir":3325,"Ġgas":3326,"Ġcourt":3327,"ĠEast":3328,"Ġwed":3329,"Ġprepared":3330,"Ġaband":3331,"Ġwent":3332,"liance":3333,"ason":3334,"Ġdel":3335,"Ġoblig":3336,"vert":3337,"Ġbaby":3338,"ichael":3339,"ban":3340,"idel":3341,"Ġevidence":3342,"Ġprobably":3343,"Ġcritic":3344,"Ġencou":3345,"ech":3346,"ĠWill":3347,"Ġflex":3348,"Ġtelling":3349,"ĠAmerica":3350,"Ġliberal":3351,"Ġstability":3352,"Ġ11":3353,"Ġbecoming":3354,"mp":3355,"ĠJust":3356,"ugs":3357,"Ġcorrect":3358,"Ġorders":3359,"Ġoil":3360,"Ġmater":3361,"Ġtotal":3362,"Ġcast":3363,"Ġinstruments":3364,"Ġanalys":3365,"Ġprice":3366,"Ġlevels":3367,"Ġofficer":3368,"erve":3369,"Ġbit":3370,"Ġcrew":3371,"Ġletter":3372,"Ġreached":3373,"Ġcircum":3374,"ousand":3375,"Ġincluded":3376,"Secondly":3377,"iter":3378,"Ġcohesion":3379,"ini":3380,"ĠLi":3381,"ray":3382,"Ġhotel":3383,"Ġbomb":3384,"Ġdied":3385,"Ġrat":3386,"Ġacqu":3387,"Ġmyster":3388,"Ġbirth":3389,"ĠMart":3390,"itude":3391,"ĠThis":3392,"icks":3393,"Ġeffects":3394,"Ġbreaks":3395,"Ġrelating":3396,"Ġpub":3397,"like":3398,"long":3399,"eks":3400,"Ġallowed":3401,"Ġexplains":3402,"Ġexact":3403,"Des":3404,"Ġplaying":3405,"Ġcausing":3406,"Ġstudy":3407,"Ġdirection":3408,"ĠIra":3409,"ĠRepublic":3410,"Ġconsidered":3411,"Ġharmon":3412,"theless":3413,"Ġcommitted":3414,"Ġcreated":3415,"Ġ\"":3416,"Ġwall":3417,"Ġdin":3418,"ĠSouth":3419,"\\*":3420,"Ġconsist":3421,"Ġwarn":3422,"wise":3423,"Ġtabled":3424,"ĠAmendment":3425,"Ġmovement":3426,"olid":3427,"Ġvoting":3428,"Ġrefuge":3429,"Ġband":3430,"Ġnatural":3431,"ĠMad":3432,"ĠDavid":3433,"yle":3434,"Ġlooks":3435,"Ġhy":3436,"sels":3437,"gar":3438,"vered":3439,"Ġtechnology":3440,"ĠAngel":3441,"ĠAs":3442,"ĠAfrica":3443,"Ġencourage":3444,"Ġremember":3445,"Ġopportunities":3446,"Ġnorm":3447,"Ġinitiatives":3448,"Ġcandid":3449,"Ġment":3450,"Ġrelig":3451,"Ġinstrument":3452,"Ġnamely":3453,"Ġsuspect":3454,"ĠParty":3455,"Ġsteps":3456,"itarian":3457,"Ġgone":3458,"Ġbrings":3459,"ĠDon":3460,"Ġsucceed":3461,"ourable":3462,"Ġsimilar":3463,"Ġexplain":3464,"Ġgenuine":3465,"Ġaccession":3466,"Ġanti":3467,"Ġpackage":3468,"Ġcauses":3469,"iful":3470,"Ġtom":3471,"Ġhum":3472,"Ġregret":3473,"Ġundert":3474,"Ġapparent":3475,"ows":3476,"Ġseek":3477,"Ġorganisations":3478,"Ġ30":3479,"Ġsn":3480,"ĠIre":3481,"Ġestablished":3482,"aign":3483,"ĠBen":3484,"urch":3485,"fect":3486,"Ġfre":3487,"leb":3488,"ĠIraq":3489,"ĠQu":3490,"dy":3491,"Ġheav":3492,"Ġdise":3493,"itten":3494,"Ġleader":3495,"istan":3496,"Ġpriorities":3497,"ender":3498,"Her":3499,"ports":3500,"Ġtrust":3501,"Some":3502,"Ġdoctor":3503,"ĠGu":3504,"Ġdisappe":3505,"Ġreceive":3506,"Ġbod":3507,"Ġoccas":3508,"Ġdeveloped":3509,"ilater":3510,"Ġcustom":3511,"ature":3512,"Ġthousand":3513,"Ġprovides":3514,"Ġmonitoring":3515,"ĠJul":3516,"Ġforest":3517,"ĠâĢĺ":3518,"just":3519,"Ġ!":3520,"ino":3521,"cer":3522,"Ġdiscrimin":3523,"Ġconclusion":3524,"Ġadditional":3525,"sec":3526,"ken":3527,"back":3528,"rative":3529,"Ġsend":3530,"view":3531,"rely":3532,"Ġoriginal":3533,"Ġweeks":3534,"More":3535,"Ġdepart":3536,"Ġvoice":3537,"body":3538,"Ġnor":3539,"Ġcampaign":3540,"ita":3541,"hic":3542,"eff":3543,"Ġign":3544,"Ġexperi":3545,"Ġslow":3546,"Ġaltern":3547,"Ġfloor":3548,"iated":3549,"Ġrunning":3550,"gn":3551,"Ġasking":3552,"ĠPalest":3553,"Ġsomeone":3554,"Ġphot":3555,"Ġpurpose":3556,"Ġbillion":3557,"Ġspeech":3558,"sibilities":3559,"ĠSl":3560,"Ġconvinced":3561,"uct":3562,"Ġabandon":3563,"alled":3564,"Ġprim":3565,"Ġsuicide":3566,"Ġseeing":3567,"force":3568,"oul":3569,"Ġwaste":3570,"Ġwound":3571,"Ġescapes":3572,"Ġexternal":3573,"nie":3574,"Ġtro":3575,"Ġadvant":3576,"uf":3577,"isc":3578,"Ġcalling":3579,"ĠII":3580,"ocked":3581,"Ġpick":3582,"Ġphone":3583,"Ġsufficient":3584,"Ġcircumst":3585,"Further":3586,"Ġbudgetary":3587,"rie":3588,"iment":3589,"Ġdisp":3590,"Ġdescrib":3591,"Ġextent":3592,"Ġpun":3593,"ĠMary":3594,"Ġ25":3595,"Ġsetting":3596,"han":3597,"Ġvital":3598,"gest":3599,"Ġexpressed":3600,"Ġcreating":3601,"irt":3602,"Ġ?":3603,"Ġsends":3604,"Ġdrive":3605,"acity":3606,"Ġrenew":3607,"bour":3608,"ications":3609,"Ġopening":3610,"Ġreb":3611,"ival":3612,"ĠConstit":3613,"Ġwat":3614,"Ġrural":3615,"Ġcentral":3616,"Ġmount":3617,"Ġvehic":3618,"Ġmedium":3619,"iciency":3620,"Ġrich":3621,"Ġrate":3622,"Ġclaims":3623,"Ġeval":3624,"Ġsupported":3625,"ĠSan":3626,"Ġready":3627,"ĠCy":3628,"Ã©":3629,"icy":3630,"eal":3631,"Ġshoots":3632,"Ġtype":3633,"Ġpossibility":3634,"Ġcombat":3635,"action":3636,"Ġwaiting":3637,"Ġplot":3638,"Ġbodies":3639,"Ġbenefits":3640,"Ġchallenge":3641,"Ġwid":3642,"Ġgoods":3643,"Ġopens":3644,"By":3645,"Ġforms":3646,"ĠCal":3647,"Ġauthor":3648,"Ġpaid":3649,"Ġmotion":3650,"Ġmem":3651,"Ġduty":3652,"Ġculture":3653,"Ġwishes":3654,"aration":3655,"Ġang":3656,"raft":3657,"Ġimplemented":3658,"Ġhours":3659,"velopment":3660,"rats":3661,"ĠMa":3662,"Ġbehav":3663,"Ġpartnership":3664,"Ġbey":3665,"Con":3666,"icial":3667,"house":3668,"pre":3669,"Ġanimals":3670,"Ġforget":3671,"Ġcollege":3672,"Ġabsolutely":3673,"ĠSu":3674,"ĠGermany":3675,"agraph":3676,"Ġdrink":3677,"rs":3678,"Ġprices":3679,"Ġsea":3680,"Ġemissions":3681,"Ġcaused":3682,"Ġtable":3683,"Ġrom":3684,"Ġpict":3685,"rehen":3686,"Ġaffair":3687,"ĠSwed":3688,"Ġborders":3689,"Ġmaterial":3690,"Ġgrad":3691,"ĠIreland":3692,"Ġsleep":3693,"Ġconfirm":3694,"Ġdrugs":3695,"Ġbeyond":3696,"aced":3697,"ylum":3698,"Ġreduction":3699,"Ġmedia":3700,"ĠJune":3701,"Ġuns":3702,"ena":3703,"ĠEn":3704,"Ġcounter":3705,"ica":3706,"Ġceleb":3707,"Ġ13":3708,"Ġwedding":3709,"erran":3710,"Ġcircumstances":3711,"Ġincreasingly":3712,"Ġpartner":3713,"Ġtomorrow":3714,"Ġloss":3715,"Ġconfidence":3716,"Ġstudents":3717,"Ġensuring":3718,"cember":3719,"overed":3720,"Ġ...":3721,"Ġcomments":3722,"Ġarmy":3723,"Ġimmigration":3724,"Ġconnection":3725,"Ġ000":3726,"Ġarrested":3727,"ĠGod":3728,"Ġpubl":3729,"cks":3730,"ĠLu":3731,"Ġcaught":3732,"itation":3733,"Ġcompetit":3734,"ground":3735,"Ġbeautiful":3736,"Ġenable":3737,"ilateral":3738,"Ġsaw":3739,"Ġtack":3740,"itch":3741,"Ġlif":3742,"ĠEx":3743,"Ġanyone":3744,"ĠPortug":3745,"Ġpull":3746,"Ġcomplex":3747,"Ġindustrial":3748,"Ġefficient":3749,"Ġcal":3750,"Ġcop":3751,"Ġevening":3752,"ky":3753,"ming":3754,"anish":3755,"Ġsectors":3756,"coming":3757,"ĠSer":3758,"Ġunf":3759,"inated":3760,"ĠChe":3761,"Ġaccepted":3762,"Unfortunately":3763,"che":3764,"ĠConference":3765,"Ġintended":3766,"Ġfunction":3767,"Ġfinding":3768,"iterran":3769,"estern":3770,"ource":3771,"iterranean":3772,"Ġintel":3773,"ĠAlex":3774,"zz":3775,"Ġnar":3776,"Ġgave":3777,"illed":3778,"Ġbear":3779,"Ġpresidency":3780,"Ġdiscussed":3781,"Ġborder":3782,"Ġdangerous":3783,"Ġviews":3784,"Ġseriously":3785,"ox":3786,"Ġbusinesses":3787,"urt":3788,"Ġcontent":3789,"ĠJoe":3790,"Ġdirectly":3791,"Ġspace":3792,"Ġspeed":3793,"ĠMichael":3794,"Ġ17":3795,"Ġbuy":3796,"Despite":3797,"Ġstatus":3798,"ĠSch":3799,"Ġagriculture":3800,"iling":3801,"Ġconcept":3802,"Ġfisheries":3803,"iam":3804,"rian":3805,"Ġenterpr":3806,"ĠNations":3807,"European":3808,"nal":3809,"Ġaccording":3810,"iction":3811,"Ġfighting":3812,"ĠCentral":3813,"Ġstreet":3814,"Ġaffected":3815,"Ġapplied":3816,"Ġmach":3817,"Ġperfect":3818,"Ġassessment":3819,"iversity":3820,"ari":3821,"izing":3822,"Ġchoice":3823,"aging":3824,"enced":3825,"Ġeffectively":3826,"ĠBob":3827,"Ġpractical":3828,"Ġspend":3829,"Ġsil":3830,"Ġanimal":3831,"ĠDecember":3832,"Ġsan":3833,"Ġreforms":3834,"rid":3835,"Ġrepresentatives":3836,"icated":3837,"Ġpoll":3838,"wor":3839,"Ġqual":3840,"Ġincident":3841,"Ġsexual":3842,"Ġindependent":3843,"Ġ14":3844,"Ġexplo":3845,"elt":3846,"Ġdefe":3847,"ĠGeneral":3848,"Ġsoldiers":3849,"ĠEC":3850,"Ġfort":3851,"inary":3852,"Ġplanning":3853,"Ġhighly":3854,"ĠNorth":3855,"ĠSum":3856,"Ġperformance":3857,"Of":3858,"Ġasylum":3859,"pper":3860,"Ġproviding":3861,"sych":3862,"idelines":3863,"Ġunemployment":3864,"ĠBudget":3865,"Ġsupply":3866,"Ġwonder":3867,"EC":3868,"bed":3869,"Ġdealing":3870,"ining":3871,"Ġcentury":3872,"Ġcontain":3873,"ĠJerry":3874,"Ġrescue":3875,"Ġdepend":3876,"Ġsqu":3877,"Ġmiddle":3878,"oking":3879,"Ġidentity":3880,"Ġcondem":3881,"ĠGeorge":3882,"'ll":3883,"Ġsteal":3884,"Ġowner":3885,"Ġstar":3886,"Ġeyes":3887,"ani":3888,"ureau":3889,"Ġoperation":3890,"arlie":3891,"ondon":3892,"ĠBank":3893,"pective":3894,"Ġteacher":3895,"Ġrelevant":3896,"Ġcolleague":3897,"Ġmeant":3898,"Once":3899,"Ġcommer":3900,"Ġer":3901,"Ġrout":3902,"Ġlar":3903,"Ġwilling":3904,"Ġraise":3905,"olf":3906,"uary":3907,"Ġsometimes":3908,"Ġsubstant":3909,"Ġke":3910,"Ġdiscussions":3911,"Ġcomment":3912,"Ġones":3913,"Ġhistor":3914,"Ġfem":3915,"ĠJustice":3916,"Since":3917,"Ġfeels":3918,"Ġcapacity":3919,"Ġgrowing":3920,"Ġdifficulties":3921,"Ġannounc":3922,"Ġeld":3923,"Ġbul":3924,"Ġplays":3925,"dam":3926,"rant":3927,"ĠWhite":3928,"'d":3929,"Ġplant":3930,"urance":3931,"ĠJo":3932,"Ġboys":3933,"Ġfollowed":3934,"kes":3935,"Ġstarted":3936,"Ġthinks":3937,"Ġfulf":3938,"Ġadoption":3939,"Ġpersu":3940,"Ġkids":3941,"ĠSpanish":3942,"Ġsitting":3943,"Ġsimpl":3944,"ĠDevelopment":3945,"Ġhigher":3946,"Ġoccur":3947,"Ġradio":3948,"rel":3949,"ĠLondon":3950,"Ġextra":3951,"Ġvisits":3952,"Ġannual":3953,"Ġinfluence":3954,"EP":3955,"Ġpenal":3956,"ancing":3957,"Ġagencies":3958,"Ġunac":3959,"ective":3960,"Ġsuddenly":3961,"Ġmissing":3962,"Ġboss":3963,"Ġstab":3964,"ĠBro":3965,"itable":3966,"Ġactive":3967,"Ġtried":3968,"Ġball":3969,"aken":3970,"Just":3971,"Ġplayed":3972,"Ġeth":3973,"cher":3974,"How":3975,"Ġ16":3976,"Ġrevenge":3977,"rap":3978,"undred":3979,"aving":3980,"Ġstructural":3981,"Ġsong":3982,"ĠSar":3983,"Ġapproved":3984,"Ġarms":3985,"ram":3986,"Ġpsych":3987,"ĠRussian":3988,"ĠGreen":3989,"Ġburn":3990,"Ġaccidentally":3991,"Ġconcent":3992,"ĠBer":3993,"rast":3994,"Ġmand":3995,"Ġkiss":3996,"Ġdeleg":3997,"Ġhappens":3998,"Ġwait":3999,"Ġcoordination":4000,"Ġbelong":4001,"Ġstudent":4002,"reement":4003,"Before":4004,"Ġefficiency":4005,"Is":4006,"Ġflow":4007,"va":4008,"aries":4009,"Ġonto":4010,"Ġrealize":4011,"Ġconstruct":4012,"Ġsupposed":4013,"iate":4014,"lor":4015,"Ġfamilies":4016,"Ġreference":4017,"Ġbi":4018,"Ġpregn":4019,"order":4020,"Ġmeasure":4021,"off":4022,"icit":4023,"Ġolder":4024,"Ġmanner":4025,"ĠLa":4026,"Ġkiller":4027,"Ġfailed":4028,"Ġ%":4029,"Ġprovision":4030,"Ġclim":4031,"Ġarrange":4032,"Ġgold":4033,"Ġreun":4034,"ĠIrish":4035,"eb":4036,"Furthermore":4037,"Ġsto":4038,"Ġ50":4039,"Ġweapons":4040,"iring":4041,"Ġcommand":4042,"Ġinstitutional":4043,"inese":4044,"itious":4045,"ether":4046,"bur":4047,"Ġanalysis":4048,"Ġrequires":4049,"Ġscientific":4050,"Ġguidelines":4051,"Ġsummit":4052,"cle":4053,"oes":4054,"ohol":4055,"Ġwhite":4056,"Ġconsiderable":4057,"Ġputs":4058,"Ind":4059,"Ġregime":4060,"Ġcell":4061,"Ġfish":4062,"Ġrise":4063,"Ġscope":4064,"Ġtrip":4065,"Ġexactly":4066,"Ġcatch":4067,"lusions":4068,"Ar":4069,"rog":4070,"Ġcloser":4071,"Am":4072,"omen":4073,"Ġclub":4074,"Ġcam":4075,"oday":4076,"Ġsolutions":4077,"Ġturned":4078,"rastruct":4079,"cohol":4080,"ki":4081,"erson":4082,"ĠBo":4083,"Ġparts":4084,"Ġchanged":4085,"Ġdie":4086,"ĠPalestin":4087,"ĠItalian":4088,"Ġspeaking":4089,"Ġoverall":4090,"ĠRes":4091,"Ġaimed":4092,"Ġlose":4093,"Ġlanguage":4094,"Ġunaccept":4095,"iture":4096,"ĠPat":4097,"No":4098,"Ġboat":4099,"Ġrace":4100,"Ġintroduced":4101,"Ġfigure":4102,"Ġparagraph":4103,"Ġrapid":4104,"Ġwood":4105,"Ġhide":4106,"Ġbox":4107,"ĠCity":4108,"Ġhelps":4109,"Ġdamage":4110,"orpor":4111,"Ġdriving":4112,"imension":4113,"Ġattacked":4114,"Ġauthority":4115,"Ġeasy":4116,"Ġsubm":4117,"rage":4118,"Ġputting":4119,"making":4120,"Ġdisapp":4121,"Ġclosely":4122,"bit":4123,"Ġincludes":4124,"ĠAnt":4125,"Ġgain":4126,"ĠKos":4127,"Ġproduce":4128,"ka":4129,"Ġstated":4130,"Ġpercent":4131,"Ġregular":4132,"Ġlies":4133,"terday":4134,"ĠChinese":4135,"Ġcompetitiveness":4136,"Ġdoll":4137,"ashing":4138,"Ġhundred":4139,"ĠRich":4140,"Ġactivity":4141,"Ġalive":4142,"Ġdiscrimination":4143,"Ġsimple":4144,"Ġoccup":4145,"Ġadministrative":4146,"Ġworked":4147,"Ġtalks":4148,"Ġphys":4149,"uter":4150,"mas":4151,"Ġstrategic":4152,"ifying":4153,"Ġlimit":4154,"Ġmig":4155,"ada":4156,"verse":4157,"Ġinfrastruct":4158,"sive":4159,"wo":4160,"Ġcro":4161,"Ġcontribute":4162,"sequently":4163,"Firstly":4164,"Ġpopular":4165,"Ġrein":4166,"ught":4167,"ilst":4168,"anda":4169,"Comm":4170,"ker":4171,"Ġguard":4172,"ĠItaly":4173,"Ġaccomp":4174,"Ġcommercial":4175,"ĠRed":4176,"Even":4177,"Ġpil":4178,"itle":4179,"Ġclar":4180,"Ġparliamentary":4181,"Ġpath":4182,"Ġhero":4183,"Ġboyfriend":4184,"Ġadapt":4185,"ĠFor":4186,"ients":4187,"icking":4188,"Ġlimited":4189,"arry":4190,"Ġdism":4191,"Ġtransfer":4192,"ocol":4193,"Ġalloc":4194,"egu":4195,"Ġut":4196,"lish":4197,"Ġprove":4198,"Ġneighbor":4199,"Ġround":4200,"Ġspecifically":4201,"rates":4202,"Ġunacceptable":4203,"Ġtruck":4204,"Ġdefence":4205,"Ġmyself":4206,"Ġprecisely":4207,"Ġpropose":4208,"ran":4209,"ĠSte":4210,"ĠPeter":4211,"ĠInternational":4212,"race":4213,"ĠWest":4214,"Ġpresence":4215,"ĠIndia":4216,"Ġhumanitarian":4217,"Ġlawy":4218,"ĠX":4219,"law":4220,"Ġcondition":4221,"Ġtyp":4222,"Ġimproving":4223,"rants":4224,"Ġforg":4225,"Ġstore":4226,"Ġunfortunately":4227,"ufact":4228,"Ġalcohol":4229,"Ġahead":4230,"Ġvolunt":4231,"amber":4232,"Ġquot":4233,"Ġability":4234,"Ġlaws":4235,"Ġpension":4236,"Their":4237,"Ġconclusions":4238,"Ġapprec":4239,"Ġfailure":4240,"Ġpet":4241,"Ġeight":4242,"Ġpresident":4243,"ĠEarth":4244,"Ġdefend":4245,"ĠServ":4246,"hi":4247,"ĠLou":4248,"works":4249,"Ġnearby":4250,"ĠMax":4251,"Ġjail":4252,"Ġinterested":4253,"Ġdrawn":4254,"Ġengage":4255,"Ġreferred":4256,"Ġsuspic":4257,"ĠDemocrats":4258,"ras":4259,"Ġtrib":4260,"Ġsafegu":4261,"Ġwide":4262,"Ġblow":4263,"Ġstra":4264,"ico":4265,"iny":4266,"Ġ198":4267,"itors":4268,"Ġagency":4269,"Ġwindow":4270,"Ġconsideration":4271,"Ġrid":4272,"ugg":4273,"Ġpromoting":4274,"Ġclean":4275,"Ġsurround":4276,"Ġmid":4277,"Ġda":4278,"Ġlegit":4279,"Ġminimum":4280,"Ġ2007":4281,"Ġimplementing":4282,"Ġsad":4283,"Ġultimately":4284,"bourg":4285,"Ġdistrib":4286,"Ġbuilt":4287,"isms":4288,"ula":4289,"Ġaccordance":4290,"Ġobviously":4291,"host":4292,"Ġking":4293,"Ġmoving":4294,"Ġparticipation":4295,"Ġprofessional":4296,"ĠTe":4297,"ecause":4298,"ĠSing":4299,"ovo":4300,"Ġcomprehen":4301,"Ġrightly":4302,"99":4303,"ĠVal":4304,"ja":4305,"ume":4306,"government":4307,"ĠLeg":4308,"Ġremaining":4309,"Ġcontains":4310,"Ġdeg":4311,"die":4312,"ĠSy":4313,"Ġplaces":4314,"Ġdark":4315,"raz":4316,"ĠBur":4317,"hib":4318,"ĠMarch":4319,"Ġimag":4320,"Ġmanufact":4321,"Ġhid":4322,"Ġenorm":4323,"Ġmurdered":4324,"Ġenters":4325,"Ġhang":4326,"Ġrisks":4327,"ĠLuc":4328,"Ġsupporting":4329,"enty":4330,"Ġfraud":4331,"Ġbringing":4332,"ĠSecurity":4333,"ague":4334,"rab":4335,"Ġspent":4336,"Ġtrouble":4337,"Ġadvantage":4338,"ĠEnglish":4339,"ĠKar":4340,"Ġdetermined":4341,"Ġvac":4342,"Ġmethods":4343,"Ġvan":4344,"Ġstandard":4345,"Ġbecame":4346,"Ġyounger":4347,"cers":4348,"estic":4349,"Ġsubstantial":4350,"Ġchair":4351,"Ġproduced":4352,"Ġdocuments":4353,"Ġrefere":4354,"Ġpaper":4355,"Ġconference":4356,"Ġstarting":4357,"ĠRam":4358,"sized":4359,"Ġinteresting":4360,"arks":4361,"ria":4362,"Ġwalks":4363,"Ġobser":4364,"Ġwithd":4365,"Ġtelevision":4366,"Ġelder":4367,"Ġuseful":4368,"ille":4369,"Ġfacing":4370,"Ġinformed":4371,"Ġdance":4372,"Ġadequ":4373,"ancy":4374,"Ġdeliver":4375,"Ġdiscussing":4376,"Ġreluct":4377,"ĠAgreement":4378,"Ġintroduction":4379,"Ġambitious":4380,"Ġenterprises":4381,"ĠWTO":4382,"Ġreact":4383,"Ġaccepts":4384,"ĠProt":4385,"ĠEconomic":4386,"Ġallows":4387,"Ġconclude":4388,"entions":4389,"ashes":4390,"Ġbeat":4391,"ĠSm":4392,"Ġtransform":4393,"ulated":4394,"Ġstrict":4395,"Ġmoves":4396,"upp":4397,"ĠMediterranean":4398,"Today":4399,"Ġtool":4400,"Ġep":4401,"Ġacknow":4402,"Ġgreen":4403,"Ġexpend":4404,"Ġlines":4405,"ushes":4406,"Ġcoast":4407,"Ġcommitments":4408,"Ġemerg":4409,"Ġkidna":4410,"Ġpan":4411,"Ġpractices":4412,"rey":4413,"Ġwealthy":4414,"Ġmanaged":4415,"Ġbeg":4416,"ĠSim":4417,"ussels":4418,"Ġchurch":4419,"Ġcritical":4420,"ĠPolicy":4421,"Ġtort":4422,"ĠParis":4423,"iliation":4424,"Ġhelping":4425,"Ġwritten":4426,"Ġmill":4427,"ĠAt":4428,"Ġremo":4429,"Ġnearly":4430,"Ġstrange":4431,"Ġnormal":4432,"Ġdesire":4433,"Ġhonourable":4434,"Ġreceives":4435,"Ġprospect":4436,"Ġattend":4437,"Ġinsist":4438,"Ġrepeated":4439,"Ġteen":4440,"Not":4441,"Ġdifferences":4442,"Ġwalk":4443,"From":4444,"Ġinvolving":4445,"Ġnewsp":4446,"Ġunion":4447,"Ġmysterious":4448,"Ġacts":4449,"Ġholding":4450,"Ġcli":4451,"urally":4452,"Ġwarm":4453,"ĠFore":4454,"wood":4455,"Ġtim":4456,"Ġconfess":4457,"Ġcompetitive":4458,"SE":4459,"Ġfinancing":4460,"Ġideas":4461,"rad":4462,"Ġloves":4463,"Ġfacilit":4464,"ĠJapanese":4465,"Ġentirely":4466,"Ġsac":4467,"Ġpolitic":4468,"ĠJanuary":4469,"Ġ--":4470,"Ġinspect":4471,"ham":4472,"Ġcareer":4473,"Ġflee":4474,"Ġshop":4475,"ĠSpain":4476,"Ġcandidate":4477,"Ġcurre":4478,"ĠInternet":4479,"Ġelimin":4480,"ror":4481,"arning":4482,"oud":4483,"Ġrestaur":4484,"Ġopposition":4485,"Ġdelay":4486,"Ġproperly":4487,"Ġexer":4488,"Ġconfronts":4489,"enny":4490,"ĠRob":4491,"Ġinforms":4492,"aptain":4493,"iant":4494,"atever":4495,"ĠBill":4496,"rete":4497,"Ġfeed":4498,"Ġresponsibilities":4499,"governmental":4500,"01":4501,"uations":4502,"Ġposs":4503,"Ġadded":4504,"ĠBrussels":4505,"Ġagent":4506,"Ġspending":4507,"Ġfemale":4508,"ta":4509,"Ġevil":4510,"ĠMe":4511,"Ġproperty":4512,"Ġactual":4513,"Ġreleased":4514,"ĠKosovo":4515,"Never":4516,"Ġsuggests":4517,"time":4518,"Ġcaptured":4519,"ĠRegulation":4520,"Ġfederal":4521,"Ġdimension":4522,"Ġrepresents":4523,"Ġcovered":4524,"Ġmedical":4525,"cast":4526,"ĠCharlie":4527,"Ġdesper":4528,"Ġreduced":4529,"overy":4530,"anim":4531,"Ġintention":4532,"Ġallowing":4533,"nes":4534,"uals":4535,"Ġrelease":4536,"ora":4537,"Ġpromises":4538,"Ġsummer":4539,"no":4540,"Ġearn":4541,"Ġenh":4542,"Ġattitude":4543,"Ġurgent":4544,"Every":4545,"ĠCan":4546,"Ġmerely":4547,"Ġmer":4548,"har":4549,"Ġaims":4550,"Ġplaced":4551,"Ġfigures":4552,"utch":4553,"riff":4554,"Ġfamous":4555,"Ġelements":4556,"fe":4557,"Ġseeking":4558,"pril":4559,"Ġconvince":4560,"Ġintervention":4561,"Ġinnovation":4562,"Ġsuffering":4563,"wide":4564,"ĠHarry":4565,"Ġobst":4566,"erous":4567,"Ġseparate":4568,"Ġsun":4569,"Ġdrunk":4570,"Ġbott":4571,"ĠMex":4572,"Ġnetwork":4573,"aint":4574,"Ġassass":4575,"Ġconstruction":4576,"Ġunderstanding":4577,"Ġdebt":4578,"ĠPhil":4579,"Ġgoal":4580,"Ġdinner":4581,"asure":4582,"Ġlog":4583,"ĠJames":4584,"nel":4585,"Ġsources":4586,"Ġimproved":4587,"Ġthousands":4588,"Ġfeelings":4589,"Ġder":4590,"Ġappoint":4591,"ivity":4592,"Ġmedic":4593,"Ġ1999":4594,"Ġreconc":4595,"Ġinnoc":4596,"Acc":4597,"Ġcab":4598,"Ġincome":4599,"Last":4600,"Ġproposes":4601,"agers":4602,"Ġdevelopments":4603,"Ġreducing":4604,"ĠConstitution":4605,"van":4606,"ommy":4607,"Ġalternative":4608,"Ġnegative":4609,"Ġyesterday":4610,"ĠGreece":4611,"hab":4612,"ĠAfrican":4613,"reet":4614,"oring":4615,"Ġscen":4616,"ĠSummit":4617,"Ġpiece":4618,"Ġenem":4619,"orse":4620,"Ġworse":4621,"Ġge":4622,"Ġaf":4623,"Ġheads":4624,"Ġcredit":4625,"ĠIran":4626,"Ġrelated":4627,"ologies":4628,"Ġ\\*":4629,"Ġinvestigation":4630,"Ġwelcom":4631,"Ġlay":4632,"Ġdispl":4633,"ruit":4634,"what":4635,"ius":4636,"Ġpregnant":4637,"Ġhorse":4638,"ĠHen":4639,"Ġminutes":4640,"ĠHung":4641,"ober":4642,"Ġrejected":4643,"Ġversion":4644,"Ġkept":4645,"Ġproducers":4646,"Ġdriver":4647,"Ġtraditional":4648,"Ġforth":4649,"ptember":4650,"Ġlikely":4651,"Ġestablishing":4652,"bing":4653,"Ġamd":4654,"Ġcompens":4655,"ĠTurk":4656,"Ġimpl":4657,"Ġconfront":4658,"ME":4659,"Ġserve":4660,"Ġexpenditure":4661,"Ġfur":4662,"ĠWal":4663,"erate":4664,"Ġemployees":4665,"Ġequality":4666,"athy":4667,"mon":4668,"ection":4669,"ores":4670,"Ġpointed":4671,"Ġdivers":4672,"Ġstructure":4673,"ulations":4674,"Ġoutcome":4675,"Ġplane":4676,"Ġimpossible":4677,"rison":4678,"ĠMEP":4679,"abor":4680,"Ġarch":4681,"Ġseven":4682,"sman":4683,"Ġgreatest":4684,"',":4685,"Ġachieving":4686,"ervation":4687,"Ġ&":4688,"Ġdisaster":4689,"ait":4690,"called":4691,"Ġintroduce":4692,"Ġuncon":4693,"Ġhearing":4694,"ona":4695,"Ġenormous":4696,"Ġrecognition":4697,"known":4698,"Ġsource":4699,"Many":4700,"ables":4701,"Ġfails":4702,"ĠNick":4703,"ensus":4704,"Ġfif":4705,"Ġhopes":4706,"Ġeye":4707,"Ġassign":4708,"Ġfrequ":4709,"Ġec":4710,"Ġtruly":4711,"Ġstrongly":4712,"elling":4713,"ĠOct":4714,"ĠHel":4715,"Ġexpected":4716,"usion":4717,"ĠUk":4718,"Ġguess":4719,"Ġmutual":4720,"ading":4721,"Ġexcess":4722,"Ġdisch":4723,"ethe":4724,"Ġdiscovered":4725,"ĠCons":4726,"orthern":4727,"Ġshowing":4728,"lands":4729,"Ġspread":4730,"Nevertheless":4731,"Both":4732,"istics":4733,"ĠEuropeans":4734,"ĠNe":4735,"SC":4736,"Ġsaving":4737,"Ġlaid":4738,"Ġjourney":4739,"ĠChristmas":4740,"Ġdesigned":4741,"ĠBul":4742,"Ġperman":4743,"pro":4744,"ventually":4745,"Ġflight":4746,"Ġfeat":4747,"ĠInter":4748,"ĠBlack":4749,"Ġ2010":4750,"Ġengine":4751,"ovember":4752,"Ġlower":4753,"Ġpal":4754,"Ġinstitution":4755,"Ġurge":4756,"Ġbalanced":4757,"Ġreligious":4758,"Soon":4759,"Ġjournal":4760,"Ġrecommendations":4761,"Ġtraffic":4762,"Ġobvious":4763,"Ġconver":4764,"ĠApril":4765,"Ġpill":4766,"Ġ100":4767,"ww":4768,"Ġinterview":4769,"Ġcontrols":4770,"Ġtrial":4771,"border":4772,"Ġdisappoint":4773,"Ġcomprehensive":4774,"ĠCong":4775,"Ġdelight":4776,"Ġconcrete":4777,"Ġfine":4778,"Ġfix":4779,"Ġfalling":4780,"inate":4781,"Ġsides":4782,"Ġvia":4783,"Ġcuts":4784,"Ġinitially":4785,"iled":4786,"Eventually":4787,"Ġbrothers":4788,"Ġconvinces":4789,"Ã¶":4790,"Ġrange":4791,"Tom":4792,"Ġpowerful":4793,"Ġtargets":4794,"Ġappeal":4795,"Ġthrows":4796,"stead":4797,"semb":4798,"Ġprompt":4799,"Ġmeaning":4800,"FR":4801,"uous":4802,"Ġincorpor":4803,"Ġinvolvement":4804,"ĠEnvironment":4805,"Ġcrow":4806,"illing":4807,"Ġhappening":4808,"Ġdestroyed":4809,"ca":4810,"respon":4811,"ronic":4812,"ĠHuman":4813,"ĠProgram":4814,"Ġterrorist":4815,"Ġstorm":4816,"inding":4817,"idge":4818,"Ġhes":4819,"ĠMic":4820,"ode":4821,"anges":4822,"Ġmotor":4823,"Ġspl":4824,"itz":4825,"Ġsecure":4826,"Ġhunt":4827,"Ġriver":4828,"Ġestablishment":4829,"Ġrefugees":4830,"Moreover":4831,"Ġargument":4832,"Ġdisease":4833,"aker":4834,"Ġmonetary":4835,"Ġperspective":4836,"Ġplanned":4837,"Ġchase":4838,"Ġsite":4839,"Ġhous":4840,"ĠMiddle":4841,"ĠGl":4842,"ĠKore":4843,"Ġcomputer":4844,"Ġtree":4845,"edy":4846,"Ġcurrency":4847,"Ġequip":4848,"raine":4849,"Ġresist":4850,".\"":4851,"Ġexpos":4852,"Ġapparently":4853,"ĠPeople":4854,"Ġpicture":4855,"Ġcheck":4856,"Ġstrengthening":4857,"Ġburden":4858,"ique":4859,"Ġrecover":4860,"Ġdidn":4861,"orter":4862,"asc":4863,"Ġknowing":4864,"Ġtempor":4865,"Ġcry":4866,"rag":4867,"engers":4868,"IT":4869,"Ġstudies":4870,"Ġemot":4871,"gies":4872,"Ġsigned":4873,"ĠSeptember":4874,"Ġloses":4875,"Ġsafeguard":4876,"Ġ40":4877,"urd":4878,"Ġrates":4879,"Ġcharge":4880,"anks":4881,"ĠMag":4882,"Ġexpression":4883,"Ġflexibility":4884,"Ġcontinuing":4885,"ston":4886,"roc":4887,"Ġtrack":4888,"Ġsuccessfully":4889,"Ġprepare":4890,"stitute":4891,"Ġmainly":4892,"pol":4893,"osh":4894,"Ġpair":4895,"Ġsole":4896,"Ġ21":4897,"under":4898,"Ġpayments":4899,"standing":4900,"dd":4901,"ĠNovember":4902,"Ġcontrary":4903,"yal":4904,"ira":4905,"ĠUK":4906,"Ġstops":4907,"Ġcombating":4908,"Ġcarrying":4909,"Ġ2001":4910,"Ġlatter":4911,"ĠRay":4912,"Ġscheme":4913,"Mar":4914,"cel":4915,"yan":4916,"Ġwhatever":4917,"Ġencounter":4918,"Ġstands":4919,"Ġsensitive":4920,"Ġinfrastructure":4921,"Ġmatch":4922,"Ġneighbour":4923,"ĠLat":4924,"Ġwild":4925,"ils":4926,"ĠMiss":4927,"Ġnumerous":4928,"iro":4929,"ower":4930,"Os":4931,"uit":4932,"ĠCaptain":4933,"Ġ2004":4934,"Ġ2009":4935,"aded":4936,"anch":4937,"going":4938,"Ġapplies":4939,"Ġexercise":4940,"anged":4941,"Ġ2006":4942,"ett":4943,"Because":4944,"nic":4945,"Ġelection":4946,"Accord":4947,"Ġroll":4948,"Ġteach":4949,"Ġresulting":4950,"ĠAgency":4951,"ĠKingdom":4952,"Ġneither":4953,"ears":4954,"Ġspot":4955,"Ġseeks":4956,"Ġexport":4957,"Ġpositions":4958,"Ġ2008":4959,"Ġemphasise":4960,"ĠJew":4961,"Ġunanim":4962,"Ġbroken":4963,"Ġterritory":4964,"Ġvision":4965,"Ġexistence":4966,"ĠMus":4967,"Ġaddressed":4968,"Ġnation":4969,"ĠSant":4970,"Ġride":4971,"Ġghost":4972,"atically":4973,"Ġinvestigate":4974,"Mrs":4975,"ĠPalestinian":4976,"asters":4977,"Ġcrimes":4978,"Ġconsensus":4979,"ĠRobert":4980,"Ġfaced":4981,"Ġpassed":4982,"Upon":4983,"Ġvide":4984,"Ġdegree":4985,"Ġotherwise":4986,"Ġrelative":4987,"Ġprior":4988,"ĠForeign":4989,"ĠCla":4990,"Ġprevention":4991,"Ġacceptable":4992,"pir":4993,"ola":4994,"lection":4995,"utive":4996,"Ġlearning":4997,"ĠTV":4998,"Ġadvice":4999,"Ġhears":5000,"Ġexplos":5001,"Only":5002,"ĠCor":5003,"Ġru":5004,"Ġpretty":5005,"Ġcourage":5006,"ook":5007,"Ġaffairs":5008,"Ġtitle":5009,"ĠJuly":5010,"adow":5011,"Ġmachine":5012,"Ġpursue":5013,"Ġsevere":5014,"outhern":5015,"Another":5016,"ĠVan":5017,"Ġchildhood":5018,"ĠIndian":5019,"Ġtransparent":5020,"Ġdying":5021,"Ġnetworks":5022,"Ġring":5023,"Ġofficials":5024,"Ġreply":5025,"Ġpassengers":5026,"Ġvictim":5027,"Ġbureau":5028,"Ġadministration":5029,"Ġ197":5030,"ĠAnn":5031,"Ġcult":5032,"ĠTurkish":5033,"Ġconstantly":5034,"Ġrecognise":5035,"ĠSlov":5036,"Ġfinance":5037,"Ġdrives":5038,"Ġliberalisation":5039,"Ġfelt":5040,"Ġofficers":5041,"ĠRomania":5042,"Ġuncle":5043,"fare":5044,"ĠRules":5045,"ĠOctober":5046,"Ġrul":5047,"Ġdeser":5048,"Ġpromotion":5049,"ĠTrans":5050,"ĠJon":5051,"Ġstatements":5052,"Indeed":5053,"ĠAsh":5054,"Ġ2002":5055,"vey":5056,"50":5057,"Ġreturned":5058,"Ġangry":5059,"ateg":5060,"Ġfirstly":5061,"ruption":5062,"Ġfat":5063,"Ġmaster":5064,"Ġded":5065,"Ġresolve":5066,"lam":5067,"Ġeat":5068,"Ġsupports":5069,"Ġpreviously":5070,"Two":5071,"iced":5072,"med":5073,"Ġmax":5074,"Ġknew":5075,"Ġblind":5076,"Ġfir":5077,"Ġelected":5078,"ĠAss":5079,"ĠVer":5080,"astern":5081,"Ġelement":5082,"ĠPaper":5083,"Ġdirectives":5084,"Ġtun":5085,"Ġdivor":5086,"ĠLegal":5087,"Ġemergency":5088,"Ġfisher":5089,"Ġsne":5090,"Ġelectric":5091,"hest":5092,"Ġdict":5093,"ateful":5094,"Ġtotally":5095,"ĠMike":5096,"oviet":5097,"issioner":5098,"Ġabandoned":5099,"Ġhidden":5100,"ushed":5101,"Ġwhilst":5102,"Ġ2003":5103,"Ġobligations":5104,"Ġ2005":5105,"Ġkeeping":5106,"Ġearth":5107,"CP":5108,"Ġshared":5109,"Ġlover":5110,"Ġfi":5111,"ĠPrime":5112,"verage":5113,"Ġdig":5114,"Ġindependence":5115,"Ġsed":5116,"Ġopposed":5117,"Ġhonest":5118,"Ġinstance":5119,"Ġmoved":5120,"Ġanc":5121,"Ġreplace":5122,"Ġequipment":5123,"Ġchem":5124,"Ġsignal":5125,"ĠStrate":5126,"Ġrestaurant":5127,"Ġintends":5128,"ĠRoy":5129,"Instead":5130,"Ġsituations":5131,"Ġmechanism":5132,"arus":5133,"Ġbath":5134,"aks":5135,"Ġgrounds":5136,"Ġdouble":5137,"Ġunivers":5138,"Ġoffered":5139,"Ġrapporteurs":5140,"iel":5141,"ĠAud":5142,"portion":5143,"ĠKy":5144,"roat":5145,"Ġwatching":5146,"ilk":5147,"Ġinsurance":5148,"Ġstruggle":5149,"iar":5150,"Qu":5151,"Ġbound":5152,"Ġpersons":5153,"Ġlocation":5154,"Ġthreatens":5155,"Ġrock":5156,"Ġcrowd":5157,"Ġcoin":5158,"ault":5159,"oly":5160,"Ġsubmitted":5161,"Ġresident":5162,"Ġrepeat":5163,"ĠGreek":5164,"02":5165,"Ġclosed":5166,"AT":5167,"andy":5168,"Ġimprovement":5169,"Ġgranted":5170,"ocking":5171,"rich":5172,"Ġbrut":5173,"Ġpreparing":5174,"Ġdelegation":5175,"ander":5176,"Ġpred":5177,"olen":5178,"illa":5179,"Ġobstac":5180,"Ġdealt":5181,"ĠSal":5182,"Ġexpert":5183,"assion":5184,"Ġexplan":5185,"ĠWestern":5186,"Ġpulls":5187,"craft":5188,"father":5189,"Fr":5190,"umps":5191,"Parliament":5192,"Ġsanctions":5193,"Ġpatients":5194,"Ġconvers":5195,"Ġoperations":5196,"enary":5197,"Ġadjust":5198,"Ġdreams":5199,"ĠYou":5200,"ĠAll":5201,"Ġunless":5202,"Ġcard":5203,"Ġcamera":5204,"Ġought":5205,"Ġintegrated":5206,"athan":5207,"Ġcharacters":5208,"ghan":5209,"Ġparticipate":5210,"Ġbeach":5211,"plom":5212,"Ġgoals":5213,"Ġapolog":5214,"Ġbegan":5215,"ĠTim":5216,"Ġstock":5217,"gment":5218,"ĠAct":5219,"but":5220,"Ġautom":5221,"ĠSoviet":5222,"Ġhat":5223,"ounce":5224,"Ġadvert":5225,"Ġ27":5226,"Ġimmediate":5227,"Ġdirector":5228,"Ġprotecting":5229,"Ġnotices":5230,"icate":5231,"ĠBilly":5232,"Ġpolitics":5233,"Ġreturning":5234,"down":5235,"Ġstolen":5236,"Ġadvoc":5237,"Ġfeeling":5238,"Ġprem":5239,"sterdam":5240,"sibly":5241,"ĠBelg":5242,"Ġthereby":5243,"Ġsacrif":5244,"hag":5245,"Ġlie":5246,"Ġsouth":5247,"ipe":5248,"Ġstreets":5249,"Ġcarefully":5250,"ĠSea":5251,"Ġmechanisms":5252,"Ġbureauc":5253,"Ġinsists":5254,"Ġhiding":5255,"aves":5256,"ĠChamber":5257,"Ġcars":5258,"Other":5259,"Ġhelped":5260,"Ġjudge":5261,"oto":5262,"Ġpilot":5263,"Ġconsc":5264,"Ġguarantees":5265,"Ġgenerally":5266,"ĠRoman":5267,"Ġlatest":5268,"ĠPri":5269,"ĠTommy":5270,"Over":5271,"Ġtreaty":5272,"uting":5273,"Ġpayment":5274,"fin":5275,"Ġcatches":5276,"Ġheavy":5277,"ĠNational":5278,"rence":5279,"ecision":5280,"ĠFis":5281,"ictor":5282,"Ġinterp":5283,"Ġsection":5284,"Ġdischarge":5285,"Ã¡":5286,"Ġorganisation":5287,"Ġinvolves":5288,"Ġdomestic":5289,"lantic":5290,"Ġentry":5291,"ĠFranc":5292,"ĠMinisters":5293,"ĠJohnny":5294,"based":5295,"Ġsomewhat":5296,"ĠGeorg":5297,"Ġwithdraw":5298,"Ġdress":5299,"Ġflash":5300,"ĠJimmy":5301,"nters":5302,"ĠMont":5303,"Ġscreen":5304,"Ġabuse":5305,"bal":5306,"Ġstake":5307,"Ġgovernance":5308,"Ġeasily":5309,"ella":5310,"Ġsurprise":5311,"Ġintellig":5312,"inger":5313,"Ġorganised":5314,"rin":5315,"oples":5316,"oken":5317,"ali":5318,"Back":5319,"Ġfast":5320,"Ġorganiz":5321,"useum":5322,"Ġadequate":5323,"ĠAmsterdam":5324,"Ġabol":5325,"ĠChristian":5326,"udd":5327,"Ġtechnologies":5328,"ĠBugs":5329,"Ġrac":5330,"Ġconsultation":5331,"Ġlawyer":5332,"Ġdisgu":5333,"Ġfavor":5334,"Ġanswers":5335,"Will":5336,"Ġnone":5337,"Ġovercome":5338,"Ġinjured":5339,"rating":5340,"road":5341,"ĠThom":5342,"Ġnotice":5343,"Ġprisoners":5344,"Ġpurch":5345,"ĠHealth":5346,"Ġmistake":5347,"Having":5348,"rible":5349,"Ġsubsidi":5350,"ĠMEPs":5351,"Ġdetails":5352,"Ġnewspaper":5353,"Ġdiplom":5354,"Ġelderly":5355,"Ġyouth":5356,"Ġsaved":5357,"ĠSME":5358,"ĠPo":5359,"Ġempt":5360,"Ġaudience":5361,"Ġcontinued":5362,"Ġsight":5363,"uke":5364,"Ġdefinition":5365,"Ġconstructive":5366,"comm":5367,"ĠHigh":5368,"you":5369,"Ġet":5370,"Third":5371,"Ġbelow":5372,"Ġkeeps":5373,"sper":5374,"Ġquar":5375,"Ġchief":5376,"Ġalien":5377,"Ġcharges":5378,"Ġvehicles":5379,"Ġlinked":5380,"Ġapproaches":5381,"Ġmagic":5382,"Ġmandate":5383,"Ġreferend":5384,"ĠMac":5385,"phe":5386,"ĠEli":5387,"Ġinstruct":5388,"ĠScott":5389,"Ġunw":5390,"Ġindividuals":5391,"ĠStrategy":5392,"ĠGar":5393,"Ġgrateful":5394,"agon":5395,"Ġequally":5396,"Ġtreated":5397,"erring":5398,"mbol":5399,"ĠMel":5400,"Ġrecommendation":5401,"ns":5402,"Ġbackground":5403,"Ġstraight":5404,"gypt":5405,"ĠJes":5406,"ae":5407,"Ġton":5408,"ĠTrade":5409,"open":5410,"Ġfaith":5411,"Ġprefer":5412,"ĠMartin":5413,"AP":5414,"Ġcontroll":5415,"ĠMill":5416,"Ġmeetings":5417,"gue":5418,"Ġlaunch":5419,"Ġsen":5420,"Ġparliaments":5421,"Ġoccasion":5422,"Ġsolve":5423,"Ġintend":5424,"Ġchoose":5425,"ĠTony":5426,"ĠFl":5427,"ĠMark":5428,"ĠAfghan":5429,"ulating":5430,"Ġtee":5431,"astic":5432,"nergy":5433,"Ġpeoples":5434,"ĠDev":5435,"Ġrenewable":5436,"Ġworry":5437,"Ġafford":5438,"ĠUkraine":5439,"Ġsor":5440,"ifies":5441,"Ġlosing":5442,"Ġsovere":5443,"Why":5444,"Ġdifference":5445,"Ġ1998":5446,"ugh":5447,"Ġacting":5448,"Ġglad":5449,"Ġhall":5450,"ĠHenry":5451,"Ġbag":5452,"ĠAnne":5453,"ĠSche":5454,"Ġspeakers":5455,"ĠPoland":5456,"ĠHam":5457,"edly":5458,"Ġsurprised":5459,"Ġevaluation":5460,"Ġholds":5461,"ques":5462,"ĠProgramme":5463,"ĠNA":5464,"poses":5465,"ĠProced":5466,"Ġinvites":5467,"vest":5468,"Ġdebates":5469,"Ġsymbol":5470,"Ġamongst":5471,"cy":5472,"Ġextend":5473,"cal":5474,"raid":5475,"ittees":5476,"Here":5477,"Ġpromise":5478,"icted":5479,"PL":5480,"apers":5481,"Ġskills":5482,"ĠQue":5483,"Ġcateg":5484,"Ġoh":5485,"za":5486,"Ġdyn":5487,"ĠEastern":5488,"Ġfuel":5489,"ails":5490,"ĠEngland":5491,"ĠMatt":5492,"osen":5493,"Ġviolent":5494,"Ġregulatory":5495,"Ġisol":5496,"Ġsecretly":5497,"Ġscream":5498,"Ġlooked":5499,"Ġestim":5500,"ĠCharter":5501,"Ġmountain":5502,"Ġslowly":5503,"ĠTex":5504,"Ġcenter":5505,"teen":5506,"Ġcastle":5507,"ĠRichard":5508,"CO":5509,"Ġapproval":5510,"Ġbriefly":5511,"Ġmembership":5512,"ĠCarl":5513,"sembly":5514,"30":5515,"Ġborn":5516,"Ġbanks":5517,"sters":5518,"itled":5519,"Ġvul":5520,"Ġfriendship":5521,"hand":5522,"Ġobli":5523,"ĠBelarus":5524,"earch":5525,"Ġengaged":5526,"Ġinterpret":5527,"Ġcold":5528,"ago":5529,"Ġtend":5530,"ĠProcedure":5531,"mother":5532,"Ġfate":5533,"John":5534,"Ġnorth":5535,"ĠJud":5536,"Ġtrafficking":5537,"night":5538,"ĠDen":5539,"Ġcapable":5540,"rish":5541,"ĠJane":5542,"According":5543,"ses":5544,"Ġmir":5545,"Ġrepresentative":5546,"Ġlisten":5547,"Ġmassive":5548,"Ġconsistent":5549,"ĠEgypt":5550,"Ġpermanent":5551,"Ġfallen":5552,"Ġpeaceful":5553,"Ġcere":5554,"Ġnoted":5555,"Ġturning":5556,"Ġconsumption":5557,"Ġtow":5558,"orial":5559,"ala":5560,"oses":5561,"icky":5562,"roso":5563,"that":5564,"ĠSarah":5565,"Ġenforce":5566,"ashion":5567,"arations":5568,"Ġretrie":5569,"Ġjoins":5570,"ĠWilliam":5571,"gricult":5572,"ĠAnna":5573,"Ġcommunities":5574,"Ġfly":5575,"ĠFred":5576,"Ġeasier":5577,"Ġencounters":5578,"Ġwounded":5579,"Ġcart":5580,"Ġtoward":5581,"Ġvirt":5582,"Ġplanet":5583,"ao":5584,"Ġcomply":5585,"iform":5586,"Ġhyp":5587,"Ġdaily":5588,"Ġconsolid":5589,"ĠRome":5590,"Ġmanager":5591,"roud":5592,"Ġeconomies":5593,"min":5594,"Ġdiversity":5595,"Ġpunish":5596,"can":5597,"asks":5598,"Ġdrag":5599,"Ġlabor":5600,"Ġdiss":5601,"Ġrival":5602,"face":5603,"resh":5604,"ih":5605,"ĠSus":5606,"Ġwelfare":5607,"Ġ2020":5608,"rick":5609,"ĠCount":5610,"Ġneck":5611,"Ġarrival":5612,"ented":5613,"Through":5614,"Ġrig":5615,"Ġsword":5616,"Ġpoliticians":5617,"uries":5618,"Ġproc":5619,"arden":5620,"Ġrecall":5621,"point":5622,"Ġnations":5623,"Ġcapture":5624,"ams":5625,"Ġpul":5626,"Ġstanding":5627,"Ġadmits":5628,"Ġimmigrants":5629,"Ġcriticism":5630,"ĠPortugal":5631,"Ġmad":5632,"Ġmail":5633,"prus":5634,"Ġassociated":5635,"Ġwins":5636,"obody":5637,"ĠSecret":5638,"Ġorph":5639,"arsh":5640,"ĠOrgan":5641,"Ġpublished":5642,"Ġwine":5643,"Ġpossess":5644,"Ġdetailed":5645,"ES":5646,"Ġbra":5647,"Ġdu":5648,"ĠCub":5649,"Ġembar":5650,"Ġorganization":5651,"ties":5652,"ĠLos":5653,"Ġrevol":5654,"Ġdram":5655,"Commissioner":5656,"boy":5657,"pet":5658,"Ġimprovements":5659,"Ġmix":5660,"outs":5661,"Ġminister":5662,"Ġpersonally":5663,"Ġabsence":5664,"Ġcy":5665,"etheless":5666,"Ġshut":5667,"Ġshooting":5668,"PE":5669,"Ġfrust":5670,"Ġremarks":5671,"Ġpollution":5672,"Ġprosper":5673,"acco":5674,"Ġfal":5675,"Ġretain":5676,"Ġdelighted":5677,"ĠCO":5678,"Ġquiet":5679,"ĠJean":5680,"Ġtourism":5681,"Ġbehavior":5682,"Ġunderm":5683,"rust":5684,"ception":5685,"Ġassistant":5686,"Ġaverage":5687,"Ġpasses":5688,"Ġlargest":5689,"ein":5690,"Ġsize":5691,"Ġcas":5692,"Ġreaches":5693,"Ġvamp":5694,"Ġpurposes":5695,"Ġsubsidiarity":5696,"ford":5697,"ĠHer":5698,"garia":5699,"Ġgather":5700,"Ġreasonable":5701,"Ġnaturally":5702,"onia":5703,"Ġsending":5704,"Ġjudicial":5705,"Do":5706,"Ġcomfort":5707,"ĠNat":5708,"Ġfactor":5709,"ika":5710,"ucky":5711,"Ġstopped":5712,"Ġcustoms":5713,"Ġchemical":5714,"Ġgar":5715,"Ġplenary":5716,"ĠCyprus":5717,"ĠMonetary":5718,"Yet":5719,"Ġslight":5720,"Ġending":5721,"Ġwalking":5722,"Ġtaxes":5723,"Per":5724,"othes":5725,"Ġ196":5726,"Ġcompar":5727,"incess":5728,"ĠArmy":5729,"Ġresort":5730,"Ġstructures":5731,"orough":5732,"Ġpark":5733,"Ġvotes":5734,"Ġreferendum":5735,"ĠNos":5736,"Ġrespected":5737,"Ġadopting":5738,"Ġplayers":5739,"Ġhole":5740,"Ġrecovery":5741,"Ġvulner":5742,"Pro":5743,"Ġairport":5744,"ĠSMEs":5745,"ĠDutch":5746,"ĠAngeles":5747,"ĠLaw":5748,"Ġadvance":5749,"Ġlaun":5750,"Ġnice":5751,"Ġscale":5752,"onel":5753,"Ġtraged":5754,"Ġafraid":5755,"ye":5756,"ĠCont":5757,"jun":5758,"Ġhun":5759,"Ġtape":5760,"pay":5761,"Ġaccompan":5762,"uan":5763,"ĠDay":5764,"Ġcompetence":5765,"ĠDanny":5766,"Ġtackle":5767,"Ġmillions":5768,"Ġdynam":5769,"10":5770,"inal":5771,"Ġwakes":5772,"Ġdestruction":5773,"Ġquant":5774,"Ġphysical":5775,"vin":5776,"Ġ24":5777,"Ġlimits":5778,"ttp":5779,"Ġswe":5780,"Ġuniform":5781,"ko":5782,"Ġnumbers":5783,"umping":5784,"Ġprimarily":5785,"Ġendorse":5786,"ĠHow":5787,"ĠBalk":5788,"Ġdescribed":5789,"Ġmort":5790,"Ġcorruption":5791,"Thirdly":5792,"Ġcontinent":5793,"Ġsurvive":5794,"Ġfactors":5795,"Ġdrinking":5796,"Ġoption":5797,"Ġflees":5798,"AO":5799,"ura":5800,"Ġsoft":5801,"Ġrobber":5802,"ĠSwedish":5803,"Ġshocked":5804,"Ġunex":5805,"Ġcontributions":5806,"ĠUSA":5807,"ĠKong":5808,"Ġeverybody":5809,"ollowing":5810,"ancial":5811,"Ġsuit":5812,"ĠVictor":5813,"Ġsymp":5814,"Ġfootball":5815,"Ġcommittees":5816,"spe":5817,"Ġhits":5818,"ĠHead":5819,"irty":5820,"Ġ1997":5821,"Ġrecognised":5822,"Ġmurders":5823,"Ġarrangements":5824,"Ġtrading":5825,"Ġproposing":5826,"ĠService":5827,"Ġgender":5828,"Ġgrabs":5829,"ructural":5830,"ĠBh":5831,"Ġstrength":5832,"ĠBulgaria":5833,"Ġtwenty":5834,"ĠLee":5835,"Ġvideo":5836,"Ġfires":5837,"riers":5838,"Ġdeliber":5839,"fess":5840,"uable":5841,"Ġ60":5842,"aware":5843,"Ġsubstances":5844,"Ġopposite":5845,"uate":5846,"Ġempty":5847,"Member":5848,"ĠDep":5849,"Ġcompliance":5850,"Re":5851,"Ġves":5852,"Ġcontained":5853,"Ġcitizen":5854,"Ġpromised":5855,"ĠNaz":5856,"Ġcredibility":5857,"Ġagents":5858,"Ġinterrupt":5859,"ĠMcC":5860,"Ġcompensation":5861,"Ġmaximum":5862,"ji":5863,"Ġjeal":5864,"Ġsport":5865,"Ġbinding":5866,"Ġcomplain":5867,"oted":5868,"Ġcrash":5869,"Ġbird":5870,"ngen":5871,"nch":5872,"Ġfo":5873,"Ġmeat":5874,"Ġminority":5875,"Ġarmed":5876,"Ġdisappear":5877,"ĠSweden":5878,"inn":5879,"Ġglobalisation":5880,"Ġresolutions":5881,"aine":5882,"ga":5883,"ĠHol":5884,"Ġimpression":5885,"Ġidentify":5886,"Ġrevealing":5887,"part":5888,"rations":5889,"Ġsli":5890,"ĠDel":5891,"Ġbridge":5892,"Ġmanufacture":5893,"cus":5894,"di":5895,"Ġreli":5896,"Ġexists":5897,"ompl":5898,"ĠAgricult":5899,"akistan":5900,"ĠPact":5901,"aked":5902,"ĠBrown":5903,"Ġflood":5904,"Ġadult":5905,"Ġglass":5906,"Ġdrawing":5907,"ĠGre":5908,"ĠThat":5909,"Ġstuff":5910,"Ġproportion":5911,"aret":5912,"ĠSerb":5913,"Ġimper":5914,"Ġcollection":5915,"Ġdign":5916,"ĠACP":5917,"ruary":5918,"ebruary":5919,"97":5920,"Ġaccounts":5921,"Ġcash":5922,"elly":5923,"Ġremove":5924,"Ġchanging":5925,"Ġtick":5926,"Those":5927,"field":5928,"Ġmerc":5929,"itely":5930,"Ġpaying":5931,"Ġcode":5932,"Ġmental":5933,"ads":5934,"zech":5935,"ilty":5936,"estion":5937,"Ġenemy":5938,"Ġinvestments":5939,"Ġvehicle":5940,"ĠAmericans":5941,"ĠBut":5942,"ashington":5943,"uese":5944,"Ġexclud":5945,"lim":5946,"pse":5947,"Ġtob":5948,"Ġleadership":5949,"athe":5950,"ĠPublic":5951,"Ġpure":5952,"Ġminorities":5953,"Ġcorpor":5954,"Ġencouraging":5955,"Ġtransl":5956,"Ġconsiders":5957,"Ġsho":5958,"Ġmobility":5959,"board":5960,"agn":5961,"wan":5962,"Ġtroops":5963,"Ġhoping":5964,"Such":5965,"Ġdeals":5966,"Ġinnocent":5967,"Ġfinish":5968,"Ġuncertain":5969,"put":5970,"Ġbill":5971,"ĠCalif":5972,"Ġsubsidies":5973,"Ġshadow":5974,"abeth":5975,"ĠCharles":5976,"Ġcriminals":5977,"ids":5978,"ĠMil":5979,"Ġbelief":5980,"Following":5981,"ĠJer":5982,"Ġtemporary":5983,"ĠCzech":5984,"enger":5985,"scious":5986,"Ġthrown":5987,"Ġupset":5988,"Ġsales":5989,"Ġnames":5990,"aces":5991,"uild":5992,"Ġprotected":5993,"Ġconflicts":5994,"Ġemphasis":5995,"ĠPortuguese":5996,"nam":5997,"Ġattempting":5998,"Ġfacilitate":5999,"ĠSchengen":6000,"Ġmine":6001,"Ġparal":6002,"ength":6003,"Ġvir":6004,"ifications":6005,"Ġrequirement":6006,"Ġ1996":6007,"ornia":6008,"eter":6009,"ĠMy":6010,"PT":6011,"ugust":6012,"ĠRoma":6013,"Ġstories":6014,"Ġromantic":6015,"Ġlic":6016,"Ġdispos":6017,"ĠCommun":6018,"ĠStructural":6019,"Ġentitled":6020,"Ġgri":6021,"Also":6022,"oub":6023,"ĠDar":6024,"Ġrequests":6025,"Ġsession":6026,"ĠAmendments":6027,"usal":6028,"Ġblock":6029,"Ġamounts":6030,"ĠFunds":6031,"itime":6032,"ĠJeff":6033,"Ġdesert":6034,"Ġjealous":6035,"Ġgrave":6036,"andal":6037,"Ġwarning":6038,"Ġexamine":6039,"inent":6040,"Ġcow":6041,"Ġthorough":6042,"lines":6043,"ider":6044,"Ġimprison":6045,"ĠPark":6046,"Ġexperts":6047,"Ġgrows":6048,"ervations":6049,"Ġhighest":6050,"how":6051,"Ġdecis":6052,"lusive":6053,"Ġairl":6054,"Ġadvent":6055,"ila":6056,"otic":6057,"ĠPakistan":6058,"Though":6059,"Ġgiant":6060,"Ġcous":6061,"Ġconversation":6062,"Ġmilk":6063,"huh":6064,"pire":6065,"ĠBos":6066,"Ġcreates":6067,"Ġwarns":6068,"Ġdefeat":6069,"ĠDor":6070,"Ġrestrictions":6071,"Ġtobacco":6072,"etic":6073,"Ab":6074,"Ġfruit":6075,"Ġproud":6076,"oms":6077,"ette":6078,"oster":6079,"Ġfacts":6080,"ux":6081,"Ġdemanding":6082,"Ladies":6083,"actory":6084,"Ġsubstance":6085,"Ġflying":6086,"ĠDo":6087,"ĠLind":6088,"Ġextended":6089,"atter":6090,"Ġtouch":6091,"ĠKat":6092,"Ġprec":6093,"Ġpenalty":6094,"Ġpossibly":6095,"Ġsurviv":6096,"Ġdeclaration":6097,"Ġdistribution":6098,"Ġplants":6099,"Thank":6100,"Ġresolved":6101,"Ġdemonstrated":6102,"Ġorganizations":6103,".'":6104,"chen":6105,"Ġoperating":6106,"Ġopinions":6107,"Ġsaves":6108,"Ġdeeply":6109,"Ġconfesses":6110,"Ġsuffer":6111,"Ġfields":6112,"Ġlanguages":6113,"Ġshortly":6114,"ĠIslam":6115,"ias":6116,"Ġharmonisation":6117,"Ġstrike":6118,"Ġrepeatedly":6119,"ingu":6120,"Ġmale":6121,"Ġmaybe":6122,"ero":6123,"Ġunit":6124,"Ġelectronic":6125,"achel":6126,"Ġbreaking":6127,"Ġcreature":6128,"hagen":6129,"Ġduties":6130,"Ġoperate":6131,"Ġice":6132,"Ġdefined":6133,"wing":6134,"lers":6135,"Ġrelie":6136,"Ġconce":6137,"Ġusually":6138,"Ġguilty":6139,"rous":6140,"Ġdisg":6141,"Ġformal":6142,"Ġbilateral":6143,"Ġphase":6144,"Ġtravels":6145,"Ġobligation":6146,"Ġnovel":6147,"Ġexception":6148,"Ġpassion":6149,"Ġconstitutional":6150,"ĠWashington":6151,"iana":6152,"Ġtypes":6153,"Ġlaugh":6154,"Ġimpose":6155,"Ġselect":6156,"Ġbelieving":6157,"Ġawareness":6158,"Ġfashion":6159,"ĠLaur":6160,"Ġdisag":6161,"Ġarticle":6162,"othing":6163,"Ġintroduces":6164,"Ġguy":6165,"ployment":6166,"Ġmemory":6167,"Under":6168,"Ġdoesn":6169,"Ġcompleted":6170,"Ġdistur":6171,"Ġsupplement":6172,"Ġpoison":6173,"avi":6174,"Ġdetermine":6175,"Ġoccasions":6176,"Ġexpand":6177,"DP":6178,"ĠDa":6179,"ĠHolly":6180,"Ġconvention":6181,"Ġ22":6182,"ĠChris":6183,"ĠMexico":6184,"Ġcoff":6185,"Ġ194":6186,"ipl":6187,"Ġsick":6188,"Ġfresh":6189,"Ġethnic":6190,"Ġfirmly":6191,"Ġtasks":6192,"ĠFebruary":6193,"Ġeffectiveness":6194,"ĠQueen":6195,"Ġcave":6196,"Ġdrop":6197,"Ġroute":6198,"Ġaircraft":6199,"ĠCalifornia":6200,"Ġincent":6201,"via":6202,"Ġconstant":6203,"Ġvaluable":6204,"Ġcomplicated":6205,"bro":6206,"Ġprograms":6207,"Ġflag":6208,"Ġarrived":6209,"mbud":6210,"Ġdemonstrate":6211,"Ġchosen":6212,"Ġjoined":6213,"Ġcondemn":6214,"mi":6215,"Ġtoler":6216,"see":6217,"Ġowners":6218,"Ġidentified":6219,"bor":6220,"ĠSat":6221,"ĠWil":6222,"ĠWall":6223,"ĠTam":6224,"ĠGal":6225,"ls":6226,"ĠBritain":6227,"Ġforthcoming":6228,"ĠMo":6229,"eper":6230,"ĠRad":6231,"Ġguaranteed":6232,"mark":6233,"Ġwash":6234,"thur":6235,"Ġfactory":6236,"lav":6237,"Ġtrap":6238,"Ġimposed":6239,"Ġunknown":6240,"Ġretire":6241,"Ġexecutive":6242,"Ġbirthday":6243,"abling":6244,"Ġpool":6245,"Ġcities":6246,"Ġdeaths":6247,"Ġfalse":6248,"gie":6249,"Ġfit":6250,"rend":6251,"Ġshares":6252,"Ġexpensive":6253,"Ġguards":6254,"Ġconsidering":6255,"ĠCongress":6256,"hus":6257,"Ġancient":6258,"Ġassure":6259,"Le":6260,"Ġprimary":6261,"Ġobstacles":6262,"Ġbadly":6263,"Ġscenes":6264,"ĠMur":6265,"Ġcabin":6266,"Ġlength":6267,"Ġspite":6268,"ĠSteve":6269,"Ġsoul":6270,"stood":6271,"Ġweight":6272,"fessor":6273,"uated":6274,"ĠRa":6275,"Christ":6276,"Ġknife":6277,"Ġexperiences":6278,"Ġannounced":6279,"ĠAfghanistan":6280,"Ġcompared":6281,"ogether":6282,"Ġaccompl":6283,"Ġsubsequently":6284,"ĠJac":6285,"eer":6286,"Ġweapon":6287,"war":6288,"ĠArab":6289,"Thus":6290,"Ġpassing":6291,"Ġreceiving":6292,"Ġdifficulty":6293,"Ġfreedoms":6294,"ĠEve":6295,"Ġflexible":6296,"ĠPer":6297,"ĠHong":6298,"Ġsinger":6299,"ĠEddie":6300,"Ġassume":6301,"ĠResearch":6302,"ĠAuditors":6303,"cont":6304,"Ġmoral":6305,"Ġoral":6306,"anging":6307,"Ġfiscal":6308,"ĠLux":6309,"ĠPPE":6310,"Ġdeter":6311,"Ġdevast":6312,"Ġvoluntary":6313,"openhagen":6314,"Ġorphan":6315,"ĠAir":6316,"Ġsettle":6317,"Ġreaction":6318,"Ġinhab":6319,"Ġhair":6320,"Ġspoken":6321,"lined":6322,"umer":6323,"ĠLord":6324,"Ġapprove":6325,"Ġopened":6326,"Ġnegotiating":6327,"ĠJake":6328,"Ġmansion":6329,"Ġsinging":6330,"Ġlearned":6331,"Ġvulnerable":6332,"Ġpriest":6333,"Ġplease":6334,"Ġspoke":6335,"Ġappropriations":6336,"Ġclothes":6337,"Ġlegitimate":6338,"ipp":6339,"noon":6340,"Ġfeatures":6341,"Ġhour":6342,"operation":6343,"Ġsuffered":6344,"Ġpatient":6345,"Ġexamples":6346,"Ġtemple":6347,"Ġalarm":6348,"Ġwrite":6349,"Ġbefriend":6350,"oles":6351,"adem":6352,"Ġalle":6353,"ĠSol":6354,"Ġdistin":6355,"ĠPart":6356,"eless":6357,"ĠGo":6358,"Ġprocesses":6359,"Ġcontrad":6360,"Ġflashback":6361,"Ġbuildings":6362,"ĠSand":6363,"Ġnewly":6364,"Ġfights":6365,"Tse":6366,"Ġantic":6367,"Ġterrible":6368,"Ġhur":6369,"ĠGreat":6370,"Ġlived":6371,"Ġforcing":6372,"rack":6373,"ĠJose":6374,"Ġremote":6375,"Ġkidnapped":6376,"oper":6377,"Ġavo":6378,"Ex":6379,"Ġrent":6380,"uls":6381,"ript":6382,"ĠRos":6383,"Ġprotest":6384,"Ġliter":6385,"Ġbetray":6386,"Ġlargely":6387,"Ġtaxation":6388,"ijay":6389,"Ġwoo":6390,"Ġbond":6391,"ĠClin":6392,"ĠCommissioners":6393,"ibly":6394,"Ġfears":6395,"gain":6396,"ected":6397,"ĠMarket":6398,"Ġtrend":6399,"ĠAustria":6400,"AC":6401,"do":6402,"zen":6403,"Ġkidn":6404,"Ġstable":6405,"Ġvig":6406,"ĠCopenhagen":6407,"ĠHall":6408,"13":6409,"Ġodd":6410,"Ġchamp":6411,"Ġexcessive":6412,"ĠAgriculture":6413,"98":6414,"Ġphen":6415,"arl":6416,"ĠTexas":6417,"free":6418,"Ġtragedy":6419,"ĠAugust":6420,"Ġcorrespon":6421,"ially":6422,"Ġgrandfather":6423,"mbudsman":6424,"Ġmiles":6425,"asant":6426,"place":6427,"ĠNether":6428,"Ġdelivery":6429,"Yes":6430,"Ġchases":6431,"Ġinclusion":6432,"Ġafternoon":6433,"phone":6434,"Ġconcluded":6435,"oral":6436,"ĠEnergy":6437,"angers":6438,"Ġmigration":6439,"Ġimage":6440,"Ġsigns":6441,"Ġheading":6442,"Jack":6443,"Ġfishermen":6444,"het":6445,"raged":6446,"Ġdiseases":6447,"Ġhistoric":6448,"ĠSir":6449,"Ġgamb":6450,"ĠVir":6451,"Ġnevertheless":6452,"Ġbare":6453,"ĠSun":6454,"Ġcha":6455,"Ġhired":6456,"Ġ23":6457,"stitutional":6458,"Ġunaware":6459,"Ġsmugg":6460,"Ġconfirmed":6461,"oked":6462,"Ġhappily":6463,"Sim":6464,"Ġfriendly":6465,"Ġadmit":6466,"Ġbiggest":6467,"burg":6468,"zabeth":6469,"Ġrecip":6470,"Ġnut":6471,"Ġproof":6472,"Ġmonster":6473,"Ġstronger":6474,"ĠNATO":6475,"hu":6476,"Ġpreventing":6477,"Ġsouthern":6478,"icing":6479,"Ġfarming":6480,"Ġappreciate":6481,"Ġhousehold":6482,"Ġgeneration":6483,"Perhaps":6484,"Ġdisasters":6485,"Ġpresents":6486,"Ġrequested":6487,"Ġsoldier":6488,"Ġwelcomed":6489,"ĠThomas":6490,"gence":6491,"ĠJess":6492,"ĠLo":6493,"Ġlob":6494,"Ġcontracts":6495,"Ġetc":6496,"ĠNetherlands":6497,"anny":6498,"Ġhench":6499,"Ġaward":6500,"ĠStan":6501,"Ġunconscious":6502,"Ġshel":6503,"Ġcorrupt":6504,"ĠLouis":6505,"hr":6506,"Ġlets":6507,"ĠOli":6508,"Ġdistance":6509,"Ġsuggested":6510,"Ġmeantime":6511,"``":6512,"Ġdollars":6513,"Ġsorry":6514,"Any":6515,"bie":6516,"Ġfuneral":6517,"Ġsteals":6518,"Ġadvertising":6519,"Ġunexpect":6520,"Ġproceeds":6521,"Ġwaters":6522,"Ġelectricity":6523,"lyn":6524,"ba":6525,"Ġlady":6526,"ĠSen":6527,"ĠDave":6528,"Ġfunctioning":6529,"EU":6530,"Sub":6531,"Ġtests":6532,"ĠRule":6533,"Ġdisplay":6534,"Ġdetective":6535,"Ġswim":6536,"Ġtension":6537,"ĠAz":6538,"Ġtrapped":6539,"Ġwatches":6540,"Ġanyway":6541,"Ġsnow":6542,"ĠGene":6543,"Ġbooks":6544,"ĠLuxem":6545,"Ġongoing":6546,"Ġoperators":6547,"Ġexempt":6548,"Ġconfident":6549,"Ġgradually":6550,"ĠBerlin":6551,"Ġhundreds":6552,"Ġdivorce":6553,"Ġfaces":6554,"Ġarguments":6555,"Ġremoved":6556,"Ġvast":6557,"Ġworst":6558,"Ġunfair":6559,"ĠGeorgia":6560,"ĠDaniel":6561,"Ġassociation":6562,"ĠIsraeli":6563,"Ġmarries":6564,"03":6565,"Ġalt":6566,"Without":6567,"ĠCarol":6568,"encing":6569,"Ġspect":6570,"Ġtough":6571,"cean":6572,"Ġoffering":6573,"Ġperfectly":6574,"Ġmouth":6575,"Ġsequ":6576,"Ġcooperate":6577,"ĠPre":6578,"Ġroof":6579,"Ġtrick":6580,"Ġreaching":6581,"Ġtroub":6582,"ĠPlan":6583,"General":6584,"Ġblame":6585,"orous":6586,"Ġprosec":6587,"ĠAlice":6588,"uzz":6589,"Ġtragic":6590,"Ġplayer":6591,"Ġlabelling":6592,"Given":6593,"Ġpoore":6594,"Most":6595,"Ġjustified":6596,"Ġexperiment":6597,"Ġinqu":6598,"Ġnotes":6599,"adequ":6600,"LA":6601,"Ġtent":6602,"rop":6603,"ema":6604,"Ġreporting":6605,"Ġcorner":6606,"ĠThey":6607,"Ġchain":6608,"ips":6609,"Ġblue":6610,"Ġlands":6611,"Ġdignity":6612,"Ġtradition":6613,"Ġurban":6614,"Ġintroducing":6615,"Ġcontaining":6616,"olk":6617,"ĠKe":6618,"Ġschools":6619,"Ġallocated":6620,"inating":6621,"ĠOffice":6622,"ĠBig":6623,"Ġlake":6624,"ĠCam":6625,"Ġtechnological":6626,"Ġrelatively":6627,"ĠSocialist":6628,"Ġassigned":6629,"ĠSusan":6630,"mail":6631,"heart":6632,"Ġtheater":6633,"Ġartist":6634,"Ġselling":6635,"ĠBudgets":6636,"gl":6637,"Ġwearing":6638,"ĠViet":6639,"Ġ\\/":6640,"Ġprohib":6641,"Ġvisa":6642,"Ġcollective":6643,"Ġwitnesses":6644,"Ġsuspects":6645,"Ġwidow":6646,"Ġcul":6647,"Ġbeings":6648,"Ġsearching":6649,"Ġproceedings":6650,"Ġintellect":6651,"Ġshape":6652,"ĠIndust":6653,"Ġitems":6654,"bar":6655,"ville":6656,"itect":6657,"ĠEll":6658,"Ġworker":6659,"evin":6660,"ĠLuxembourg":6661,"esh":6662,"licop":6663,"Ġminute":6664,"Ġacknowledge":6665,"Ġministers":6666,"Ad":6667,"IS":6668,"ĠSyl":6669,"Ġchann":6670,"Ġseemingly":6671,"Ġpursued":6672,"related":6673,"kin":6674,"Ġstrategies":6675,"Ġgrown":6676,"Ġrelates":6677,"Ġexpectations":6678,"ĠNG":6679,"Ġattractive":6680,"Ġdismiss":6681,"Ġhelicop":6682,"berg":6683,"Ġinadequ":6684,"Ġsky":6685,"Ġfourth":6686,"Ġreass":6687,"ĠAsia":6688,"ĠOmbudsman":6689,"Ġcollabor":6690,"Ġtransition":6691,"Ġaside":6692,"Ġplat":6693,"ĠKate":6694,"ortion":6695,"Ġscience":6696,"Ġpalace":6697,"Ġpir":6698,"ĠLisa":6699,"Ġnarrow":6700,"Ġcontacts":6701,"rasbourg":6702,"Ġintentions":6703,"Ġcoal":6704,"Ġaccused":6705,"Ġillust":6706,"active":6707,"Ġsuspicious":6708,"Ġpillar":6709,"etty":6710,"ĠTy":6711,"cession":6712,"Ġremark":6713,"Dr":6714,"Ġnine":6715,"sets":6716,"iger":6717,"okes":6718,"Ġrevolution":6719,"Ġforgot":6720,"Ġaccompanied":6721,"ĠFar":6722,"ĠNor":6723,"Ġprofit":6724,"ĠBarroso":6725,"ĠBaltic":6726,"Ġ1995":6727,"fere":6728,"Ġbroadcast":6729,"Ġnobody":6730,"ocket":6731,"Ġanger":6732,"Ġbelieved":6733,"Ġgreatly":6734,"Ġsmaller":6735,"Ġcousin":6736,"Ġstocks":6737,"ĠFramework":6738,"Ġrushes":6739,"uccess":6740,"Ġmultip":6741,"hum":6742,"ato":6743,"Ġextension":6744,"Ġlarger":6745,"ĠStrasbourg":6746,"Ġsavings":6747,"Ġrealise":6748,"Ġstatistics":6749,"oubted":6750,"Don":6751,"ĠRock":6752,"ĠLarry":6753,"Ġfeet":6754,"Ġdevelops":6755,"Ġestate":6756,"96":6757,"Ġunited":6758,"ĠAustral":6759,"Can":6760,"Ġassault":6761,"add":6762,"earing":6763,"Ġrepresented":6764,"Ġfulfil":6765,"urse":6766,"Ġimports":6767,"Ġrestruct":6768,"Lastly":6769,"ĠEric":6770,"ĠJason":6771,"Ġcovers":6772,"Ġpolicem":6773,"Ġcareful":6774,"Ġreiter":6775,"Ġchap":6776,"ĠWood":6777,"Pe":6778,"mo":6779,"Ġindustries":6780,"Ġsumm":6781,"Ġclaiming":6782,"May":6783,"asion":6784,"Ġdemocrat":6785,"Ġspends":6786,"Ġspring":6787,"Ġsentence":6788,"Ġmaterials":6789,"RO":6790,"Ġegg":6791,"ĠBobby":6792,"orters":6793,"eor":6794,"Ġham":6795,"Ġmal":6796,"Its":6797,"Ġdesperate":6798,"met":6799,"zy":6800,"ĠTreat":6801,"Ġtze":6802,"case":6803,"mates":6804,"Ġtrail":6805,"Ġended":6806,"Ġrefused":6807,"Ġfacility":6808,"ĠRi":6809,"Ġdrops":6810,"Ġhides":6811,"ĠFederal":6812,"Ġunderstood":6813,"Ġrefuse":6814,"Ġid":6815,"Ġstone":6816,"Ġusual":6817,"ĠYug":6818,"Ġengagement":6819,"Ġdecisive":6820,"ĠCa":6821,"ĠMaj":6822,"ĠStability":6823,"ami":6824,"economic":6825,"Ġdad":6826,"Ġrapidly":6827,"ican":6828,"Ġmaritime":6829,"bre":6830,"Ġreplies":6831,"Ġrevision":6832,"Ġsupervision":6833,"ĠHelen":6834,"BI":6835,"Ġships":6836,"rified":6837,"Ġinev":6838,"Ġcliff":6839,"Ġimpress":6840,"Ġsupplies":6841,"Ġprofession":6842,"Ġwoods":6843,"Ġtail":6844,"Ġproves":6845,"Ġviolations":6846,"Ġpieces":6847,"Ġsubmit":6848,"ĠAlliance":6849,"Cl":6850,"Ġneighborhood":6851,"Ġprosperity":6852,"Ġproved":6853,"Ġshock":6854,"ĠProfessor":6855,"Ġfamiliar":6856,"Ġmuseum":6857,"Ġmaintaining":6858,"Ġrefers":6859,"Ġelsewhere":6860,"Ġexperienced":6861,"ĠECU":6862,"Ġarchitect":6863,"advant":6864,"ppy":6865,"Ġreported":6866,"Ġappearance":6867,"oubtedly":6868,"aksh":6869,"Ġacknowled":6870,"eds":6871,"Ġtraveling":6872,"ĠPrince":6873,"Ġmark":6874,"Ġsignificantly":6875,"Ġbehavi":6876,"ĠBalkans":6877,"uce":6878,"Ġvisited":6879,"ela":6880,"umn":6881,"aza":6882,"Ġquotas":6883,"emb":6884,"Ġcredits":6885,"Ġfired":6886,"Ġcopy":6887,"Ġattracted":6888,"Ġtte":6889,"stairs":6890,"ĠStep":6891,"Ġapplying":6892,"Ġvisiting":6893,"Ġdisadvant":6894,"Ġspecies":6895,"Ġtaxpay":6896,"Ġsurrounding":6897,"ĠTreaties":6898,"Ġinvited":6899,"Ġthreatened":6900,"Ġphotograph":6901,"yo":6902,"oman":6903,"Ġconducted":6904,"Ġacquis":6905,"ios":6906,"Ġregist":6907,"ova":6908,"roduct":6909,"Ġpassenger":6910,"ĠSmith":6911,"ĠComp":6912,"Ġcentre":6913,"Ġguns":6914,"Ġunlike":6915,"Ġassoci":6916,"ĠSuper":6917,"Ġgod":6918,"ĠChic":6919,"Ġissued":6920,"Ġ26":6921,"Ġreferring":6922,"Ġdiam":6923,"Ġgeograph":6924,"care":6925,"pell":6926,"iko":6927,"Ġrecognizes":6928,"ulf":6929,"Ġcourts":6930,"Ġvalid":6931,"Ġoptions":6932,"Ġfer":6933,"ĠCAP":6934,"Ġgenuinely":6935,"Ġhal":6936,"Ġworried":6937,"abe":6938,"ĠVen":6939,"Ġoperational":6940,"Ġcollaps":6941,"ĠSil":6942,"Ġlessons":6943,"Ġdestroying":6944,"ĠFinancial":6945,"Ġbatt":6946,"ĠVice":6947,"Ġconstitution":6948,"Ġterrorists":6949,"11":6950,"Reg":6951,"Ġscandal":6952,"win":6953,"iti":6954,"struction":6955,"atherine":6956,"Ġdetermination":6957,"yes":6958,"Ġbow":6959,"century":6960,"Ġ500":6961,"Ġannounce":6962,"Ġvictory":6963,"ĠLatin":6964,"Ġinsult":6965,"Ġhistorical":6966,"IA":6967,"Ġveter":6968,"Ġphil":6969,"vene":6970,"ashed":6971,"ĠCast":6972,"Ġstays":6973,"Ġrealizing":6974,"ĠAssembly":6975,"Ġjumps":6976,"ĠFirst":6977,"Ġnoise":6978,"Ġfilms":6979,"ĠKorea":6980,"rut":6981,"elle":6982,"pth":6983,"Ġcoach":6984,"Ġenthus":6985,"Ġhostage":6986,"Ġsatisfied":6987,"kay":6988,"ĠSa":6989,"Ġsurve":6990,"Ġincreases":6991,"ĠAgenda":6992,"Ġsignificance":6993,"Ġexploitation":6994,"Ġholid":6995,"Ġusers":6996,"Ġannounces":6997,"Ġtorture":6998,"Ġbrain":6999,"Ġcancer":7000,"ĠNorthern":7001,"affy":7002,"Ġdependent":7003,"ĠSecretary":7004,"Ġ0":7005,"Ġrestore":7006,"ĠPolice":7007,"ĠFrancis":7008,"ima":7009,"apse":7010,"Ġrape":7011,"ĠAction":7012,"Ġ80":7013,"Ġrailway":7014,"ĠOn":7015,"ware":7016,"Ġmic":7017,"ĠGrand":7018,"Ġdecent":7019,"Ġreput":7020,"Ġconfronted":7021,"Ġsensible":7022,"ĠSingh":7023,"Ġenforcement":7024,"ĠRon":7025,"Ġsecondly":7026,"Ġhumans":7027,"Ġclause":7028,"Ġraising":7029,"Ġdriven":7030,"Ġresistance":7031,"Ġrobbery":7032,"ĠClinton":7033,"Ġpreced":7034,"Ġunderw":7035,"Ġthreats":7036,"Ġrealistic":7037,"Ġinnovative":7038,"Well":7039,"Ġmargin":7040,"Ġletters":7041,"Ġlaunched":7042,"Ġpra":7043,"Ġexplanation":7044,"ohan":7045,"Ġflat":7046,"Ġchecks":7047,"ĠAdam":7048,"Ġsenior":7049,"Ġax":7050,"ieties":7051,"Ġgrandmother":7052,"Ġreluctantly":7053,"sing":7054,"itage":7055,"ĠGra":7056,"Ġprofessor":7057,"http":7058,"iry":7059,"Ġdece":7060,"Ġundoubtedly":7061,"ĠBoy":7062,"Ġwriter":7063,"Ġdefinitely":7064,"oslav":7065,"ĠMaria":7066,"rary":7067,"ĠJulie":7068,"Ġpicks":7069,"sey":7070,"ĠTra":7071,"Ġdecades":7072,"ĠEr":7073,"Ġfrequently":7074,"Ġmap":7075,"Ġmouse":7076,"Ġpolitically":7077,"uffs":7078,"Ġbottom":7079,"Ġresidents":7080,"ĠOb":7081,"Ġdrown":7082,"Ġvent":7083,"ĠTo":7084,"Ġtracks":7085,"Ġideal":7086,"Ġpreparation":7087,"Ġknocks":7088,"ĠThere":7089,"ĠMah":7090,"aunt":7091,"Ġloyal":7092,"Ġtopic":7093,"Ġzone":7094,"Where":7095,"uels":7096,"ĠCroat":7097,"ĠKim":7098,"aly":7099,"Ġlegally":7100,"Ġfocused":7101,"Ġstrengthened":7102,"ili":7103,"Ġseat":7104,"Ġthr":7105,"Ġaccidents":7106,"aron":7107,"Ġluck":7108,"Ġprepares":7109,"Ġbehaviour":7110,"mosp":7111,"ĠStar":7112,"ĠControl":7113,"Ġentered":7114,"Ġexclusion":7115,"Sam":7116,"Ġinfring":7117,"Ġcaptain":7118,"Ġawak":7119,"Ġcalc":7120,"ĠLaura":7121,"Ġromance":7122,"Ġfake":7123,"ulous":7124,"Ġdesp":7125,"orne":7126,"ifer":7127,"Ġseason":7128,"Ġunique":7129,"Ġurgently":7130,"jay":7131,"Ġqualified":7132,"Ġbegun":7133,"Ġactor":7134,"âĢĻ.":7135,"Ġdoubts":7136,"Ġoptim":7137,"ĠIntergovernmental":7138,"Ġfilled":7139,"artment":7140,"Ġschemes":7141,"Ġtight":7142,"necess":7143,"ĠScot":7144,"Like":7145,"Ġatmosp":7146,"Ġjew":7147,"ĠRose":7148,"Ġmagn":7149,"Ġbes":7150,"ĠDou":7151,"ĠJun":7152,"Ġpays":7153,"Ġfortune":7154,"Ġcoherent":7155,"ĠBosn":7156,"Ġfacilities":7157,"odes":7158,"ĠOne":7159,"gged":7160,"ĠProtection":7161,"Ġinterpretation":7162,"erved":7163,"Ġinher":7164,"Ġoverhe":7165,"Ġsleeping":7166,"Ġtimet":7167,"ĠSlovak":7168,"ĠYugoslav":7169,"Ġsake":7170,"ĠCivil":7171,"rier":7172,"Ġinhabit":7173,"vi":7174,"rea":7175,"aming":7176,"Ġguide":7177,"vy":7178,"abilities":7179,"Ġtools":7180,"born":7181,"Ġiron":7182,"ĠBrad":7183,"Ġcodecision":7184,"eav":7185,"Ġessentially":7186,"Ġcoordinated":7187,"Ġhurt":7188,"Ġstyle":7189,"Ġdiamond":7190,"ĠTun":7191,"ĠArthur":7192,"Ġvariety":7193,"2001":7194,"ĠElizabeth":7195,"Ġwanting":7196,"Ġimagine":7197,"Ġsports":7198,"erb":7199,"ĠOrganisation":7200,"ĠUniversity":7201,"Ġrain":7202,"Ġhealthy":7203,"Ġpunishment":7204,"El":7205,"Ã¼":7206,"Ġlying":7207,"Ġfool":7208,"Ġstim":7209,"Ġvillagers":7210,"run":7211,"Ġincomp":7212,"zo":7213,"Ġfright":7214,"ĠMi":7215,"ĠAc":7216,"Ġstrikes":7217,"mond":7218,"ĠSanta":7219,"AR":7220,"ĠStreet":7221,"Ġdefine":7222,"Ġfleet":7223,"Ġdepartment":7224,"aran":7225,"ushing":7226,"ĠDec":7227,"Ġunnecess":7228,"Ġwhereas":7229,"Ġboost":7230,"Ġdisappointed":7231,"rance":7232,"ĠDub":7233,"Ġdebating":7234,"Ġclarify":7235,"Ġwand":7236,"rovers":7237,"Ġlocked":7238,"mate":7239,"Ġadvances":7240,"scale":7241,"Ġzomb":7242,"ĠTransport":7243,"Ġendeav":7244,"icts":7245,"Ġreligion":7246,"ĠCanada":7247,"Ġsand":7248,"Ġextensive":7249,"Ġmobil":7250,"ĠNGOs":7251,"Ġdistract":7252,"Ġdeclared":7253,"ĠJewish":7254,"uten":7255,"Ġvary":7256,"formation":7257,"erman":7258,"ĠSimon":7259,"Ġbreat":7260,"Ġspots":7261,"Ġillness":7262,"ignt":7263,"Ġcompon":7264,"Ġreporter":7265,"Ġfailing":7266,"Ne":7267,"Ġcert":7268,"Ġpush":7269,"ĠAli":7270,"Ġuniversal":7271,"Consequently":7272,"rell":7273,"ĠSud":7274,"artial":7275,"alls":7276,"ĠHome":7277,"Ġproducer":7278,":\\/":7279,"AS":7280,"str":7281,"Ġresidence":7282,"aval":7283,"Ġpersuade":7284,"Ġordinary":7285,"Ġcore":7286,"ĠGold":7287,"Ġaffects":7288,":\\/\\/":7289,"Ġsem":7290,"ĠTib":7291,"Ġensues":7292,"Ġrescued":7293,"Ġabstain":7294,"Ġcontest":7295,"Ġadvis":7296,"ĠProtocol":7297,"Ġdancing":7298,"Ġ28":7299,"Ġmonop":7300,"Ġhelicopter":7301,"Ġmistakes":7302,"Ġpartly":7303,"Ġpleasure":7304,"ĠLeon":7305,"ĠFundamental":7306,"stein":7307,"ĠHan":7308,"Ġtrio":7309,"Ġconstitu":7310,"Ġuniversity":7311,"Ġbarriers":7312,"Ġpaint":7313,"Ġoccurred":7314,"cking":7315,"Ġeastern":7316,"mony":7317,"ĠBas":7318,"Ġhighlighted":7319,"aire":7320,"imp":7321,"ĠEP":7322,"Ġintens":7323,"Ġheavily":7324,"Ġlegitim":7325,"Ġreward":7326,"Ġkinds":7327,"NL":7328,"ua":7329,"Ġtact":7330,"avan":7331,"ĠChand":7332,"ighter":7333,"Ġfairly":7334,"Sc":7335,"Ġnegotiation":7336,"Ġordered":7337,"ez":7338,"Ġscar":7339,"Ġreplaced":7340,"Ġretrieve":7341,"199":7342,"Ġsought":7343,"ĠIm":7344,"quar":7345,"Ġargue":7346,"Ġmurdere":7347,"ĠAssoc":7348,"ID":7349,"Ġoriginally":7350,"Ġsovereignt":7351,"Ġthreatening":7352,"Ġbedroom":7353,"Ġterritorial":7354,"Ġeast":7355,"Ġstick":7356,"ĠAndrew":7357,"Ġreputation":7358,"Ġgap":7359,"rot":7360,"Ġcutting":7361,"Ġfan":7362,"oured":7363,"aki":7364,"Ġprofits":7365,"Ġwinning":7366,"ori":7367,"Ġprotocol":7368,"ĠPete":7369,"Ġscientists":7370,"Ġstealing":7371,"Ġceremony":7372,"aled":7373,"ĠMer":7374,"ĠGDP":7375,"Ġbusinessman":7376,"ĠProdi":7377,"Ġstruck":7378,"Ġsplit":7379,"Ġneighbouring":7380,"Ġinsp":7381,"Ġamending":7382,"ym":7383,"Sud":7384,"Ġcombined":7385,"Ġanticip":7386,"rass":7387,"holders":7388,"Ġundertaken":7389,"mission":7390,"orney":7391,"atell":7392,"Ġaccur":7393,"ĠChicago":7394,"Ġstating":7395,"Ġenvis":7396,"Ġspell":7397,"Ġentering":7398,"Ġsurre":7399,"Ġpresum":7400,"Ġrepresentation":7401,"Ġhomes":7402,"Ġslightly":7403,"essed":7404,"whel":7405,"ĠEv":7406,"Ġreads":7407,"institutional":7408,"Ġcig":7409,"ros":7410,"Ġvessels":7411,"ĠSad":7412,"Ġhaunt":7413,"Ġsubjects":7414,"ograp":7415,"Ġarriving":7416,"iat":7417,"Ġsugar":7418,"Ġaccompany":7419,"Ġhouses":7420,"Ġscientist":7421,"Ġreluctant":7422,"Ġsurvivors":7423,"ĠHollywood":7424,"Ġcontrovers":7425,"Ġobliged":7426,"asy":7427,"ĠBush":7428,"Ġproducing":7429,"Ġcheap":7430,"oard":7431,"Ġeliminate":7432,"Ġsovereignty":7433,"12":7434,"Ġmac":7435,"Ġapprox":7436,"Ġstruggling":7437,"razy":7438,"Ġdramatic":7439,"rote":7440,"lessly":7441,"Ġpage":7442,"ĠPolish":7443,"Ġunre":7444,"Ġpursuit":7445,"Ġbeaten":7446,"Ġnurse":7447,"uled":7448,"Ġtowns":7449,"spector":7450,"Ġdisposal":7451,"ĠLam":7452,"hy":7453,"ĠPost":7454,"Ġhardly":7455,"Or":7456,"Ġdanc":7457,"Ġnom":7458,"Ġresign":7459,"Ġheritage":7460,"Ġloved":7461,"Ġdiscipl":7462,"Ġdepends":7463,"Ġencouraged":7464,"afety":7465,"fire":7466,"stone":7467,"Ġserved":7468,"Ġsuffers":7469,"sequent":7470,"oming":7471,"Ġnorthern":7472,"ĠCas":7473,"Ġdispute":7474,"ĠHungarian":7475,"Ġlinks":7476,"Ġgay":7477,"utor":7478,"ĠBarb":7479,"Ġflies":7480,"Ġdeficit":7481,"Ġtransf":7482,"Ġrespects":7483,"ĠJoan":7484,"Raj":7485,"irable":7486,"ĠServices":7487,"Ġties":7488,"Ġextraord":7489,"ĠCat":7490,"ĠSk":7491,"Ġresum":7492,"Ġcrashes":7493,"Ġimplications":7494,"DA":7495,"ells":7496,"Ġseemed":7497,"Ġindicated":7498,"SP":7499,"iments":7500,"bye":7501,"ĠKyoto":7502,"ida":7503,"ĠChief":7504,"Ġintervene":7505,"Ġconstitute":7506,"olm":7507,"ĠTed":7508,"actions":7509,"ĠFisheries":7510,"level":7511,"Ġsettlement":7512,"isp":7513,"Ġeating":7514,"ixt":7515,"ano":7516,"olic":7517,"Ġpictures":7518,"Ġlit":7519,"ube":7520,"Ġexplicit":7521,"Ġprospects":7522,"isa":7523,"Ġunsuccess":7524,"ĠHeads":7525,"Ġloan":7526,"Ġresulted":7527,"Ġenhance":7528,"En":7529,"pel":7530,"Ġsuitable":7531,"Ġyourself":7532,"ervative":7533,"Ġliber":7534,"Ġanaly":7535,"Ġvacation":7536,"Ġbegs":7537,"Ġren":7538,"class":7539,"Ġregrett":7540,"Ġje":7541,"Ġcompat":7542,"Ġhonor":7543,"Ġmaintained":7544,"Ġvampire":7545,"ipped":7546,"life":7547,"ĠFer":7548,"Ġast":7549,"ĠEst":7550,"ĠBon":7551,"ĠEmployment":7552,"ĠMir":7553,"ĠKevin":7554,"Ġarise":7555,"Ġraises":7556,"Ġ1990":7557,"Ġconvergence":7558,"Ġgift":7559,"uster":7560,"ĠWin":7561,"Ġactively":7562,"Ġworldwide":7563,"ĠYear":7564,"Jerry":7565,"Ġactress":7566,"Ġrelationships":7567,"Ġdeserves":7568,"raction":7569,"ĠLib":7570,"Ġfro":7571,"haust":7572,"Frank":7573,"onom":7574,"Ġwake":7575,"ĠNic":7576,"ĠOs":7577,"Ġ31":7578,"Ġmultilateral":7579,"Christian":7580,"Ġhonour":7581,"Ġconcentrate":7582,"ĠConsumer":7583,"ĠGreens":7584,"ĠSund":7585,"Ġliqu":7586,"ĠInternal":7587,"Ġaunt":7588,"ĠColonel":7589,"Ġratification":7590,"Ġcelebrate":7591,"ĠTok":7592,"ĠFBI":7593,"ĠKen":7594,"Ġentre":7595,"jud":7596,"wen":7597,"Ġexceed":7598,"quality":7599,"ĠHo":7600,"ĠHowever":7601,"Ġbudgets":7602,"laim":7603,"Ġtelephone":7604,"Ġradical":7605,"Ġexecution":7606,"Ġsufficiently":7607,"AL":7608,"Ġoverwhel":7609,"Ġsurface":7610,"Ġrestructuring":7611,"ench":7612,"imb":7613,"Ġstring":7614,"Ġcentres":7615,"Ġmemories":7616,"Ġsolely":7617,"nor":7618,"ati":7619,"Ġwis":7620,"Ġsharing":7621,"Ġintellectual":7622,"Ġstressed":7623,"Ġshar":7624,"ĠLittle":7625,"ĠKir":7626,"Ġamended":7627,"Ġfant":7628,"aling":7629,"Ġfirms":7630,"Ġ29":7631,"Ġaddressing":7632,"Ġmisunder":7633,"ooth":7634,"Ġtank":7635,"aren":7636,"aching":7637,"Ġconfusion":7638,"Ġretreat":7639,"Ġescaped":7640,"Ġsons":7641,"Ġvic":7642,"Ġsubsequent":7643,"Ġentertain":7644,"eches":7645,"Ġperforming":7646,"Ġreflected":7647,"Ġretirement":7648,"gen":7649,"Ġdoors":7650,"Ġcompete":7651,"celona":7652,"Ġevident":7653,".)":7654,"Ġwo":7655,"ĠGr":7656,"Ġexplained":7657,"Ġmotiv":7658,"Ġphenomen":7659,"ĠVijay":7660,"Ġwillingness":7661,"Ġrum":7662,"Ġdogs":7663,"Ġforgotten":7664,"Ġquote":7665,"Ġhorror":7666,"Ġcontrast":7667,"ĠBab":7668,"Ġspeaks":7669,"Ġsurely":7670,"Ġhence":7671,"ĠTour":7672,"Ġfocuses":7673,"Ġlifest":7674,"ĠJenn":7675,"ĠKh":7676,"Ġconciliation":7677,"Ġtied":7678,"Ġtrees":7679,"aka":7680,"Ġthanking":7681,"Ġprivile":7682,"ĠConstitutional":7683,"Ġsatisfactory":7684,"opard":7685,"Ġdoctors":7686,"Ġdirected":7687,"ĠRepresent":7688,"Ġbat":7689,"ĠBern":7690,"ĠKam":7691,"Ġneglect":7692,"Ġrejects":7693,"Ġclients":7694,"Ġinadequate":7695,"iders":7696,"Ġmostly":7697,"Ġachievement":7698,"Ġmistaken":7699,"Sever":7700,"ario":7701,"Ġinstall":7702,"Ġsentenced":7703,"Ġbasement":7704,"bl":7705,"ado":7706,"empl":7707,"ĠAk":7708,"Ġactors":7709,"Ġchest":7710,"Ġurgency":7711,"Ġcalm":7712,"Ġexplosion":7713,"Ġjump":7714,"Ġsheriff":7715,"ĠBarcelona":7716,"ulsory":7717,"Ġsisters":7718,"ĠBud":7719,"ĠTre":7720,"Ġunderground":7721,"Ġtalked":7722,"ĠNorm":7723,"Ġpossibilities":7724,"away":7725,"Ġphilos":7726,"osis":7727,"Ġcompos":7728,"Ġperpet":7729,"Ġflo":7730,"Short":7731,"Ġunemployed":7732,"Ġweb":7733,"Ġcolon":7734,"Ġpreparations":7735,"hem":7736,"ĠRod":7737,"Ġhumanity":7738,"Ġresponds":7739,"ĠMoroc":7740,"rets":7741,"Ġprisoner":7742,"Ġdevice":7743,"ufficient":7744,"Ġstaying":7745,"Ġwrites":7746,"ÃŃ":7747,"Ġbarely":7748,"Ġlobby":7749,"ĠAssociation":7750,"%.":7751,"Ġforever":7752,"Ġclosing":7753,"Ġrising":7754,"ĠLucy":7755,"Ġtouc":7756,"Ġburied":7757,"Ġwider":7758,"Ġreunited":7759,"Ġwest":7760,"ĠBec":7761,"Ġconsiderably":7762,"Ġfasc":7763,"Ġexports":7764,"ĠDes":7765,"Ġawa":7766,"Ġ70":7767,"odd":7768,"Ġlikes":7769,"ĠKal":7770,"Ġemployee":7771,"orate":7772,"Ġven":7773,"rett":7774,"utenant":7775,"Ġtur":7776,"imal":7777,"Ġcarries":7778,"commun":7779,"Each":7780,"Ġske":7781,"ĠAmy":7782,"Ġrecognize":7783,"Ġweekend":7784,"Ġwelcomes":7785,"Ġshelter":7786,"ĠLes":7787,"ĠHy":7788,"ĠJoseph":7789,"Ġprostitute":7790,"Ġlistening":7791,"New":7792,"tion":7793,"Ġreinforce":7794,"Ġmaid":7795,"Ġguests":7796,"Ġalongside":7797,"Ġpurely":7798,"aste":7799,"Ġrab":7800,"Ġcommunications":7801,"Ġcorrectly":7802,"Ġsucceeded":7803,"Ġweakness":7804,"Ġminor":7805,"Ġobtained":7806,"Ġintelligence":7807,"ĠSerbia":7808,"Jim":7809,"Ġhill":7810,"Ġupd":7811,"Ġroc":7812,"Ġdistort":7813,"Ġignore":7814,"Ġsneaks":7815,"Ã³":7816,"Ġpapers":7817,"ĠTime":7818,"Ġdisabled":7819,"Ġpatent":7820,"Ġapplicable":7821,"ĠVik":7822,"Ġhunting":7823,"ĠMos":7824,"ĠOld":7825,"Ġnecessarily":7826,"Ġencourages":7827,"Ġmicro":7828,"Ġsits":7829,"EL":7830,"sen":7831,"Ġbought":7832,"Ġfinger":7833,"Ġ2011":7834,"arged":7835,"ĠSon":7836,"ĠWhat":7837,"prene":7838,"ĠCuba":7839,"uilding":7840,"Ġatmosphere":7841,"Ġmodified":7842,"ĠAndy":7843,"Ġpig":7844,"Ġcompetent":7845,"Ġstruggles":7846,"Ġah":7847,"Ġloud":7848,"ĠRen":7849,"...":7850,"Ġwestern":7851,"illance":7852,"ĠChair":7853,"inking":7854,"Ġprincipal":7855,"Ġupper":7856,"vester":7857,"Ġbathroom":7858,"quarters":7859,"aan":7860,"itative":7861,"Ġexhaust":7862,"ĠBrian":7863,"peror":7864,"ĠFinland":7865,"Ġchairman":7866,"ographic":7867,"Ġstabil":7868,"Ġhanging":7869,"ĠLSC":7870,"ĠAlb":7871,"Ġtreasure":7872,"15":7873,"Ġgall":7874,"ĠTri":7875,"ĠHaw":7876,"aze":7877,"ĠLeft":7878,"Ġdelivered":7879,"ĠAustrian":7880,"och":7881,"Ġspeeches":7882,"Ġcorpse":7883,"Ġphenomenon":7884,"iable":7885,"Ġwrote":7886,"Ġdressed":7887,"Ġaviation":7888,"Ġdictators":7889,"Four":7890,"Ġexplaining":7891,"Ġlosses":7892,"Ġwheel":7893,"Ġceiling":7894,"Ġinhabitants":7895,"gent":7896,"arer":7897,"Ġtesting":7898,"Ġworrying":7899,"Ġobserved":7900,"ulates":7901,"Ġabroad":7902,"Ġtwice":7903,"Ġindirect":7904,"Ġexpense":7905,"ĠThurs":7906,"Ġconsequence":7907,"iscrimin":7908,"Ġreconcile":7909,"with":7910,"ilm":7911,"Ġbeats":7912,"iece":7913,"Ġunus":7914,"ĠNice":7915,"Ġdebated":7916,"Ġsustainability":7917,"Ġharass":7918,"Among":7919,"ĠCroatia":7920,"ni":7921,"Ġble":7922,"umar":7923,"Ġsites":7924,"Ġcivilian":7925,"Ġarranges":7926,"Ġdiplomatic":7927,"ĠJenny":7928,"Ġneighbours":7929,"De":7930,"Ġdecla":7931,"Ġpursuing":7932,"Ġreconstruction":7933,"iner":7934,"Ġokay":7935,"quis":7936,"Ġjournalist":7937,"Ġteaching":7938,"Ġbeef":7939,"Ġregularly":7940,"Several":7941,"Ġnurs":7942,"Ġanx":7943,"Ġenabling":7944,"Ġsched":7945,"icked":7946,"Ġedge":7947,"Ġbrutal":7948,"Ġinterrupted":7949,"Ed":7950,"jo":7951,"ĠRyan":7952,"ĠJam":7953,"Ġfianc":7954,"ĠBosnia":7955,"Ġmarked":7956,"Ġguilt":7957,"hips":7958,"Ġ90":7959,"Ġcollapse":7960,"Ġnin":7961,"akers":7962,"orky":7963,"Ġmedicines":7964,"oro":7965,"Ġloans":7966,"Ġprime":7967,"ĠDanish":7968,"Ġframe":7969,"Ġdeclares":7970,"Ġjur":7971,"Ġmanip":7972,"Ġpresenting":7973,"denly":7974,"Ġroads":7975,"ĠTibet":7976,"Ġassets":7977,"Ġlocated":7978,"Ġhousing":7979,"ilarly":7980,"Ġgames":7981,"Ġmeanwhile":7982,"ĠEdward":7983,"Ġtransferred":7984,"Ġsurveillance":7985,"ĠGAO":7986,"Ġsail":7987,"ticles":7988,"Ġtimetable":7989,"ipping":7990,"Ġtargeted":7991,"Ġrescues":7992,"ĠRog":7993,"ĠLady":7994,"Three":7995,"Ġcomplement":7996,"Ġtransitional":7997,"ĠMat":7998,"Ġcovering":7999,"ophob":8000,"Ġreflects":8001,"Ġhesit":8002,"Ġweather":8003,"ĠMarg":8004,"People":8005,"Ġgenerations":8006,"Ġwitch":8007,"Ġhires":8008,"lel":8009,"ĠTerry":8010,"Ġmere":8011,"Ġregarded":8012,"EN":8013,"Ġserves":8014,"orses":8015,"Ġpromoted":8016,"Ġoppose":8017,"ĠRaja":8018,"Ġcondemned":8019,"irms":8020,"Ġdestroys":8021,"Ġporn":8022,"Ġrational":8023,"Ġconfused":8024,"Ġbasically":8025,"Ġreinfor":8026,"Ġpit":8027,"ĠCr":8028,"tering":8029,"ums":8030,"Ġattached":8031,"Ġwalls":8032,"Ġunnecessary":8033,"04":8034,"xual":8035,"Ġnit":8036,"Ġbearing":8037,"Ġmoreover":8038,"Ġsomewhere":8039,"ales":8040,"Ġlib":8041,"Ġspy":8042,"Ġdetect":8043,"Ġfewer":8044,"ĠScotland":8045,"Ġsale":8046,"Ġkit":8047,"Ġaboard":8048,"ĠKhan":8049,"Ġexpresses":8050,"Ġcustody":8051,"razil":8052,"Ġexposed":8053,"Ġreliable":8054,"duc":8055,"Ġsocieties":8056,"ĠDet":8057,"Ġfault":8058,"Ġdivided":8059,"Ġports":8060,"Ġepis":8061,"Ġextending":8062,"Ġrespective":8063,"Ġcandidates":8064,"Ġemotional":8065,"??":8066,"ĠMorgan":8067,"Ġpact":8068,"Ġpocket":8069,"Ġdating":8070,"Ġstuck":8071,"una":8072,"ĠJones":8073,"cons":8074,"Ġescort":8075,"Ġcruel":8076,"Ġmagaz":8077,"ĠFood":8078,"Ġnegotiate":8079,"Ġpersuades":8080,"chers":8081,"Car":8082,"ĠEM":8083,"Ġconnected":8084,"ĠThursday":8085,"Ġprostit":8086,"Ġwhereby":8087,"Along":8088,"Ġmountains":8089,"athi":8090,"ĠExternal":8091,"count":8092,"iens":8093,"ĠBy":8094,"ĠBureau":8095,"ĠKelly":8096,"Ġoffices":8097,"rator":8098,"Ġoppon":8099,"ĠBelgian":8100,"Ġfavorite":8101,"ĠMen":8102,"Ġperiods":8103,"Ġambition":8104,"Ġburning":8105,"ĠMichel":8106,"Ġemployers":8107,"Ġrecords":8108,"Ġelev":8109,"Ġexamined":8110,"Ġvolume":8111,"ĠTem":8112,"Ġlegend":8113,"ER":8114,"Sp":8115,"Ġwise":8116,"Ġna":8117,"istent":8118,"Ġtwin":8119,"Ġscrut":8120,"Ġadvanced":8121,"Ġracism":8122,"isher":8123,"Ġfought":8124,"Ġreloc":8125,"Ġcarbon":8126,"ĠRachel":8127,"Ġrevenue":8128,"olt":8129,"Ġcann":8130,"ĠVAT":8131,"awa":8132,"mann":8133,"ennium":8134,"Ġguaranteeing":8135,"Ġthrowing":8136,"ĠBang":8137,"Ġbusy":8138,"aughters":8139,"ographer":8140,"rep":8141,"olit":8142,"Ġstars":8143,"ĠMarie":8144,"Ġdrivers":8145,"ĠFinn":8146,"ĠBelgium":8147,"Ġhenchmen":8148,"Ġtunnel":8149,"Ġwinter":8150,"ĠLiber":8151,"Ġratified":8152,"ĠNik":8153,"Ġclient":8154,"Ġimprisoned":8155,"Ġentreprene":8156,"Ġhel":8157,"geant":8158,"itizens":8159,"elson":8160,"atlantic":8161,"eline":8162,"Ġshr":8163,"avy":8164,"enses":8165,"iano":8166,"Ġafterwards":8167,"See":8168,"Ġpupp":8169,"Ġcharm":8170,"Ġcompulsory":8171,"Ġfixed":8172,"Ġinfringe":8173,"unately":8174,"Ġdefending":8175,"COM":8176,"Nor":8177,"gun":8178,"urning":8179,"Ġprocessing":8180,"asha":8181,"Ġtaxpayers":8182,"Suddenly":8183,"Shortly":8184,"Ġrocket":8185,"Does":8186,"Ġtiny":8187,"Ġrare":8188,"Ġcustomers":8189,"aver":8190,"ht":8191,"hil":8192,"Ġcook":8193,"Ġconcert":8194,"Ġtexts":8195,"Ġbeauty":8196,"Ġpa":8197,"Ġvon":8198,"Ġdistrict":8199,"Ġswitch":8200,"âĢĵ":8201,"Ġinterpre":8202,"Ġsuggestion":8203,"ĠAuth":8204,"ĠWolf":8205,"Ġ195":8206,"Ġdevoted":8207,"Ġcattle":8208,"Ġshowed":8209,"Ġconsiderations":8210,"anned":8211,"Ġgambling":8212,"Ġtoys":8213,"ĠSafety":8214,"Ġexhib":8215,"ĠLith":8216,"Ġseparated":8217,"Ġisolated":8218,"Ġlifestyle":8219,"ĠBarn":8220,"Ġcooper":8221,"Ġmoments":8222,"Ġteenage":8223,"Ġdeterior":8224,"Paul":8225,"Ġsat":8226,"Ġocean":8227,"Ġlone":8228,"Ġsomebody":8229,"Ġblackmail":8230,"ĠClaire":8231,"Ġshame":8232,"aph":8233,"Ġcontrolled":8234,"Ġdemonstrates":8235,"Ġemerges":8236,"Out":8237,"Ġacadem":8238,"Ġrecru":8239,"Ġchoices":8240,"ĠEmily":8241,"Ġpainting":8242,"ĠVietnam":8243,"Ġ[":8244,"Ġsch":8245,"rig":8246,"Ġsuspended":8247,"ĠWalter":8248,"Ġchaos":8249,"Ġaven":8250,"Ġgarden":8251,"Ġasleep":8252,"rowth":8253,"Ġjoining":8254,"Ġseverely":8255,"2000":8256,"?\"":8257,"alph":8258,"Ġoutstanding":8259,"ĠDef":8260,"ĠCarter":8261,"Amend":8262,"Ġgoverning":8263,"ĠReport":8264,"ennis":8265,"Ġgranting":8266,"Ġsquad":8267,"Ġembarrass":8268,"uri":8269,"sell":8270,"Ġdeadline":8271,"Bl":8272,"Ġtears":8273,"Ġinequ":8274,"sions":8275,"ĠGM":8276,"keep":8277,"Ġestimated":8278,"ĠPen":8279,"Ġreflection":8280,"ography":8281,"Ġliked":8282,"Ġteams":8283,"Ġdivision":8284,"Ġbroke":8285,"ĠAnnie":8286,"Everyone":8287,"fit":8288,"Ġrub":8289,"ĠGord":8290,"Ġjustify":8291,"Ġsucceeds":8292,"lets":8293,"ĠPan":8294,"ĠPers":8295,"Ġreminds":8296,"Ġmultiple":8297,"aylor":8298,"ĠLew":8299,"Ġmoon":8300,"ĠCath":8301,"ĠMs":8302,"ĠWomen":8303,"ungle":8304,"Ġharmful":8305,"Ġwitnessed":8306,"ĠRepresentative":8307,"Ġcite":8308,"Ġvoc":8309,"ĠGab":8310,"Ġsheep":8311,"Ġopenness":8312,"Ġgains":8313,"ĠPac":8314,"ĠLy":8315,"ĠStat":8316,"Ġtrace":8317,"Ġsle":8318,"othy":8319,"Ġ35":8320,"Ġskin":8321,"ĠRegional":8322,"ĠBrazil":8323,"Ġintense":8324,"ĠGi":8325,"Ġpensions":8326,"ĠDepartment":8327,"ĠBSE":8328,"Ġreservations":8329,"Ġacceptance":8330,"Ġforemost":8331,"Ġveget":8332,"ĠDun":8333,"Ġapplications":8334,"www":8335,"Dav":8336,"Ste":8337,"ifts":8338,"ĠTal":8339,"Ġemployed":8340,"Ġnonetheless":8341,"Ġpostal":8342,"Ġlights":8343,"arding":8344,"eling":8345,"ĠFather":8346,"agger":8347,"Ġcitizenship":8348,"Ġcontributed":8349,"Ġtribe":8350,"Together":8351,"lot":8352,"omin":8353,"seen":8354,"alling":8355,"ĠHans":8356,"Ġautonom":8357,"Ġtang":8358,"Ġlunch":8359,"Ġinvite":8360,"Real":8361,"Ġera":8362,"Ġthief":8363,"uty":8364,"Bar":8365,"agement":8366,"Ġeconomically":8367,"Ġcountryside":8368,"Ġviolation":8369,"ription":8370,"ĠMount":8371,"Ġran":8372,"Ġlovers":8373,"Ġfinished":8374,"Ġmarketing":8375,"Ġjudgment":8376,"da":8377,"abot":8378,"Ġtransactions":8379,"Ġislands":8380,"ĠDonald":8381,"Ġenhanced":8382,"ĠMuslim":8383,"Ġpipe":8384,"lymp":8385,"Ġmanaging":8386,"oby":8387,"ĠHungary":8388,"Ġrow":8389,"ĠChurch":8390,"Ġresear":8391,"ĠBaron":8392,"Ġbureaucracy":8393,"Ġdisagree":8394,"ÂŃ":8395,"Ġserving":8396,"Ġpersec":8397,"Ġeverywhere":8398,"ĠIsland":8399,"Ġaffecting":8400,"Ġshopping":8401,"Ġpoorest":8402,"Ġlegitimacy":8403,"Ġhos":8404,"Ġaccepting":8405,"ĠEuropol":8406,"Ġtempt":8407,"Ġpursu":8408,"Ġcorporate":8409,"ito":8410,"elve":8411,"iva":8412,"ĠPresidents":8413,"Ġcertainty":8414,"Ġmodels":8415,"Ġjeopard":8416,"utt":8417,"ĠGreg":8418,"Ġabd":8419,"ogan":8420,"Ġdraws":8421,"Ġexperiencing":8422,"Ġincentives":8423,"Ġchased":8424,"Ġtricks":8425,"Ġcrises":8426,"Ġpromising":8427,"Ġaudit":8428,"Ġunb":8429,"Ġcommission":8430,"ĠSocialists":8431,"Ġsacrifice":8432,"Non":8433,"Ġthres":8434,"ĠCommon":8435,"Ġstudio":8436,"Ġmanufacturers":8437,"Ġsecretary":8438,"Ġconfrontation":8439,"ĠBay":8440,"ĠFe":8441,"ĠDaffy":8442,"Ġinsufficient":8443,"Ġmobile":8444,"Ġdisappeared":8445,"Ġgreenhouse":8446,"riment":8447,"orious":8448,"Ġsomehow":8449,"Ġpresentation":8450,"Ġexpressing":8451,"ĠAnton":8452,"Ġmedicine":8453,"ĠVirgin":8454,"ĠEri":8455,"Ġmusical":8456,"ĠMajor":8457,"acing":8458,"Ġowned":8459,"ĠInspector":8460,"Ġdealer":8461,"Ġinflation":8462,"Ġsupposedly":8463,"Ġfifteen":8464,"ĠMaggie":8465,"Ġconscious":8466,"Med":8467,"Ġsear":8468,"Ġexceptional":8469,"ju":8470,"Ġoverlo":8471,"iversary":8472,"Ġconstitutes":8473,"Ġfootage":8474,"Ġelig":8475,"Ġgrat":8476,"ĠSo":8477,"asts":8478,"Ġcoinc":8479,"stal":8480,"iley":8481,"Ġdetriment":8482,"Ġbroader":8483,"ĠBudgetary":8484,"Ġcoc":8485,"Ġbio":8486,"Ġdeserve":8487,"Ġpicked":8488,"Ġaliens":8489,"Ġregardless":8490,"Ġsupervis":8491,"ĠLiberal":8492,"ĠKorean":8493,"Ġkitchen":8494,"Americ":8495,"olved":8496,"Ġconven":8497,"ante":8498,"appro":8499,"ĠAtlantic":8500,"chnology":8501,"Ġlesson":8502,"Ġsuggestions":8503,"Ġmentions":8504,"Ġstations":8505,"Ġclin":8506,"ĠOff":8507,"Ġparticipants":8508,"Ġadvantages":8509,"Ġjournalists":8510,"Ġbefriends":8511,"Ġcool":8512,"Ġrepair":8513,"Ġ300":8514,"Ġformula":8515,"Ġrejection":8516,"Ġdropped":8517,"richt":8518,"ĠGover":8519,"uki":8520,"Ġsatisfaction":8521,"ĠIslamic":8522,"Ġprop":8523,"Ġcounc":8524,"Ġholiday":8525,"kind":8526,"ĠMun":8527,"Ġstal":8528,"Ġsmoking":8529,"Ġprize":8530,"ĠCooperation":8531,"Ġsilent":8532,"Ġquarter":8533,"lord":8534,"aya":8535,"fortunate":8536,"Ġconcludes":8537,"ruce":8538,"Ġdisappears":8539,"ĠHoward":8540,"Ġmurderer":8541,"Ġsatell":8542,"itals":8543,"Ġnative":8544,"Ġassumes":8545,"Ġmas":8546,"astricht":8547,"grily":8548,"Ġnationals":8549,"Ġearthqu":8550,"Ġbeating":8551,"akings":8552,"ĠBetty":8553,"Ġincred":8554,"Ġmarks":8555,"Ġtalent":8556,"Ġopenly":8557,"Ġeducational":8558,"Ġindicate":8559,"LAF":8560,"ĠTunis":8561,"Ġthreshold":8562,"Ġfest":8563,"ĠAlbert":8564,"Ġannoy":8565,"Ġinvestigating":8566,"Ġdescribes":8567,"ĠPhilip":8568,"Ben":8569,"orp":8570,"Ġdaughters":8571,"ĠBow":8572,"ĠDuke":8573,"ĠOlymp":8574,"Ġsteel":8575,"Ġincidents":8576,"ĠNazi":8577,"uv":8578,"aman":8579,"ĠKrish":8580,"Ġattorney":8581,"Ġnegotiated":8582,"Ġemerging":8583,"Ġpromptly":8584,"ĠDublin":8585,"II":8586,"gers":8587,"Ġerror":8588,"Ġcards":8589,"asp":8590,"riel":8591,"Ġrough":8592,"Ġpled":8593,"Ġunha":8594,"Ġheadquarters":8595,"Ġmirror":8596,"Are":8597,"Ġclothing":8598,"Ġguys":8599,"Ġservant":8600,"Bob":8601,"kins":8602,"Ġtheory":8603,"Ġhaz":8604,"ĠHit":8605,"Ġunfortunate":8606,"Ġdocumentary":8607,"Nat":8608,"Ġcenturies":8609,"Ġwonderful":8610,"ĠSloven":8611,"ĠTimes":8612,"oning":8613,"Ġswift":8614,"ĠMexican":8615,"Ġreiterate":8616,"Geor":8617,"erves":8618,"ĠSak":8619,"Ġangrily":8620,"Ġrevised":8621,"Ġprevented":8622,"Ġemphasised":8623,"Ġthoughts":8624,"club":8625,"Ġstabs":8626,"Ġdynamic":8627,"itiative":8628,"ĠGen":8629,"abel":8630,"Ġcommits":8631,"ĠVeg":8632,"Ġfavourable":8633,"Ġmulti":8634,"Ġincorporated":8635,"ĠMolly":8636,"elie":8637,"Ġrecy":8638,"Ġhandle":8639,"Ġanniversary":8640,"Ġsounds":8641,"Ġrevolves":8642,"Ġcoffee":8643,"Ġsequence":8644,"Ġrend":8645,"Ġappeared":8646,"ĠAngela":8647,"Ġairlines":8648,"Ġrelief":8649,"afia":8650,"Ġlawyers":8651,"Ġridic":8652,"Ġregrettable":8653,"Ġpreserve":8654,"Ġ1994":8655,"Ġsurprising":8656,"Man":8657,"Ġstumb":8658,"umph":8659,"Ġchapter":8660,"ĠRiver":8661,"Ġgeographical":8662,"Ġextraordinary":8663,"Ġjuris":8664,"ĠAuthority":8665,"Ob":8666,"Ġborrow":8667,"orage":8668,"Ġarts":8669,"Ġmarine":8670,"Ġprincess":8671,"Ġsmooth":8672,"Ġoccurs":8673,"Ġunanimously":8674,"Ġphilosoph":8675,"eers":8676,"Ġsin":8677,"Ġpretends":8678,"ĠMaastricht":8679,"Ġcomplaints":8680,"Next":8681,"lock":8682,"Ġprotests":8683,"ront":8684,"Ġpermit":8685,"Ġwave":8686,"istical":8687,"Ġfoundations":8688,"Ġassassin":8689,"Subject":8690,"Ġwear":8691,"Ġenvironmentally":8692,"Ġadmitted":8693,"ĠDenmark":8694,"25":8695,"Ġoccupation":8696,"Ġspeaker":8697,"ĠLeban":8698,"Ġexcuse":8699,"Again":8700,"Ġinad":8701,"Ġunp":8702,"Ġcircus":8703,"Ġwarmly":8704,"cho":8705,"gressive":8706,"Ġgangster":8707,"Ġhoped":8708,"Ġsilence":8709,"Ġbiod":8710,"ĠTar":8711,"Ġremained":8712,"Ġdecline":8713,"Ġineff":8714,"oli":8715,"ĠSara":8716,"itty":8717,"Ġtranspos":8718,"Ġdesperately":8719,"Ġalleged":8720,"fight":8721,"girl":8722,"pread":8723,"ador":8724,"App":8725,"Ġthirty":8726,"nth":8727,"IDS":8728,"ĠLie":8729,"Ġcredible":8730,"Ġundertakings":8731,"ĠForce":8732,"Ġsympathy":8733,"cked":8734,"ordan":8735,"Ġremembers":8736,"Ġlasting":8737,"ĠGeneva":8738,"Ġapproximately":8739,"ho":8740,"alities":8741,"roy":8742,"iller":8743,"gered":8744,"Ġlanding":8745,"annah":8746,"Ġwidely":8747,"Te":8748,"inational":8749,"Ġash":8750,"ĠBeth":8751,"ologist":8752,"Ġtribute":8753,"Ġsupplementary":8754,"iques":8755,"ĠCap":8756,"Ġshift":8757,"Ġbuys":8758,"Ġbuying":8759,"Ġdistingu":8760,"ĠRoad":8761,"Ġcontradict":8762,"Ġtap":8763,"Ġbasket":8764,"idespread":8765,"ĠSecond":8766,"Ġsurrounded":8767,"minist":8768,"session":8769,"aven":8770,"ĠMonday":8771,"Ġparallel":8772,"state":8773,"ĠSchool":8774,"ĠApp":8775,"Ġriding":8776,"Ġtheme":8777,"isha":8778,"Ġcope":8779,"Ġrelax":8780,"Ġimportantly":8781,"Ġpsychiat":8782,"nership":8783,"Ġmovies":8784,"ĠOliver":8785,"SA":8786,"Ġconsists":8787,"Ġhoriz":8788,"RRB":8789,"human":8790,"Ġanymore":8791,"Ġdiver":8792,"Ġabsor":8793,"matic":8794,"Ġhaven":8795,"oren":8796,"Ġrelate":8797,"Ġentrance":8798,"ounded":8799,"ĠConf":8800,"Ġobservation":8801,"Ġwidespread":8802,"iday":8803,"ĠCF":8804,"Ġkeen":8805,"ĠGrowth":8806,"Ġsphere":8807,"Ġtemper":8808,"Ġruling":8809,"Ġpulled":8810,"ĠSur":8811,"Ġfeature":8812,"gging":8813,"Ġdenied":8814,"Ġbureaucratic":8815,"ĠCom":8816,"ĠTs":8817,"Ġambitions":8818,"Ġbottle":8819,"Ġcorrespond":8820,"ĠBa":8821,"Ġshoulder":8822,"Ġtourist":8823,"Ġsuspicion":8824,"Ġdedicated":8825,"Ġpredict":8826,"Ġplatform":8827,"oration":8828,"stream":8829,"ĠMit":8830,"ĠECB":8831,"Ġloose":8832,"ĠCamp":8833,"Ġstip":8834,"rak":8835,"ĠTer":8836,"Ġtimely":8837,"ĠGermans":8838,"ventions":8839,"Ġfifth":8840,"zone":8841,"ĠMaced":8842,"ache":8843,"Ġroyal":8844,"Ġintegrity":8845,"IN":8846,"Ġx":8847,"Ġwage":8848,"ĠNa":8849,"Ġgrab":8850,"ĠJackson":8851,"Ġprocure":8852,"ĠIf":8853,"Ġrit":8854,"Ġregister":8855,"ribe":8856,"Ġfreely":8857,"ĠPrincess":8858,"Ġphoto":8859,"Ġfurious":8860,"nan":8861,"uy":8862,"ĠThese":8863,"Ġcompetences":8864,"Ġattempted":8865,"Ġaccounting":8866,"Ġeditor":8867,"Ġburst":8868,"Ġirre":8869,"Ġuncertainty":8870,"Using":8871,"ige":8872,"Ġabortion":8873,"Ġpray":8874,"Ġarranged":8875,"ints":8876,"Ġvisible":8877,"Ġtraditions":8878,"ĠJesus":8879,"Ã¤":8880,"ardo":8881,"Ġcontinu":8882,"ĠAlger":8883,"Ġconcentration":8884,"Ġtower":8885,"Ġwasn":8886,"Ġclarity":8887,"ucks":8888,"Ġdelays":8889,"Ġbelongs":8890,"Ġpoliceman":8891,"Ġahd":8892,"ĠLiz":8893,"ĠParliamentary":8894,"Ġjointly":8895,"Ġderog":8896,"ĠLinda":8897,"14":8898,"Em":8899,"Ġseas":8900,"ĠOl":8901,"Ġparam":8902,"Ġmultinational":8903,"Ġappointment":8904,"Ġnoticed":8905,"ĠFre":8906,"Ġimpressed":8907,"Ġaccuses":8908,"Ġequival":8909,"Ġurges":8910,"Ġexecuted":8911,"mind":8912,"Ġneut":8913,"unction":8914,"ĠDur":8915,"Ġexplore":8916,"ĠBurma":8917,"Ġcategory":8918,"Ġexerc":8919,"Ġwors":8920,"ĠFree":8921,"Ġforests":8922,"Ġpercentage":8923,"Ġcollapses":8924,"cut":8925,"Ġaer":8926,"Ġfinances":8927,"Ġgrass":8928,"Ġperformed":8929,"ĠJosh":8930,"Ġnightclub":8931,"allas":8932,"Ġjungle":8933,"itzer":8934,"omed":8935,"ĠTokyo":8936,"etically":8937,"ĠGil":8938,"pectives":8939,"Ġprevail":8940,"iki":8941,"Ġrobot":8942,"Ġforb":8943,"Ġsurvival":8944,"ĠAustralia":8945,"pelled":8946,"Res":8947,"Ġknocked":8948,"Ġrestricted":8949,"Ġemotion":8950,"Ġticket":8951,"Ġmacro":8952,"cas":8953,"ĠSqu":8954,"Ġfindings":8955,"icken":8956,"Ġgrants":8957,"Ġsurvived":8958,"Ġultimate":8959,"Ġexcluded":8960,"Ġcollaboration":8961,"viously":8962,"Ġstages":8963,"text":8964,"Ġfoster":8965,"Ġraw":8966,"Ġpharm":8967,"Ġintim":8968,"ĠGrace":8969,"Ġpersonnel":8970,"lusively":8971,"Ġvisitors":8972,"Ġstrictly":8973,"ĠFrancisco":8974,"sm":8975,"Ġfed":8976,"Ġdumping":8977,"Ġfrank":8978,"Ġrestored":8979,"Ġtreaties":8980,"berties":8981,"Ġtypical":8982,"Ġrecognized":8983,"Ġvacc":8984,"Ġcoastal":8985,"Clear":8986,"oty":8987,"Ġfounded":8988,"Ġdeclare":8989,"Ġsimplification":8990,"Ġliability":8991,"Ġrecorded":8992,"Ġhypoc":8993,"ĠPa":8994,"osing":8995,"anted":8996,"Ġclaimed":8997,"Ġwounds":8998,"Ġsquare":8999,"Ġapologizes":9000,"TA":9001,"car":9002,"Ġgained":9003,"Ġstorage":9004,"Ġrush":9005,"Ġreductions":9006,"Ġbullet":9007,"hew":9008,"Ġcolor":9009,"Ġinterinstitutional":9010,"Ġcraft":9011,"ĠRural":9012,"Ġreserve":9013,"Ġinterrog":9014,"ĠBlue":9015,"communications":9016,"ĠCulture":9017,"ĠNap":9018,"Ġappointed":9019,"bec":9020,"lings":9021,"ĠAv":9022,"Ġagg":9023,"ĠJoint":9024,"ĠLab":9025,"Ġworthy":9026,"Ġethical":9027,"Set":9028,"pow":9029,"Ġheat":9030,"Ġfarmer":9031,"Ġcheer":9032,"Ġtorn":9033,"ĠJesse":9034,"fall":9035,"Ġcommend":9036,"olds":9037,"Ġelectoral":9038,"Ġpopulations":9039,"Ġundertake":9040,"Ġdancer":9041,"erted":9042,"Ġric":9043,"ĠGood":9044,"ĠFed":9045,"ĠKay":9046,"Ġroles":9047,"Ġow":9048,"ĠHels":9049,"Ġinvitation":9050,"Ġwarri":9051,"Ġtaxi":9052,"after":9053,"Ġerr":9054,"ĠRy":9055,"Ġpurchase":9056,"ĠCost":9057,"Ġstem":9058,"ĠIng":9059,"Ġconfirms":9060,"Ġtariff":9061,"Ġdisguise":9062,"ĠInstitute":9063,"comings":9064,"Ġunusual":9065,"Cons":9066,"pin":9067,"Ġdates":9068,"amm":9069,"Ġportray":9070,"Rec":9071,"cul":9072,"Ġbrand":9073,"ĠRavi":9074,"Ġpanic":9075,"ĠCommunist":9076,"ĠCIA":9077,"Ġcreatures":9078,"ĠLuke":9079,"Ġmotorcy":9080,"ibb":9081,"Ġsigning":9082,"ĠPartnership":9083,"Ġdecre":9084,"incing":9085,"Ġpenalties":9086,"Ġabolition":9087,"ĠBan":9088,"istol":9089,"Ġhomose":9090,"ĠIraqi":9091,"18":9092,"idance":9093,"ĠTai":9094,"Ġscore":9095,"Ġapproached":9096,"Ġpersonality":9097,"inson":9098,"ĠSudan":9099,"Ġlau":9100,"Ġattending":9101,"Ġcharged":9102,"onym":9103,"Ġescaping":9104,"Ġerad":9105,"uction":9106,"Ġhire":9107,"Ġstance":9108,"ĠSher":9109,"Ġprejud":9110,"Ġrif":9111,"ĠAlf":9112,"Ġdrinks":9113,"Ġalcoholic":9114,"Ġenemies":9115,"Ġpin":9116,"Ġpushes":9117,"Ġdry":9118,"Ġapplicant":9119,"Ġexamination":9120,"Ġvirus":9121,"Ġdisgust":9122,"Ġcrazy":9123,"ĠBudd":9124,"Ġhealthcare":9125,"Ġcease":9126,"Ġbiodiversity":9127,"organ":9128,"Ġdump":9129,"Ġeager":9130,"ayne":9131,"uma":9132,"ĠDick":9133,"Ġrage":9134,"Ġhighlights":9135,"ĠRobin":9136,"ĠMorocco":9137,"Ġcure":9138,"ĠCur":9139,"Ġinvestors":9140,"Ġallocation":9141,"Ġscreams":9142,"David":9143,"uania":9144,"ĠEth":9145,"ĠRud":9146,"Ġrides":9147,"Ġresource":9148,"igation":9149,"anche":9150,"Ġutmost":9151,"Nonetheless":9152,"Ġnotably":9153,"Ġjoy":9154,"Ġunderline":9155,"phy":9156,"Ġsmoke":9157,"ierce":9158,"laud":9159,"Ġneighbors":9160,"Ġbrutally":9161,"Ġfrustrated":9162,"Ġscheduled":9163,"Joe":9164,"Ġbears":9165,"Ġdepos":9166,"Ġdamaged":9167,"anj":9168,"ĠRah":9169,"Ġabduct":9170,"ĠLas":9171,"ĠStock":9172,"Ġwhenever":9173,"Ġinterim":9174,"erk":9175,"Ġbanned":9176,"arts":9177,"ĠFlor":9178,"ĠKenn":9179,"Ġorganized":9180,"Ġrepresenting":9181,"Ġignored":9182,"Ġassociations":9183,"ĠLong":9184,"Ġdefense":9185,"Ġshortcomings":9186,"Ġundertaking":9187,"ĠKurd":9188,"Ġspare":9189,"Ġobserve":9190,"Ġpermitted":9191,"Ġexpertise":9192,"Ġfict":9193,"oler":9194,"Ġupstairs":9195,"Ġstatue":9196,"Ġplacing":9197,"Ġdeliberately":9198,"Ġaxe":9199,"stan":9200,"Ġaccountability":9201,"Ġdepri":9202,"astrous":9203,"ovie":9204,"Ġfinanced":9205,"they":9206,"Ġintelligent":9207,"ĠBarbara":9208,"Tr":9209,"Ġdos":9210,"Ġpoet":9211,"Ġnick":9212,"ĠAh":9213,"Ġgate":9214,"Ġalter":9215,"Ġmistress":9216,"Ġbaseball":9217,"Ġroutine":9218,"ĠSystem":9219,"Ġecological":9220,"Ġestimates":9221,"ĠYugoslavia":9222,"Ġexpan":9223,"Ġclimax":9224,"Ġaspir":9225,"opher":9226,"Ġdisastrous":9227,"Ġthreaten":9228,"Ġfunctions":9229,"Ġpermission":9230,"Ġindicators":9231,"Ġalternatives":9232,"IV":9233,"Ġregulate":9234,"Ġcoordinate":9235,"ĠCentre":9236,"Ġkisses":9237,"usalem":9238,"gs":9239,"Ġmassac":9240,"oda":9241,"ĠVinc":9242,"Ġpublicly":9243,"Ġsurvives":9244,"ĠPalestinians":9245,"Har":9246,"auth":9247,"Ġtoy":9248,"eland":9249,"keeper":9250,"Ġdeciding":9251,"oker":9252,"Ġinvasion":9253,"Ġinterven":9254,"beit":9255,"Ġtackling":9256,"ĠIndustry":9257,"?ÂŃ":9258,"Somet":9259,"Ġsabot":9260,"ĠPSE":9261,"ichi":9262,"pless":9263,"ultane":9264,"Ġqueen":9265,"ierre":9266,"Ġexclusively":9267,"Ġkidnap":9268,"Ġmagazine":9269,"%,":9270,"Ang":9271,"lan":9272,"Ġmask":9273,"Ġsevent":9274,"Ġtransatlantic":9275,"Ġstranger":9276,"Ġentities":9277,"Ġ193":9278,"ĠInvest":9279,"Ġinfected":9280,"Ġcombination":9281,"Ġhandsome":9282,"Ġcounterfe":9283,"Ġseduc":9284,"Ġawakens":9285,"Ġjurisd":9286,"phew":9287,"water":9288,"Ġtired":9289,"Ġraid":9290,"Ġcrush":9291,"Ġabsurd":9292,"Ġcharacteristics":9293,"Ġsafely":9294,"Ġmystery":9295,"etus":9296,"Ġintent":9297,"ĠUncle":9298,"Ġpresc":9299,"Ġbanking":9300,"Ġqualifications":9301,"Part":9302,"ĠSean":9303,"rah":9304,"ĠBor":9305,"ĠTan":9306,"Ġcontam":9307,"Ġintergovernmental":9308,"Ġundermine":9309,"Ġunity":9310,"Ġconsent":9311,"Ġinformal":9312,"âĢĻ,":9313,"regular":9314,"Ġcampaigns":9315,"Ġdefeated":9316,"Ġkingdom":9317,"Ġcontroversial":9318,"ĠSpecial":9319,"Ġvows":9320,"ĠRand":9321,"ĠDam":9322,"Ġsurrender":9323,"Jon":9324,"Ġtox":9325,"alia":9326,"Ġhelpful":9327,"Ġdrafted":9328,"Ġimposing":9329,"Ġstood":9330,"Ġoutset":9331,"ĠWhen":9332,"Ġnecessity":9333,"eta":9334,"Ġhabit":9335,"Ġenfor":9336,"Ġenjoyed":9337,"Ġterritories":9338,"Ġbitter":9339,"Ġinspired":9340,"Ġbab":9341,"lease":9342,"osaur":9343,"Ġbenefici":9344,"Ġswimming":9345,"nity":9346,"Ġsections":9347,"Ġmeal":9348,"Ġteachers":9349,"ĠSylvester":9350,"eterm":9351,"ĠPap":9352,"Ġnephew":9353,"ĠFriday":9354,"Ġlacking":9355,"Ġrecording":9356,"abwe":9357,"Ġperspectives":9358,"Ġletting":9359,"ĠMiller":9360,"Ġamaz":9361,"Ġheaded":9362,"Ġwording":9363,"azz":9364,"gery":9365,"Ġindicates":9366,"Ġvirtually":9367,"ĠCatholic":9368,"Co":9369,"Jul":9370,"fl":9371,"Ġtoss":9372,"rapporteur":9373,"ĠKa":9374,"Ġrope":9375,"ankar":9376,"Ġdiscovering":9377,"ĠColle":9378,"Ġdrunken":9379,"American":9380,"Ġtransit":9381,"ĠInformation":9382,"Ġwages":9383,"Ġthugs":9384,"ĠMarsh":9385,"ĠSha":9386,"Ġmodest":9387,"Ġinjuries":9388,"reck":9389,"Ġresemb":9390,"Ġbigger":9391,"Ġslave":9392,"Ġadvocate":9393,"lean":9394,"Ġexplodes":9395,"Ġcamps":9396,"Ġoverhears":9397,"ĠVegas":9398,"Your":9399,"Ġcin":9400,"Ġcrying":9401,"Ġcomparison":9402,"Ġadventure":9403,"imbabwe":9404,"Ġbon":9405,"Ġbench":9406,"Ġhind":9407,"Ġbel":9408,"Ġlux":9409,"Ġbacking":9410,"Ġapproaching":9411,"Ġobsessed":9412,"Ġexchanges":9413,"Ġdistinction":9414,"Ġcops":9415,"Ġune":9416,"Ġincom":9417,"Ġinvent":9418,"pring":9419,"Ġemployer":9420,"Ġassumed":9421,"ede":9422,"ĠMade":9423,"Ġarising":9424,"Ġexped":9425,"Ġproductivity":9426,"Ġviable":9427,"ĠMadrid":9428,"Ġdow":9429,"ommod":9430,"ĠTor":9431,"ĠHind":9432,"Ġscared":9433,"Ġlabel":9434,"Ġdenies":9435,"Ġpossession":9436,"Ġalbeit":9437,"ĠPoo":9438,"2002":9439,"Ġasc":9440,"Ġdepth":9441,"ĠJordan":9442,"Ġcoun":9443,"ĠArt":9444,"Ġinfilt":9445,"country":9446,"bul":9447,"Ġpistol":9448,"Ġhate":9449,"ĠCarm":9450,"ĠAsian":9451,"ĠHill":9452,"Ġsurviving":9453,"ĠMickey":9454,"Ġjewel":9455,"Ġsatellite":9456,"isons":9457,"aro":9458,"lem":9459,"ĠSav":9460,"Ġsocially":9461,"Ġsurpl":9462,"Ġtelecommunications":9463,"ĠTourism":9464,"cover":9465,"Ġprince":9466,"Ġfoundation":9467,"Ġcrops":9468,"Ġreconciliation":9469,"Ġchemicals":9470,"17":9471,"ĠHot":9472,"Ġobjects":9473,"Ġconviction":9474,"ĠAlan":9475,"Ġefficiently":9476,"ĠJennifer":9477,"Ġisn":9478,"elli":9479,"Ġnowhere":9480,"Ġgoodbye":9481,"Ġmovements":9482,"Ġlandsc":9483,"Ġdisappearance":9484,"nest":9485,"icer":9486,"Ġasp":9487,"Ġaccommod":9488,"ĠMinutes":9489,"ĠPatrick":9490,"Ġfatal":9491,"Ġinject":9492,"ĠSub":9493,"ĠHal":9494,"ĠNancy":9495,"ĠChen":9496,"ĠMarcus":9497,"Ġlistened":9498,"ĠReform":9499,"Ġoccupied":9500,"Ġblows":9501,"Ġrecruit":9502,"Ġtrigg":9503,"Ġparticipating":9504,"Ġraped":9505,"Ġdeparture":9506,"Ġsneak":9507,"Im":9508,"Ġnerv":9509,"Ġdelic":9510,"Ġentity":9511,"Ġprivat":9512,"ĠRev":9513,"Ġcloses":9514,"Ġrely":9515,"Ġgrew":9516,"ĠTaylor":9517,"Ġcatast":9518,"chell":9519,"Ġcultures":9520,"ĠJerusalem":9521,"Ġmartial":9522,"olo":9523,"rav":9524,"uss":9525,"Ġattraction":9526,"Ġstream":9527,"Ġelabor":9528,"Ġchooses":9529,"Ġmandatory":9530,"Ġdigital":9531,"Ġforum":9532,"ĠSpe":9533,"airy":9534,"Who":9535,"Ġdrama":9536,"yard":9537,"Ġgreet":9538,"ĠBart":9539,"Ġanywhere":9540,"ibi":9541,"ĠFran":9542,"uppence":9543,"Ġcategories":9544,"Ġreciproc":9545,"AN":9546,"iah":9547,"Ġdesirable":9548,"Ġguidance":9549,"Ġdrafting":9550,"Ġ1980":9551,"Clearly":9552,"05":9553,"Ġpride":9554,"Ġtale":9555,"Ġstudying":9556,"Ġattacking":9557,"Ġrooms":9558,"Ġpresidential":9559,"Ġsovereign":9560,"ĠMosc":9561,"19":9562,"eded":9563,"irts":9564,"Ġkm":9565,"Ġdisreg":9566,"Ġprocedural":9567,"Ġpattern":9568,"2006":9569,"Ġquota":9570,"ĠSlovakia":9571,"itar":9572,"ĠLand":9573,"Ġcontrolling":9574,"ĠLithuania":9575,"Ġranch":9576,"Ġmetal":9577,"roductive":9578,"inations":9579,"ĠDi":9580,"Ġminds":9581,"Ġunexpected":9582,"ducation":9583,"ĠGordon":9584,"zing":9585,"ctic":9586,"Ġplain":9587,"Ġsoil":9588,"Ġexclusive":9589,"Ġgenetically":9590,"appropri":9591,"ĠHitler":9592,"16":9593,"Ġtomb":9594,"Ġgig":9595,"Ġovert":9596,"Ġrefusing":9597,"ĠJonathan":9598,"Ġscrutiny":9599,"po":9600,"rum":9601,"ader":9602,"ĠBell":9603,"Ġunits":9604,"angle":9605,"Ġrealized":9606,"itzerland":9607,"Ġexpansion":9608,"Ro":9609,"ota":9610,"ĠSoph":9611,"ĠNag":9612,"Ġendors":9613,"ĠBoard":9614,"medi":9615,"zan":9616,"Ġlift":9617,"Ġachievements":9618,"Ġdeny":9619,"Ġharsh":9620,"Ġdil":9621,"Within":9622,"Ġtonnes":9623,"Max":9624,"ĠRoc":9625,"udes":9626,"Ġsubur":9627,"Whilst":9628,"Ġunderstands":9629,"Ġsearches":9630,"million":9631,"power":9632,"Ġyard":9633,"rators":9634,"Ġseconds":9635,"Ġdistant":9636,"rical":9637,"ĠSah":9638,"ourse":9639,"Ġtwelve":9640,"Ġfunded":9641,"Ġphr":9642,"Ġconvincing":9643,"Ġunanimous":9644,"Ġtonight":9645,"nthia":9646,"Ġpace":9647,"ulpt":9648,"rawn":9649,"Ġpretext":9650,"iane":9651,"Ġpointing":9652,"Ġcompletion":9653,"Ġassessments":9654,"Ġfrequent":9655,"Ġprocurement":9656,"nat":9657,"Ġalleg":9658,"Ġintensive":9659,"ĠKaren":9660,"attered":9661,"Ġcircle":9662,"Ġstret":9663,"ĠSaint":9664,"quer":9665,"odge":9666,"ags":9667,"Ġclasses":9668,"Ġ2013":9669,"Ġassassination":9670,"Ġmixed":9671,"Ġavoiding":9672,"Ġfill":9673,"uts":9674,"Ġproven":9675,"Ġartific":9676,"Ġvigil":9677,"wife":9678,"ĠDoc":9679,"ĠJay":9680,"ashi":9681,"Ġbeneficial":9682,"ĠJohnson":9683,"Ġprivacy":9684,"Ġburned":9685,"Ġunhappy":9686,"Ġpose":9687,"Ġjun":9688,"comp":9689,"Ġdiagn":9690,"Ġirregular":9691,"Ġtroubled":9692,"ĠMacedonia":9693,"arious":9694,"ĠRalph":9695,"tenance":9696,"Ġextrem":9697,"Ġma":9698,"ava":9699,"Ġ1993":9700,"ĠDemocratic":9701,"she":9702,"hesion":9703,"Ġdust":9704,"elong":9705,"Ġorganise":9706,"Ġ1992":9707,"Ġairports":9708,"ĠZimbabwe":9709,"Ġgross":9710,"idal":9711,"ĠSouthern":9712,"thly":9713,"inda":9714,"Ġconventions":9715,"Ġexpecting":9716,"Ġroutes":9717,"ophobia":9718,"Realizing":9719,"SV":9720,"Ġshops":9721,"Ġeveryday":9722,"Ġsincerely":9723,"Ġflowers":9724,"Ġavoided":9725,"Ġhoney":9726,"umber":9727,"ĠJos":9728,"dule":9729,"Ġspo":9730,"Ġrelatives":9731,"Ġinsane":9732,"Ġdemonstration":9733,"market":9734,"Ġcommander":9735,"Ġtaught":9736,"ĠMold":9737,"ĠMumb":9738,"ĠGaza":9739,"Ġhandling":9740,"06":9741,"rays":9742,"Ġdangers":9743,"stuffs":9744,"uto":9745,"ĠCass":9746,"Ġcomedy":9747,"ĠHor":9748,"ĠLeo":9749,"Ġenlarged":9750,"Ġphotographer":9751,"Ġmanufacturing":9752,"Ġupcoming":9753,"iox":9754,"Ġenjoys":9755,"Ġequivalent":9756,"ĠMaur":9757,"ellow":9758,"Ġdemographic":9759,"oha":9760,"Ġaccessible":9761,"Ġemerge":9762,"IP":9763,"Me":9764,"orient":9765,"Ġhung":9766,"Ġstairs":9767,"Ġstrand":9768,"pson":9769,"ooks":9770,"ĠMaster":9771,"qual":9772,"Ġinforming":9773,"Ġescal":9774,"ĠPlot":9775,"ĠJulia":9776,"cling":9777,"icip":9778,"Ġformed":9779,"Ġregulated":9780,"Ġcongratulations":9781,"Ġmessages":9782,"Ġrefugee":9783,"Ġintoler":9784,"Ġpreca":9785,"ancies":9786,"Ġguest":9787,"Ġfarms":9788,"Ret":9789,"ĠMand":9790,"ĠIG":9791,"Ġabuses":9792,"Ġrecommended":9793,"itored":9794,"ichol":9795,"Ġimbal":9796,"ĠNar":9797,"Ġbride":9798,"Ġredund":9799,"Ġconsequently":9800,"Ġbankrupt":9801,".,":9802,"Mart":9803,"Ġware":9804,"ĠCard":9805,"eek":9806,"issa":9807,"Ġbiological":9808,"Ġseduce":9809,"Ġdevastated":9810,"Ġmel":9811,"Ġaffection":9812,"ĠDirector":9813,"Ġbloody":9814,"ĠRoyal":9815,"ĠAlbania":9816,"Fort":9817,"zed":9818,"Ġhte":9819,"Ġshark":9820,"Ġdrift":9821,"Ġinquiry":9822,"Ġhorses":9823,"Ġdisarm":9824,"Ġhomeless":9825,"Ġinnocence":9826,"ĠHa":9827,"Afterwards":9828,"regulation":9829,"ĠJacob":9830,"Ã¨":9831,"Ġsings":9832,"Ġnose":9833,"Ġonline":9834,"Ġloving":9835,"Ġteh":9836,"Ġcommunicate":9837,"Ġconscience":9838,"nex":9839,"ĠVel":9840,"Ġpotentially":9841,"ĠSheriff":9842,"Ġpolitician":9843,"Ġreception":9844,"ĠMet":9845,"Ġrans":9846,"Ġchamber":9847,"Ġunions":9848,"ishop":9849,"ois":9850,"erving":9851,"Ġcens":9852,"Ġpiano":9853,"olph":9854,"umi":9855,"Ġelevator":9856,"arked":9857,"ĠPink":9858,"ĠIM":9859,"Things":9860,"Ġmissed":9861,"Ġfiance":9862,"Ġsoftware":9863,"laration":9864,"Ġtear":9865,"Ġensuing":9866,"CS":9867,"Rus":9868,"fast":9869,"Ġinstantly":9870,"Ġdeclarations":9871,"Ġclimbs":9872,"ĠSunday":9873,"asm":9874,"ĠAcc":9875,"Ġtrem":9876,"ĠPalestine":9877,"Ġkidnapping":9878,"ĠStephen":9879,"alie":9880,"ĠAfter":9881,"Ġshore":9882,"Ġattach":9883,"Ġsculpt":9884,"Ġmaintenance":9885,"Alex":9886,"Ġdiox":9887,"Ġhell":9888,"ĠCross":9889,"ildren":9890,"Ġpretending":9891,"Ġeru":9892,"Ġbelonging":9893,"ĠMargaret":9894,"Ġfurn":9895,"Ġparad":9896,"Ġeleph":9897,"Ġendeavour":9898,"Ġcompatible":9899,"Ġlonely":9900,"Ġped":9901,"Ġpushed":9902,"Ġbell":9903,"Ġenraged":9904,"Ġsolved":9905,"Ġinvestigations":9906,"ĠFinnish":9907,"Ġearthquake":9908,"holm":9909,"Ġlists":9910,"ĠSally":9911,"ĠBat":9912,"elled":9913,"Ġunderlying":9914,"lining":9915,"Ġsuspected":9916,"ragon":9917,"Mary":9918,"Ġduel":9919,"Ġconservation":9920,"Ġsummon":9921,"oog":9922,"icity":9923,"cture":9924,"Ġplus":9925,"Ġrefusal":9926,"Ġmonitored":9927,"ĠSwitzerland":9928,"Ġevaluate":9929,"Ġremoving":9930,"Ġhazard":9931,"Ġdossi":9932,"ĠHug":9933,"Ġdiscovery":9934,"Ġdomin":9935,"Ġdisputes":9936,"Ġsimplify":9937,"Ġbirds":9938,"ĠStanley":9939,"Ġrises":9940,"ĠGang":9941,"ĠDrew":9942,"Ġdecade":9943,"Ġretired":9944,"arma":9945,"Ġdebts":9946,"Ġcurse":9947,"Ġincorporate":9948,"onic":9949,"Ġbull":9950,"Ġshoes":9951,"ĠBond":9952,"ĠJen":9953,"aped":9954,"overs":9955,"ĠBlair":9956,"Ġcartoon":9957,"Ġinevitable":9958,"ĠDeclaration":9959,"ĠMumbai":9960,"raught":9961,"Ġstriking":9962,"Ġlogical":9963,"HO":9964,"ĠPatt":9965,"ĠAp":9966,"umble":9967,"ĠRick":9968,"ĠHell":9969,"Ġlock":9970,"Ġ2012":9971,"Ġinspection":9972,"Bugs":9973,"tr":9974,"Ġwars":9975,"Ġwrest":9976,"ĠWith":9977,"Ġacted":9978,"Ġenshr":9979,"Ġsimultane":9980,"Ġstatute":9981,"Ġclearer":9982,"Ġincap":9983,"Ġdestination":9984,"Ġselected":9985,"Su":9986,"Ġcos":9987,"rake":9988,"Ġimages":9989,"Ġmanif":9990,"Ġaccus":9991,"Ġdetention":9992,"ĠArjun":9993,"Ġschedule":9994,"Ġsettled":9995,"Ġirrespon":9996,"ped":9997,"Ġinex":9998,"ĠLake":9999,"Ġhappiness":10000,"ĠShar":10001,"Ġpatrol":10002,"ĠAbb":10003,"Ġdiscipline":10004,"Michael":10005,"limin":10006,"Ġfile":10007,"soever":10008,"Ġevac":10009,"Ġtwist":10010,"ĠYu":10011,"Ġconsistently":10012,"ĠNorman":10013,"Mediterranean":10014,"iy":10015,"Ġhav":10016,"Ġintr":10017,"Ġsexually":10018,"broken":10019,"Ġsharp":10020,"Peter":10021,"inter":10022,"isy":10023,"Ġcontra":10024,"iann":10025,"Ġcouldn":10026,"Ġmayor":10027,"Ġrespecting":10028,"ĠIndians":10029,"Ġanswered":10030,"Ġcongratulating":10031,"ĠEmma":10032,"loria":10033,"Ġdisguised":10034,"ĠMoscow":10035,"arians":10036,"antha":10037,"Ġimported":10038,"Ġvoters":10039,"loved":10040,"Ġflows":10041,"Ġwithdrawal":10042,"Ġscreaming":10043,"bate":10044,"erts":10045,"sem":10046,"usive":10047,"Ġmarrying":10048,"Ġpublisher":10049,"ĠDu":10050,"Inc":10051,"ĠChan":10052,"Ġconstrain":10053,"Ġvillain":10054,"Ġdefining":10055,"break":10056,"akshmi":10057,"ĠPacific":10058,"maker":10059,"tle":10060,"Ġwebs":10061,"ching":10062,"anta":10063,"ĠRec":10064,"Ġadj":10065,"Ġapplaud":10066,"Ġprofound":10067,"Ġnormally":10068,"ĠLaure":10069,"Ġgarage":10070,"hist":10071,"national":10072,"named":10073,"icating":10074,"ppers":10075,"ĠDean":10076,"Ġwhatsoever":10077,"ĠOt":10078,"Ġinterventions":10079,"Ġadvises":10080,"Unable":10081,"Ġdescribe":10082,"Ġbreed":10083,"uru":10084,"ĠCatherine":10085,"Ġunequ":10086,"Ġjustification":10087,"ĠVish":10088,"racula":10089,"ĠPetitions":10090,"ĠColomb":10091,"Ġepisode":10092,"atri":10093,"ermost":10094,"Ġproviders":10095,"ĠIII":10096,"Ġhook":10097,"ician":10098,"ĠMother":10099,"ieves":10100,"Ġknocking":10101,"Ġclimb":10102,"Ġenthusi":10103,"Obviously":10104,"40":10105,"wa":10106,"live":10107,"acks":10108,"Ġrailways":10109,"Ġjurisdiction":10110,"hend":10111,"emic":10112,"ĠBruce":10113,"ĠGirl":10114,"Ġundercover":10115,"Ġserial":10116,"Ġstorms":10117,"Ġmirac":10118,"Ġsam":10119,"Ġfaster":10120,"ĠPin":10121,"Ġquit":10122,"Ġlocate":10123,"chnya":10124,"Ġtriumph":10125,"ĠBus":10126,"ĠKo":10127,"Ġneighbourhood":10128,"lace":10129,"ounds":10130,"Ġtechniques":10131,"Ġdollar":10132,"Ġunwilling":10133,"ĠWilson":10134,"Ġpraise":10135,"ĠEMU":10136,"Ġinadvert":10137,"Ġtherap":10138,"Ġkil":10139,"ĠKaz":10140,"ipher":10141,"Ġfeas":10142,"Ġsurf":10143,"Ġtextile":10144,"Ġaccordingly":10145,"ĠMartha":10146,"Ġarrangement":10147,"worth":10148,"ĠDal":10149,"Ġobjections":10150,"Ġcontributing":10151,"Ġcivilians":10152,"Still":10153,"bek":10154,"pes":10155,"atab":10156,"ĠSab":10157,"ĠAL":10158,"Ġselection":10159,"Ġpleads":10160,"Ġinjury":10161,"Ġharmonised":10162,"Ġfreight":10163,"heim":10164,"Ġdiscl":10165,"ĠClark":10166,"ĠJews":10167,"IF":10168,"omer":10169,"ĠIce":10170,"istence":10171,"Ġclock":10172,"Ġessence":10173,"riminal":10174,"Spe":10175,"arded":10176,"Ġlocks":10177,"Ġratify":10178,"Ġunexpectedly":10179,"ĠLieutenant":10180,"bb":10181,"Ġfighter":10182,"celer":10183,"ugen":10184,"Ġperforms":10185,"ienna":10186,"Ġobservers":10187,"Question":10188,"ĠCollege":10189,"Ġtall":10190,"chi":10191,"istry":10192,"Ġhanded":10193,"Ġhopefully":10194,"Ġemerged":10195,"Ġthroat":10196,"ĠCitizens":10197,"aying":10198,"Ġattended":10199,"Ġassurance":10200,"Ġrehab":10201,"umm":10202,"ĠDis":10203,"Ġmanagers":10204,"Ġroots":10205,"Ġwherever":10206,"Ġanybody":10207,"Ġsystematic":10208,"Ġfrag":10209,"Ġtaunt":10210,"igan":10211,"oko":10212,"Ġinfant":10213,"Ġpractically":10214,"Ġartists":10215,"ĠMerc":10216,"asty":10217,"mense":10218,"ĠIndones":10219,"Ġenjoying":10220,"Ġgolden":10221,"Ġimperial":10222,"Ġliterally":10223,"ĠEllen":10224,"Ġunsuccessful":10225,"Seeing":10226,"22":10227,"isen":10228,"Ġnaked":10229,"ĠAIDS":10230,"ouses":10231,"Ġwouldn":10232,"Ġperce":10233,"Ġcatastro":10234,"iov":10235,"Ġnotion":10236,"ĠStone":10237,"Ġdisrupt":10238,"Ġunjust":10239,"eneg":10240,"which":10241,"Ġcycle":10242,"1999":10243,"Ġjack":10244,"ĠHay":10245,"ĠKyle":10246,"Ġteaches":10247,"scar":10248,"2013":10249,"Ġcells":10250,"discrimin":10251,"ĠIvan":10252,"unny":10253,"Ġdispar":10254,"ĠChechnya":10255,"Ġmigrants":10256,"08":10257,"sight":10258,"Ġtheft":10259,"Ġdub":10260,"antically":10261,"istance":10262,"ĠHu":10263,"Ġadding":10264,"Ġexperiments":10265,"Ġpassage":10266,"afe":10267,"ĠSingle":10268,"ĠChairman":10269,"Ġpursuant":10270,"will":10271,"ĠInt":10272,"Ġambig":10273,"Ġschol":10274,"mitted":10275,"itably":10276,"ĠMore":10277,"Ġimmense":10278,"Ġregain":10279,"obe":10280,"Ġwishing":10281,"Ġdeadly":10282,"Charlie":10283,"Ġclosure":10284,"Ġignores":10285,"Ġauthorisation":10286,"Ġutter":10287,"ĠAlp":10288,"Ġshipping":10289,"ĠJuan":10290,"Ġimpetus":10291,"Ġsocio":10292,"Ġsuppli":10293,"Ġrenewed":10294,"Ġsongs":10295,"Ġstakeholders":10296,"Ġkidnaps":10297,"step":10298,"otion":10299,"ĠSel":10300,"ĠNord":10301,"izar":10302,"Ġtrained":10303,"Ġservants":10304,"Ġorient":10305,"ĠYoung":10306,"zes":10307,"ighters":10308,"Ġsmart":10309,"Ġfocusing":10310,"Ġtangible":10311,"Ġuphold":10312,"oval":10313,"Ġclarification":10314,"Ġlaying":10315,"Ġentrepreneurs":10316,"EEC":10317,"Ġreverse":10318,"Ġarrog":10319,"Ġarticles":10320,"ĠVicky":10321,"Ġcreative":10322,"Ġtoll":10323,"oping":10324,"Ġramp":10325,"Ġplural":10326,"Ġconservative":10327,"Ġmotions":10328,"Ġaddresses":10329,"Ġconsulted":10330,"Ġboarding":10331,"Ġdefeats":10332,"Ġtortured":10333,"Ġawaiting":10334,"Ġbid":10335,"oric":10336,"ĠAri":10337,"ĠRuth":10338,"Ġadults":10339,"Pre":10340,"Ġbarn":10341,"ĠChristine":10342,"Ġknock":10343,"Ġmissions":10344,"Ġreminded":10345,"vo":10346,"owed":10347,"uns":10348,"Ġprelimin":10349,"Ġattrib":10350,"Ġrot":10351,"Ġsincere":10352,"Ġgenetic":10353,"Ġdismant":10354,"Ġresearchers":10355,"eding":10356,"ĠMul":10357,"Ġchasing":10358,"Ġacceler":10359,"Ġ36":10360,"Ġmotel":10361,"Ġexploit":10362,"Ġmerch":10363,"Ġacknowledged":10364,"hard":10365,"ĠDallas":10366,"Ġdemanded":10367,"Ġhunger":10368,"Ġintimid":10369,"anna":10370,"ĠCind":10371,"Ġprotagon":10372,"Ġbetrayed":10373,"ĠIGC":10374,"wart":10375,"olves":10376,"emet":10377,"Ġcouples":10378,"Ġappreciation":10379,"):":10380,"Ġstole":10381,"aku":10382,"ĠRoth":10383,"Ġdish":10384,"seless":10385,"Ġcheating":10386,"Ġintegrate":10387,"Ġgangsters":10388,"Ġvoices":10389,"Ġremarkable":10390,"Ġxen":10391,"ĠCamb":10392,"ĠRoss":10393,"Ġspons":10394,"Ġcorn":10395,"Ġrecovers":10396,"Ġgratitude":10397,"George":10398,"utical":10399,"Ġdeton":10400,"Ġnewspapers":10401,"Ġduo":10402,"IB":10403,"Ġstup":10404,"Ġunst":10405,"Ġroot":10406,"ĠDeath":10407,"Ġmisses":10408,"Ġcrossing":10409,"book":10410,"Ġtemporarily":10411,"Ġhatred":10412,"ĠDorothy":10413,"ĠJessica":10414,"Ġbattles":10415,"Ġzombies":10416,"Ġmotorcycle":10417,"Ġfictional":10418,"mun":10419,"asures":10420,"Ġinterference":10421,"atson":10422,"ĠJoey":10423,"Please":10424,"hered":10425,"eness":10426,"ĠTuppence":10427,"comes":10428,"Ġwaits":10429,"Ġslaves":10430,"ĠChristians":10431,"oleon":10432,"Ġ75":10433,"ĠEmperor":10434,"ĠFrankie":10435,"Otherwise":10436,"Ġenvisaged":10437,"Ġpreliminary":10438,"Int":10439,"front":10440,"pass":10441,"inct":10442,"Ġhoc":10443,"lete":10444,"iferation":10445,"connect":10446,"ressing":10447,"Ġfulfilled":10448,"Ġregistration":10449,"Ġwire":10450,"Ġinsec":10451,"Ġho":10452,"raig":10453,"Ġenables":10454,"Ġabilities":10455,"abs":10456,"ĠNavy":10457,"iper":10458,"Ġexpenses":10459,"Ġposts":10460,"Ġdamaging":10461,"ĠValley":10462,"Ġinherit":10463,"pa":10464,"ĠMuseum":10465,"Ġextract":10466,"Ġconvicted":10467,"Ġcompromises":10468,"ĠKarl":10469,"ĠMillennium":10470,"Ġisolation":10471,"Ġtickets":10472,"Ġtensions":10473,"Mc":10474,"Ġfuels":10475,"Ġconvey":10476,"ĠSky":10477,"abouts":10478,"Ġcontents":10479,"ĠChi":10480,"ĠOLAF":10481,"Ġobservations":10482,"ĠLawrence":10483,"Ġspectac":10484,"Pr":10485,"gues":10486,"jan":10487,"uating":10488,"Ġbeloved":10489,"cha":10490,"emed":10491,"opal":10492,"Ġoutlined":10493,"lla":10494,"Ġprefere":10495,"Ġcontinually":10496,"Ġgotten":10497,"Ġembrace":10498,"ĠVirginia":10499,"Ġwond":10500,"ĠEducation":10501,"Ġsubmar":10502,"Ġresponses":10503,"Ġsucc":10504,"porary":10505,"Ġpursues":10506,"ĠBrother":10507,"Ġengineer":10508,"Ġownership":10509,"ĠLewis":10510,"Ġritual":10511,"Ġtremend":10512,"Nick":10513,"onna":10514,"ĠSom":10515,"ĠDiv":10516,"Ġregimes":10517,"Ġ37":10518,"Ġpreventive":10519,"Ġdelivering":10520,"Ġhomosexual":10521,"Ġdeeper":10522,"ĠLily":10523,"Ġdismay":10524,"Ġrifle":10525,"Ġnervous":10526,"Harry":10527,"net":10528,"Ġing":10529,"alk":10530,"icits":10531,"aceutical":10532,"Ġinterviews":10533,"Ġfrozen":10534,"keeping":10535,"Ġphilosophy":10536,"Could":10537,"itan":10538,"Ġpushing":10539,"Ġinappropri":10540,"ĠCole":10541,"ĠSid":10542,"Ġunilateral":10543,"Ġowns":10544,"Ġboards":10545,"Ġbreach":10546,"Ġproductive":10547,"Regarding":10548,"ĠStatute":10549,"Ġstumbles":10550,"Ġsixt":10551,"Ġcup":10552,"ĠBuck":10553,"cker":10554,"Ġexceptions":10555,"Ġpunished":10556,"Ġdragon":10557,"Ġveteran":10558,"Ġinadvertently":10559,"Ġsla":10560,"Ġcats":10561,"Ġcrack":10562,"Ġgest":10563,"Ġvague":10564,"ocial":10565,"Ġincur":10566,"Ġrequiring":10567,"Ġwatched":10568,"Ġcelebration":10569,"Ġlifelong":10570,"ĠRocky":10571,"Due":10572,"ĠPorky":10573,"Ġtrains":10574,"Mad":10575,"Ġfled":10576,"ĠLyn":10577,"annon":10578,"Ġruled":10579,"Ġsib":10580,"Ġthin":10581,"lee":10582,"Ġlays":10583,"ĠSnow":10584,"Ġcustomer":10585,"Ġautomatically":10586,"Similarly":10587,"ĠInvestment":10588,"bits":10589,"Ġwing":10590,"Ġwolf":10591,"ĠStoog":10592,"Ġdictatorship":10593,"jam":10594,"Ġbot":10595,"Ġoutermost":10596,"Ġposes":10597,"Ġcoherence":10598,"Ġphysically":10599,"ĠGlobal":10600,"NS":10601,"Ġreaff":10602,"tery":10603,"geon":10604,"Ġcloud":10605,"Ġvenge":10606,"Ġwished":10607,"ĠIC":10608,"Ġexit":10609,"ĠBu":10610,"Ġadverse":10611,"ubb":10612,"ĠVin":10613,"ĠVienna":10614,"Ġbranch":10615,"Ġcenters":10616,"Ġstopping":10617,"Ġhaunted":10618,"Ġcomposition":10619,"ĠStooges":10620,"Much":10621,"Ġju":10622,"Ġboats":10623,"Ġslaughter":10624,"Ġjudges":10625,"rose":10626,"Ġyield":10627,"Ġresolving":10628,"Ġlaboratory":10629,"Ġchampion":10630,"RA":10631,"ĠSri":10632,"Ġchances":10633,"ĠHannah":10634,"Ġreleases":10635,"atorium":10636,"Ġautumn":10637,"ĠCharlot":10638,"ĠRoger":10639,"Ġtant":10640,"Ġwhis":10641,"ĠBrand":10642,"Ġindication":10643,"Ġsuggesting":10644,"ĠTunisia":10645,",'":10646,"Sm":10647,"khar":10648,"Ġbars":10649,"idy":10650,"ĠDiana":10651,"ĠFel":10652,"ĠFreedom":10653,"Ġarises":10654,"ĠWed":10655,"ĠAdminist":10656,"Ġrestrictive":10657,"Ġbombs":10658,"Ġdeceased":10659,"uration":10660,"ĠSul":10661,"Ġbrill":10662,"Ġstatistical":10663,"Ġtourists":10664,"Ġinfrastructures":10665,"Ġunlikely":10666,"nst":10667,"Ġbizar":10668,"ĠSn":10669,"Ġsilver":10670,"Ġteenager":10671,"Ġfifty":10672,"Ġ1970":10673,"Ġuniversities":10674,"Ġinstructions":10675,"Ġpresumably":10676,"ĠLebanon":10677,"iannual":10678,"Rather":10679,"oln":10680,"akh":10681,"obile":10682,"Ġlegs":10683,"Ġquestioning":10684,"Ġidentical":10685,"Tur":10686,"ĠSin":10687,"umes":10688,"ĠJill":10689,"Ġawait":10690,"ggie":10691,"Ġflu":10692,"Ġacquired":10693,"ĠObject":10694,"Ġcomponent":10695,"Ġtransfers":10696,"Ġeligible":10697,"ĠKrishna":10698,"Jo":10699,"Ġpity":10700,"Ġgard":10701,"Ġattends":10702,"Ġassert":10703,"Ġsubstantially":10704,"Ġconsolidation":10705,"Ġsweet":10706,"Ġslips":10707,"ĠCharlotte":10708,"zilla":10709,"usse":10710,"Ġshed":10711,"Ġoverd":10712,"Allow":10713,"Ġscenario":10714,"ĠAshton":10715,"Ġcasino":10716,"foot":10717,"su":10718,"Ġthieves":10719,"Ġstom":10720,"ĠRel":10721,"ĠRab":10722,"Ġreserves":10723,"Ġmyth":10724,"Ġsurgery":10725,"debate":10726,"Ġillegally":10727,"Ġruins":10728,"ationally":10729,"riving":10730,"ĠChance":10731,"Ġfundament":10732,"ĠConc":10733,"Ġpsychological":10734,"Ġwooden":10735,"ĠDefence":10736,"pical":10737,"Ġtone":10738,"erion":10739,"Ġaggressive":10740,"Ġruth":10741,"Ġprogressive":10742,"Ġsatisfy":10743,"Ġcultiv":10744,"Ġdistinct":10745,"Fortunately":10746,"Lou":10747,"bi":10748,"Ġgru":10749,"Ġfinancially":10750,"Ġutil":10751,"oni":10752,"rained":10753,"ĠKid":10754,"Ġdecor":10755,"Ġprogramming":10756,"irot":10757,"Col":10758,"Par":10759,"mir":10760,"ĠMarty":10761,"Ġdeploy":10762,"Ġdesired":10763,"Ġsym":10764,"Ġestr":10765,"Ġbeneath":10766,"Ġseparation":10767,"Ġreferences":10768,"Ġnecklace":10769,"Ġabstained":10770,"Ġaccurate":10771,"Ġendorsed":10772,"iest":10773,"ĠSi":10774,"Ġproduces":10775,"Ġblast":10776,"Ġsystematically":10777,"Ġ45":10778,"olidarity":10779,"Ġmentally":10780,"Ġheir":10781,"ĠFort":10782,"Ġrand":10783,"ĠAlban":10784,"being":10785,"Ġgradual":10786,"Ġcouncil":10787,"Ġerrors":10788,"Ġcries":10789,"Ġcraw":10790,"Ġinability":10791,"Ġdeficits":10792,"Ġtransportation":10793,"Ġpostpon":10794,"Ġbombing":10795,"Ġconsistency":10796,"Ġtackled":10797,"ĠXia":10798,"Ġliquid":10799,"ĠVikram":10800,"NG":10801,"makers":10802,"esar":10803,"ete":10804,"astian":10805,"Ġdelivers":10806,"Ġvicious":10807,"ĠPooja":10808,"Pri":10809,"Ġtune":10810,"ĠMig":10811,"ĠLove":10812,"Ġcompr":10813,"Ġmagical":10814,"Ġtransformed":10815,"dens":10816,"ĠLang":10817,"Ġarbit":10818,"Ġcriterion":10819,"ĠHarold":10820,"Ġeuros":10821,"Ġunanimity":10822,"Ġprostitution":10823,"ument":10824,"asu":10825,"Ġalliance":10826,"ako":10827,"ĠLin":10828,"Ġpainful":10829,"Ġacquire":10830,"ĠQuestion":10831,"Ġengineering":10832,"Ġrabbit":10833,"des":10834,"atha":10835,"boat":10836,"Ġflights":10837,"Ġtolerance":10838,"ĠRagh":10839,"ĠLabour":10840,"Ġgreed":10841,"unning":10842,"ĠJar":10843,"Ġbases":10844,"ĠMarc":10845,"2003":10846,"ĠKatie":10847,"Ġcounsel":10848,"HU":10849,"writ":10850,"Ġrevel":10851,"Ġannex":10852,"ĠTw":10853,"ĠNet":10854,"Ġimplies":10855,"Ġfragment":10856,"Ġtransformation":10857,"ĠDetective":10858,"Certain":10859,"Cont":10860,"Ġbail":10861,"Ġlure":10862,"oting":10863,"elia":10864,"ĠJr":10865,"Ġsurvey":10866,"ĠMaya":10867,"box":10868,"Ġobtaining":10869,"Ġsadly":10870,"Ġinspector":10871,"Ġpharmaceutical":10872,"style":10873,"ĠMoon":10874,"erek":10875,"Ġcommitting":10876,"Ġtea":10877,"ĠArch":10878,"Ġgenerous":10879,"Ġtransported":10880,"Ġexamining":10881,"Ġzero":10882,"Ġrebels":10883,"Ġexplicitly":10884,"oyle":10885,"Ġsubjected":10886,"ĠMcK":10887,"ĠAlexander":10888,"ĠAnth":10889,"Ġexposure":10890,"Ġreplacement":10891,"Ġwarehouse":10892,"mare":10893,"osy":10894,"ounced":10895,"Ġwhereabouts":10896,"Ġadaptation":10897,"ĠVincent":10898,"Lo":10899,"entric":10900,"adel":10901,"essions":10902,"establ":10903,"ĠJag":10904,"Ġwholeheart":10905,"ĠCohesion":10906,"Ġvirgin":10907,"Ġfab":10908,"Ġear":10909,"ĠNina":10910,"anca":10911,"Ġfurthermore":10912,"Ġwarrant":10913,"Ġwinner":10914,"Ġarguing":10915,"ĠMalta":10916,"Ġpremature":10917,"ĠStockholm":10918,"Ġalert":10919,"ĠRub":10920,"ĠDark":10921,"ĠNichol":10922,"ĠWor":10923,"friendly":10924,"Ġawarded":10925,"Ġot":10926,"aratory":10927,"ĠCode":10928,"ĠDog":10929,"owski":10930,"Ġenterprise":10931,"Ġdependence":10932,"ĠPriya":10933,"Ġcorresponding":10934,"Ġstringent":10935,"Ġelaborate":10936,"ĠCorn":10937,"Ġshell":10938,"ribed":10939,"Ġfunny":10940,"Ġshotgun":10941,"Ġstamp":10942,"ĠGloria":10943,"ĠNed":10944,"Ġbright":10945,"Ġofficially":10946,"Ġwarned":10947,"burgh":10948,"Ġbeer":10949,"ĠCase":10950,"ested":10951,"Ġabused":10952,"ĠStev":10953,"Ġscript":10954,"Ġsuperior":10955,"Ġwithdrawn":10956,"Ġthoroughly":10957,"Ġmonopol":10958,"Rich":10959,"omic":10960,"Ġlord":10961,"ĠFa":10962,"ĠKit":10963,"Ġsignals":10964,"Ġimmunity":10965,"ĠRahul":10966,"Jan":10967,"ĠStand":10968,"Ġformally":10969,"ijing":10970,"Ġfleeing":10971,"Ġdisappointment":10972,"Amendment":10973,"Ġtaste":10974,"ĠMort":10975,"Ġdepl":10976,"ĠFu":10977,"Ġdifferently":10978,"Ġhorrified":10979,"Ġadapted":10980,"author":10981,"Ġhazardous":10982,"sk":10983,"Ġkicks":10984,"Ġcomic":10985,"Ġcoverage":10986,"ĠClub":10987,"ĠCynthia":10988,"Ġdisappro":10989,"Ġepid":10990,"Ġgrief":10991,"Ġannouncement":10992,"Know":10993,"Ġaston":10994,"asi":10995,"Ġecc":10996,"ĠMeg":10997,"Ġshy":10998,"Ġrepression":10999,"ĠLeague":11000,"Ġradiation":11001,"Ġfeeding":11002,"Ġpillars":11003,"Ġfrustration":11004,"iasm":11005,"Ġsmuggling":11006,"cern":11007,"Ġhij":11008,"sider":11009,"Ġadequately":11010,"Ġtransforms":11011,"Ġaspirations":11012,"mat":11013,"Ġskill":11014,"ĠSteven":11015,"Ġlogic":11016,"ĠDoctor":11017,"ester":11018,"ĠColl":11019,"ĠEur":11020,"Ġours":11021,"Ġpreparatory":11022,"Ġtopics":11023,"Ġreviewed":11024,"Ġauto":11025,"Ġoverwhelming":11026,"pone":11027,"uer":11028,"Ġinput":11029,"Ġdrew":11030,"imony":11031,"Ġ33":11032,"Ġopera":11033,"Ġlisted":11034,"Ġtouched":11035,"ĠTaiwan":11036,"Ġcrown":11037,"Ġcyn":11038,"ĠCriminal":11039,"Ġcarn":11040,"ovina":11041,"armed":11042,"ĠArm":11043,"ĠMcG":11044,"Ġdupl":11045,"Ġartificial":11046,"60":11047,"Hence":11048,"sa":11049,"oned":11050,"osa":11051,"ainted":11052,"Ġtraps":11053,"Ġmothers":11054,"ĠManagement":11055,"Ġparagraphs":11056,"Ġenthusiasm":11057,"ĠTemple":11058,"Naturally":11059,"Ġrecycling":11060,"95":11061,"Would":11062,"Ġward":11063,"itudes":11064,"Ġhitting":11065,"usc":11066,"Ġchose":11067,"Ġunpre":11068,"Ġsolving":11069,"Ġinitiated":11070,"Ġvolcan":11071,"Ġwitnessing":11072,"Ġhyd":11073,"Ġphotos":11074,"vals":11075,"Ġearm":11076,"Ġassembly":11077,"ĠPad":11078,"ĠFat":11079,"Ġgrasp":11080,"ĠJackie":11081,"ĠSergeant":11082,"Ġadjustment":11083,"Ġdisturbed":11084,"ĠFederation":11085,"Pl":11086,"Ġtourn":11087,"ĠRE":11088,"Ġresume":11089,"ĠNot":11090,"Ġraces":11091,"Ġprominent":11092,"ĠRaju":11093,"urrent":11094,"Ġnoble":11095,"Ġfeud":11096,"Ġdistributed":11097,"Ġincentive":11098,"Ġdespair":11099,"Ġbizarre":11100,"Ġhood":11101,"Ġdual":11102,"ĠAunt":11103,"ĠAjay":11104,"Ġresur":11105,"ĠFour":11106,"Ġunres":11107,"Ġdiscoura":11108,"Ġabsent":11109,"Ġtested":11110,"herent":11111,"Ġmines":11112,"auer":11113,"Ġcontempl":11114,"grade":11115,"Ġdesk":11116,"Ġwindows":11117,"Ã¶m":11118,"Ġcoins":11119,"Ġscreening":11120,"Ġrigorous":11121,"Ã³n":11122,"27":11123,"gi":11124,"requis":11125,"Ġdatab":11126,"Ġoutlaw":11127,"Ġoverse":11128,"incoln":11129,"ĠThor":11130,"Ġidentifies":11131,"Ġpostpone":11132,"Ġchannels":11133,"strÃ¶m":11134,"Ġly":11135,"Ġmun":11136,"Ġalley":11137,"chair":11138,"ĠBert":11139,"Inside":11140,"aved":11141,"tegr":11142,"Ġmining":11143,"Ġoldest":11144,"Ġcaptures":11145,"Ġsensit":11146,"ĠRomanian":11147,"ĠWednes":11148,"west":11149,"Ġfame":11150,"ingers":11151,"ĠKath":11152,"Ġrose":11153,"Ġresponding":11154,"Ġforecast":11155,"Ġswit":11156,"iries":11157,"Ġniece":11158,"ĠRun":11159,"Ġplenty":11160,"ĠNig":11161,"Ġrecovered":11162,"Ġtreats":11163,"Ġpressing":11164,"Ġageing":11165,"Throughout":11166,"Ġmonopoly":11167,"ĠDracula":11168,"Ġworries":11169,"looking":11170,"Ġconcluding":11171,"speople":11172,"ĠJamie":11173,"Ġtournament":11174,"DF":11175,"Ġowe":11176,"Ġgolf":11177,"Ġrating":11178,"Ġabusive":11179,"ĠHard":11180,"abil":11181,"Ġexpose":11182,"raining":11183,"Ġchampions":11184,"Ġbike":11185,"Ġfare":11186,"Ġseats":11187,"ndering":11188,"Ġpublication":11189,"Ġarrests":11190,"Ġsells":11191,"Ġkeys":11192,"Ġsafeguarding":11193,"Ġruin":11194,"Comp":11195,"Ġliv":11196,"pered":11197,"ĠSeth":11198,"Ġprerequis":11199,"ĠSyria":11200,"Ġtroubles":11201,"Ġfrightened":11202,"Ġwool":11203,"Ġbold":11204,"anas":11205,"Ġsums":11206,"ĠBomb":11207,"Ġdiffer":11208,"Ġdealers":11209,"Ġgenerate":11210,"athetic":11211,"Ġhorizont":11212,"Ġinappropriate":11213,"cup":11214,"Ġallies":11215,"Ġvice":11216,"Ġconspir":11217,"igned":11218,"Ġblocked":11219,"Ġensured":11220,"Ġdiary":11221,"Ġghosts":11222,"Ġdelicate":11223,"Ġprecaution":11224,"Ġborne":11225,"Ġprevents":11226,"Ġflower":11227,"Ġpossessed":11228,"Ġhalt":11229,"Ġlibrary":11230,"Ġautonomy":11231,"Ġneutral":11232,"Ġlandscape":11233,"Hen":11234,"building":11235,"yll":11236,"Ġcock":11237,"Ġht":11238,"ĠJoh":11239,"Ġargues":11240,"ĠWy":11241,"Ġtwins":11242,"Ġvisas":11243,"Ġinevitably":11244,"Ġcomponents":11245,"Neither":11246,"Ġphrase":11247,"ĠGall":11248,"Ġgoons":11249,"ĠOh":11250,"Ġestimate":11251,"ĠGraham":11252,"Ġventure":11253,"Ġdiamonds":11254,"don":11255,"reaching":11256,"Ġsou":11257,"Ġost":11258,"itated":11259,"Ġvit":11260,"Ġorg":11261,"ĠDoha":11262,"Ġworkplace":11263,"Ġ32":11264,"ĠAnand":11265,"Ġpressures":11266,"Ġcollected":11267,"Ġdelayed":11268,"Ġdecentral":11269,"Ġpropag":11270,"ĠOlympic":11271,"onymous":11272,"UE":11273,"oom":11274,"ĠCau":11275,"ĠEston":11276,"Ġpartially":11277,"Ġtrunk":11278,"sians":11279,"inki":11280,"ikh":11281,"Ġvalley":11282,"Ġdonor":11283,"Ġidentification":11284,"ibbean":11285,"Ġconstraints":11286,"ĠAnthony":11287,"Luc":11288,"orge":11289,"idden":11290,"ĠNi":11291,"Ġroomm":11292,"Ġguided":11293,"Ġdiverse":11294,"Ġobstacle":11295,"Ġape":11296,"Ġreper":11297,"Ġdear":11298,"ĠCompany":11299,"Ġsupervisory":11300,"ĠAlgeria":11301,"hetic":11302,"Ġpref":11303,"Ġadds":11304,"Ġmurdering":11305,"Ġruined":11306,"Ġdeserted":11307,"ĠFlore":11308,"def":11309,"ui":11310,"zer":11311,"Ġlion":11312,"uters":11313,"ĠShel":11314,"thel":11315,"Ġconnections":11316,"Sus":11317,"lad":11318,"ĠIT":11319,"ĠStu":11320,"ĠKent":11321,"Ġwinds":11322,"Ġpregnancy":11323,"Ġslip":11324,"ĠSaddam":11325,"Ġsimultaneously":11326,"Ġrandom":11327,"NA":11328,"kward":11329,"Ġconform":11330,"rait":11331,"Ġnotorious":11332,"igo":11333,"ĠKn":11334,"Ġscare":11335,"Ġtownspeople":11336,"Ġexcited":11337,"Ġremoves":11338,"ĠMoldova":11339,"woman":11340,"enous":11341,"pere":11342,"essa":11343,"andra":11344,"ĠDragon":11345,"Ġassures":11346,"Ġdeclines":11347,"ĠAndre":11348,"Ġdefinitive":11349,"ĠCarlos":11350,"Ġchannel":11351,"ussein":11352,"Pat":11353,"press":11354,"tes":11355,"Ġdeaf":11356,"Ġunite":11357,"ĠKumar":11358,"ĠVol":11359,"Ġbreakdown":11360,"ĠSpike":11361,"guard":11362,"ĠMatthew":11363,"Ġdevastating":11364,"Mike":11365,"Sar":11366,"has":11367,"yam":11368,"amy":11369,"Ġkick":11370,"encer":11371,"Ġdistraught":11372,"ĠElmer":11373,"Ġracist":11374,"Ġimpressive":11375,"Ġweaknesses":11376,"Ġeccentric":11377,"ĠRicky":11378,"ĠDeep":11379,"aws":11380,"Ġblames":11381,"Ġminim":11382,"Ġenlist":11383,"Ġconsultations":11384,"Ġconsciousness":11385,"Ġbiof":11386,"Ġirresponsible":11387,"aux":11388,"Ġ400":11389,"SCE":11390,"Ġeggs":11391,"mn":11392,"zeg":11393,"reme":11394,"Ġfond":11395,"ĠRat":11396,"pton":11397,"Ġposed":11398,"Ġassured":11399,"Ġorganic":11400,"ĠBeijing":11401,"Ġpretend":11402,"Mon":11403,"bell":11404,"bastian":11405,"atures":11406,"Ġbury":11407,"Ġlingu":11408,"Ġenabled":11409,"Ġmainstream":11410,"Ġidentifying":11411,"oof":11412,"Ġdetermining":11413,"Ġsummary":11414,"ĠWednesday":11415,"vor":11416,"Ġgro":11417,"ĠMass":11418,"ĠWater":11419,"ĠYouth":11420,"Ġdepressed":11421,"ĠGuard":11422,"Ġcolonial":11423,"mus":11424,"Ġbud":11425,"iche":11426,"ĠAtt":11427,"ĠLor":11428,"Ġmonsters":11429,"Ġsuspicions":11430,"Ġtoxic":11431,"Ġstomach":11432,"cific":11433,"ĠPack":11434,"Ġawkward":11435,"Ġsupporters":11436,"Ġexpects":11437,"Ġmissile":11438,"Ġdivide":11439,"Ġdemocratically":11440,"ĠCE":11441,"ĠFound":11442,"obb":11443,"ĠChuck":11444,"onde":11445,"Ġdelegations":11446,"Ġsafeguards":11447,"ĠKaran":11448,"Ġairline":11449,"ĠAntonio":11450,"Ġchronic":11451,"Thanks":11452,"oyd":11453,"Ġmidst":11454,"Ġadventures":11455,"Ġphotographs":11456,"vote":11457,"rehend":11458,"Ġfee":11459,"Ġpup":11460,"Ġprag":11461,"Ġreunite":11462,"Ġimperative":11463,"Ġlengthy":11464,"Ġgallery":11465,"ĠMitchell":11466,"Ġaspiring":11467,"Ġerupt":11468,"Ġpages":11469,"utors":11470,"endy":11471,"oven":11472,"Ġideological":11473,"ĠWeb":11474,"Ġshots":11475,"Ġcomplaint":11476,"Ġstabbed":11477,"Ġpirates":11478,"Ray":11479,"enth":11480,"Ġrevers":11481,"Ġvain":11482,"Ġhandled":11483,"Ġsalary":11484,"Ġassuming":11485,"Ġburns":11486,"Ġgathering":11487,"Far":11488,"Imp":11489,"Ġbust":11490,"ĠSandy":11491,"ĠWatson":11492,"Ġcontinuation":11493,"archy":11494,"Ġbanana":11495,"Ġacademic":11496,"Ġfreed":11497,"adian":11498,"ĠMem":11499,"ĠEarl":11500,"ĠAid":11501,"ĠLuk":11502,"ĠFox":11503,"phic":11504,"Ġquestioned":11505,"Ġsentences":11506,"ĠCaribbean":11507,"Ġsustained":11508,"Ġassessing":11509,"Ġrobbers":11510,"ĠJulius":11511,"ĠCongo":11512,"Ġarchitecture":11513,"minded":11514,"ĠHotel":11515,"Ġingred":11516,"Dis":11517,"EA":11518,"made":11519,"Ġmood":11520,"Ġdisabilities":11521,"ĠWild":11522,"Ġblocks":11523,"Ġrecommends":11524,"Ġquarters":11525,"tical":11526,"ems":11527,"anth":11528,"ĠNand":11529,"Ġindig":11530,"Ġfiles":11531,"Ġanalyses":11532,"Ġdiner":11533,"Ġvolunteers":11534,"Ġpermanently":11535,"ĠVictoria":11536,"Ġmarginal":11537,"Ġinfringement":11538,"IO":11539,"date":11540,"older":11541,"ĠMoh":11542,"uno":11543,"cessions":11544,"ĠOper":11545,"Ġyoungest":11546,"Ġhangs":11547,"Ġteenagers":11548,"ĠEgyptian":11549,"Ġlaughing":11550,"Ġorphanage":11551,"Ġhorizontal":11552,"Taking":11553,"aters":11554,"Ġburdens":11555,"Ġdescription":11556,"Ġpulling":11557,"ĠLibya":11558,"Ġransom":11559,"Ġsubmarine":11560,"zegovina":11561,"ĠBrend":11562,"ĠKab":11563,"Ġsecrets":11564,"Ġcleaning":11565,"Ġunderworld":11566,"Ġwanders":11567,"Ġexpedition":11568,"Ġrehabilit":11569,"Ġestranged":11570,"ĠMas":11571,"ĠInc":11572,"anther":11573,"ĠOSCE":11574,"Ġrememb":11575,"Ġestablishes":11576,"Ġpleasant":11577,"Ġcombine":11578,"Ġclauses":11579,"Ġspirits":11580,"Ġirres":11581,"Ġcounterpart":11582,"Ram":11583,"kel":11584,"Ġtens":11585,"ĠCraig":11586,"ifiable":11587,"ĠHussein":11588,"Ġposing":11589,"Ġhostile":11590,"Ġstresses":11591,"Ġconducting":11592,"Ġvessel":11593,"inis":11594,"Ġwives":11595,"icism":11596,"ressive":11597,"ĠSharon":11598,"Ġpartnerships":11599,"Ġpersuaded":11600,"Ġtip":11601,"Ġweigh":11602,"ĠHIV":11603,"ratt":11604,"Ġprofile":11605,"ĠAgent":11606,"Ġheroin":11607,"ĠPrize":11608,"ĠFisch":11609,"Ġvampires":11610,"arette":11611,"Ġregistered":11612,"Ġwip":11613,"Ġdirty":11614,"ĠRita":11615,"Ġjury":11616,"Ġspaces":11617,"Ġgenoc":11618,"Ġtuna":11619,"ĠScottish":11620,"ĠCuban":11621,"ĠDoug":11622,"Ġfundamentally":11623,"rik":11624,"Ġ48":11625,"rolled":11626,"Ġmodernisation":11627,"Above":11628,"ĠGalile":11629,"34":11630,"Ġox":11631,"Ġnav":11632,"Init":11633,"ĠVe":11634,"ĠFranklin":11635,"Ġsnake":11636,"chest":11637,"Ġdisadvantaged":11638,"Russia":11639,"Ġenshrined":11640,"discrimination":11641,"ĠEIB":11642,"resa":11643,"Ġsue":11644,"ntil":11645,"ĠGot":11646,"ĠGill":11647,"ĠFal":11648,"ishment":11649,"Ġattain":11650,"Ġremoval":11651,"Ġcafe":11652,"Ġnarrator":11653,"Ġcamer":11654,"Ġconsolidate":11655,"jali":11656,"urious":11657,"Ġproving":11658,"Ġanch":11659,"Ġshocking":11660,"ĠTak":11661,"Ġensures":11662,"Ġcompeting":11663,"ĠArctic":11664,"Ġcostume":11665,"Ġavailability":11666,"))":11667,"vate":11668,"ĠSup":11669,"emon":11670,"ĠFern":11671,"Ġinvesting":11672,"Ġsafer":11673,"ĠPeace":11674,"ĠWoody":11675,"Ġresumed":11676,"iovis":11677,"Ġshield":11678,"ĠJe":11679,"ĠNob":11680,"Ġclerk":11681,"Ġrocks":11682,"ologically":11683,"Ġobsession":11684,"Ġdisturbing":11685,"Ġfestival":11686,"gments":11687,"Ġfans":11688,"Ġlad":11689,"amble":11690,"Ġdeport":11691,"ĠIN":11692,"ĠGuine":11693,"Ġbacks":11694,"ĠConst":11695,"Ġspeculation":11696,"Ġcloset":11697,"Ġfoods":11698,"employed":11699,"Ġwarnings":11700,"Ġrecovering":11701,"Ġrepercus":11702,"acerb":11703,"Ġtrips":11704,"Ġmisle":11705,"ĠMayor":11706,"Ġconcepts":11707,"ĠIranian":11708,"htm":11709,"Ġbeneficiaries":11710,"Ġfrees":11711,"owing":11712,"Ġcancell":11713,"Ġthereafter":11714,"aga":11715,"Ġstrang":11716,"iker":11717,"Ġ1991":11718,"Ġ1960":11719,"Ġflashbacks":11720,"Ġpersecution":11721,"ĠObjective":11722,"Af":11723,"ci":11724,"ĠMall":11725,"ulz":11726,"estock":11727,"Ġrings":11728,"ĠLt":11729,"Ġhighway":11730,"Ġvisions":11731,"Ġlots":11732,"Ġimmigrant":11733,"Ġ150":11734,"Ġirrit":11735,"Ġprompting":11736,"Ġdivorced":11737,"Ġhelpless":11738,"RE":11739,"iser":11740,"agan":11741,"Ġuser":11742,"Ġinternationally":11743,"Ġgovernor":11744,"ĠBlake":11745,"Ġbrave":11746,"Ġquantity":11747,"ĠALDE":11748,"Matt":11749,"onder":11750,"org":11751,"ĠME":11752,"Ġconcessions":11753,"Ġbacked":11754,"Ġagreeing":11755,"2004":11756,"Ġhunter":11757,"Ġindirectly":11758,"IC":11759,"Rob":11760,"Sure":11761,"Tw":11762,"US":11763,"aser":11764,"ĠSix":11765,"ĠSpring":11766,"this":11767,"ĠChad":11768,"Ġsecuring":11769,"ĠArgent":11770,"Ġnightmare":11771,"ĠAnderson":11772,"Ġstrip":11773,"Ġsplend":11774,"Ġquietly":11775,"ĠLiberals":11776,"ĠGMOs":11777,"iovisual":11778,"Ġexacerb":11779,"Ġsew":11780,"Ġjumping":11781,"Ġabrupt":11782,"Ġplastic":11783,"ĠWong":11784,"Ġparking":11785,"Ġdonors":11786,"Ġgunpoint":11787,"Ġembark":11788,"Ġsuspension":11789,"esticides":11790,"Ġbasketball":11791,"Ġirregularities":11792,"Ġtremendous":11793,"BC":11794,"FO":11795,"vation":11796,"urai":11797,"ĠHank":11798,"Ġempire":11799,"Ġdemol":11800,"Ġallowances":11801,"Ġsimplified":11802,"Ġanxious":11803,"Bet":11804,"Up":11805,"Ġfence":11806,"ĠJoy":11807,"ĠOd":11808,"Ġconvict":11809,"ĠSamantha":11810,"Ġencouragement":11811,"Ġpetition":11812,"Ġmedicinal":11813,"Ġreaffirm":11814,"Ġrepercussions":11815,"Ult":11816,"mid":11817,"Ġhrs":11818,"Ġheight":11819,"ravel":11820,"unal":11821,"ĠBad":11822,"Ġenact":11823,"ĠNight":11824,"Ġreck":11825,"Ġspr":11826,"Ġcaut":11827,"racies":11828,"Ġembry":11829,"ĠClay":11830,"Ġcomparable":11831,"Ġclinic":11832,"Ġruthless":11833,"mod":11834,"Ġscept":11835,"Ġfiring":11836,"ocal":11837,"ĠKrist":11838,"Ġintercept":11839,"Ġdescend":11840,"Ġcriticisms":11841,"Ġpassionate":11842,"ĠTampere":11843,"Ġpsychiatrist":11844,"hot":11845,"Ġbills":11846,"Ġvillages":11847,"ĠEmpire":11848,"Ġassociate":11849,"Ġhumil":11850,"ĠPatten":11851,"39":11852,"Hel":11853,"LO":11854,"Ġate":11855,"ĠDecision":11856,"Ġjoke":11857,"ĠFord":11858,"Ġcompare":11859,"ikes":11860,"Ġdepending":11861,"ervatives":11862,"Ġtorment":11863,"Ġexemption":11864,"Ġprofessionals":11865,"emetery":11866,"Ġauction":11867,"Ġcage":11868,"Ġbom":11869,"icable":11870,"ĠMam":11871,"ĠGus":11872,"Ġworkforce":11873,"ĠArmen":11874,"emocratic":11875,"Ġgaining":11876,"Ġdetectives":11877,"Ġinequalities":11878,"Danny":11879,"vard":11880,"Ġwreck":11881,"Ġpy":11882,"Ġlend":11883,"ĠPos":11884,"ĠHun":11885,"aping":11886,"aji":11887,"Ġsooner":11888,"Ġbargain":11889,"Ġopposing":11890,"Ġcollecting":11891,"Ġmachines":11892,"Ġpreferred":11893,"Ġopponents":11894,"ĠSlovenia":11895,"ĠHelsinki":11896,"uber":11897,"Ġfierce":11898,"Ġease":11899,"Ġmini":11900,"Ġcomplexity":11901,"Ġradioactive":11902,"Ġspreading":11903,"Ġdemocratisation":11904,"ĠRevolution":11905,"ĠCambod":11906,"uis":11907,"rer":11908,"aria":11909,"Ġdimin":11910,"imm":11911,"Ġaging":11912,"udi":11913,"ĠLet":11914,"ĠLight":11915,"Ġconfined":11916,"Ġretro":11917,"Ġsignature":11918,"ĠThird":11919,"swald":11920,"financing":11921,"athered":11922,"Ġcigarette":11923,"Ġdossier":11924,"!\"":11925,"ĠÃ":11926,"iler":11927,"astically":11928,"Ġfinishes":11929,"Ġaccum":11930,"Ġcurious":11931,"Ġintegral":11932,"ĠGuy":11933,"ĠSyd":11934,"Ġancest":11935,"ĠSolana":11936,"Ġlivestock":11937,"Ġtong":11938,"Ġspin":11939,"Ġdevote":11940,"Ġclassic":11941,"Ġdispro":11942,"ĠBrok":11943,"Ġmidnight":11944,"ĠSenate":11945,"Ġbreath":11946,"ĠNicole":11947,"ĠOfficer":11948,"Ġstupid":11949,"Ra":11950,"Ġhates":11951,"ĠAra":11952,"ĠKu":11953,"Ġpron":11954,"Ġcargo":11955,"ructive":11956,"Ġurged":11957,"Ġpermits":11958,"Ġcelebrating":11959,"Ġmerit":11960,"Ġmisunderstanding":11961,"ĠKennedy":11962,"ĠFoundation":11963,"col":11964,"esb":11965,"Ġshout":11966,"Ġresent":11967,"Ġundergo":11968,"Ġviewed":11969,"Ġhotels":11970,"Should":11971,"Ġembargo":11972,"Ġincons":11973,"ĠGulf":11974,"Ġarrow":11975,"Ġspies":11976,"Ġprin":11977,"Ġshower":11978,"Ġguardian":11979,"Ġavenge":11980,"iol":11981,"Ġsoph":11982,"Ġdread":11983,"ĠDim":11984,"Ġteeth":11985,"ĠShan":11986,"Ġoperator":11987,"Ġlimiting":11988,"ĠJudge":11989,"CR":11990,"Ġwaves":11991,"ĠGUE":11992,"Ġprud":11993,"eggy":11994,"Ġconcentrated":11995,"lynn":11996,"Ġdistracted":11997,"Ġvocational":11998,"Ġreign":11999,"ĠCorpor":12000,"ĠTown":12001,"ĠLal":12002,"Ġfathers":12003,"Ġexisted":12004,"ariat":12005,"Ġcomfortable":12006,"Ġtranslation":12007,"Ġpaintings":12008,"ĠNapoleon":12009,"Mal":12010,"Pol":12011,"Sch":12012,"initiative":12013,"aints":12014,"arest":12015,"Ġcommod":12016,"ilitary":12017,"Ġlandlord":12018,"Ġpatri":12019,"Ġlacks":12020,"Ġsacrifices":12021,"Ġthrone":12022,"Ġnaive":12023,"Until":12024,"Ġpuzz":12025,"weety":12026,"ĠOscar":12027,"Ġprotective":12028,"ucker":12029,"appy":12030,"Ġfooting":12031,"Ġfulfilling":12032,"Ġlaunching":12033,"Ġzombie":12034,"NGL":12035,"osystem":12036,"inity":12037,"akis":12038,"ĠShin":12039,"ĠThank":12040,"attan":12041,"Ġfoodstuffs":12042,"Ġcaptive":12043,"2005":12044,"Ġhostages":12045,"Ġforestry":12046,"Ġhideout":12047,"Ġconventional":12048,"Jimmy":12049,"Ġdioxide":12050,"Ġmanifest":12051,"ĠFischler":12052,"gt":12053,"Ġlament":12054,"ĠMars":12055,"irer":12056,"Ġcontinuous":12057,"Ġbread":12058,"ĠAmanda":12059,"Ġdictator":12060,"Ġcasual":12061,"Ġhunters":12062,"ĠJunior":12063,"Ġdownt":12064,"oriented":12065,"Knowing":12066,"ioned":12067,"ĠCot":12068,"ĠBird":12069,"acked":12070,"Ġwerew":12071,"ĠIndepend":12072,"Ġaiming":12073,"erald":12074,"ĠSociety":12075,"ĠWilliams":12076,"ĠCounty":12077,"Ġmercury":12078,"Ġconfidential":12079,"Ġstranded":12080,"door":12081,"join":12082,"ilation":12083,"Ġprote":12084,"rapped":12085,"ĠDist":12086,"Ġchicken":12087,"ĠHon":12088,"Ġinvested":12089,"Ġrecognises":12090,"Ġsenses":12091,"Ġspiritual":12092,"ĠAbby":12093,"ĠPoirot":12094,"ĠRadha":12095,"Ġdisparities":12096,"Initially":12097,"Ġbatter":12098,"ĠGriff":12099,"Ġfees":12100,"Ġviolently":12101,"ĠRober":12102,"jamin":12103,"Ġwholeheartedly":12104,"Ġmafia":12105,"Ġthick":12106,"Ġalb":12107,"ĠGary":12108,"ĠTracy":12109,"ĠLincoln":12110,"agg":12111,"Ġinspir":12112,"Ġencount":12113,"ĠBuddy":12114,"heugen":12115,"orously":12116,"Ġinland":12117,"Ġduck":12118,"Ġseize":12119,"Ġcontempt":12120,"Ġprecond":12121,"Ġhorrif":12122,"ĠLiberties":12123,"Ġassignment":12124,"Ġecosystem":12125,"ĠPrem":12126,"Ġconstituency":12127,"Ġsiblings":12128,"Ġgenocide":12129,"lene":12130,"aram":12131,"Ġguitar":12132,"uffy":12133,"Ġcoordin":12134,"Ġfloods":12135,"Ġflags":12136,"ĠCaucas":12137,"Ġecho":12138,"uther":12139,"ĠGrant":12140,"Ġoutbreak":12141,"Ġcorrid":12142,"Ġdeadlines":12143,"Ġignoring":12144,"Ġeliminating":12145,"Ġlinguistic":12146,"Ġencountered":12147,"orrect":12148,"Ġinner":12149,"ultan":12150,"urns":12151,"Ġindul":12152,"Ġindiff":12153,"Ġtransmission":12154,"anya":12155,"Ġviolated":12156,"kh":12157,"inery":12158,"Ġwagon":12159,"Ġfles":12160,"rup":12161,"eller":12162,"Ġmoratorium":12163,"Ġharder":12164,"Ġlowest":12165,"depth":12166,"Ġcharacterised":12167,"Ġexplosive":12168,"Ġdisgrace":12169,"Ġodds":12170,"ĠTyler":12171,"Add":12172,"Apart":12173,"Ġthrust":12174,"Ġgifts":12175,"Ġprol":12176,"ĠEs":12177,"ĠPed":12178,"earl":12179,"achi":12180,"Ġconfine":12181,"Ġtrials":12182,"ĠBarry":12183,"Ġambul":12184,"Ġpoorly":12185,"Ġseekers":12186,"ridge":12187,"Ġheroes":12188,"ĠLouise":12189,"ĠFlorida":12190,"Ġorientation":12191,"Ultimately":12192,"Ġmate":12193,"Ġgases":12194,"urday":12195,"ĠPierre":12196,"Ġplate":12197,"Ġcontributes":12198,"Ġdeparts":12199,"Ġcrop":12200,"ĠKurdish":12201,"ripp":12202,"ĠMod":12203,"ĠBall":12204,"Ġcomplied":12205,"Ġrespectively":12206,"Ġmeaningful":12207,"Ġpremium":12208,"28":12209,"rim":12210,"vous":12211,"heel":12212,"araj":12213,"ector":12214,"ĠJa":12215,"ĠHis":12216,"Ġacid":12217,"play":12218,"Ġdevices":12219,"Ġassessed":12220,"hearted":12221,"Ġwebsite":12222,"Ġxenophobia":12223,"otics":12224,"Ġath":12225,"acht":12226,"okay":12227,"Ġ95":12228,"Ġrestaurants":12229,"Ġloyalty":12230,"Ġbeside":12231,"Ġemotionally":12232,"Ġunpreced":12233,"word":12234,"erie":12235,"Ġcable":12236,"Ġyells":12237,"ĠTodd":12238,"Ġswall":12239,"Ġkissing":12240,"Ġboxing":12241,"Ġdrags":12242,"Ġtrends":12243,"Ġwww":12244,"Ġlucky":12245,"ustain":12246,"ĠDerek":12247,"Ġoperates":12248,"airo":12249,"annes":12250,"Ġeleven":12251,"ĠMonica":12252,"Ġpublish":12253,"Ġclarified":12254,"ĠLatvia":12255,"Ġautomatic":12256,"Bill":12257,"Ġtire":12258,"Ġmour":12259,"ifted":12260,"ĠTI":12261,"Ġcolony":12262,"ritical":12263,"Ġenlists":12264,"Ġreunion":12265,"lims":12266,"uana":12267,"hether":12268,"oner":12269,"Ġpesticides":12270,"Ġgathered":12271,"ĠTa":12272,"Ġprest":12273,"Ġrealities":12274,"Ġsweep":12275,"ĠPhill":12276,"Everything":12277,"Mic":12278,"SK":12279,"lu":12280,"yer":12281,"Ġfert":12282,"ĠSue":12283,"Ġinstability":12284,"Ġtranspl":12285,"Ġcompanion":12286,"Ġdemonstrating":12287,"Ġwondering":12288,"Ġcatching":12289,"Ġpolicemen":12290,"Ġscholars":12291,"Ġwhch":12292,"Ġstro":12293,"acio":12294,"Ġentrust":12295,"Ġmonaster":12296,"Ġdirections":12297,"Ġadmission":12298,"Ġpromotes":12299,"Ġobsc":12300,"Ġbroadly":12301,"Ġunderest":12302,"ĠDemocrat":12303,"Ġunsatisf":12304,"Ġclubs":12305,"Ġalarming":12306,"Ġcertific":12307,"Ġaccompanying":12308,"Ġlegendary":12309,"Ġspectacular":12310,"ĠGalileo":12311,"cles":12312,"iverse":12313,"oun":12314,"Ġmall":12315,"Ġears":12316,"ĠGer":12317,"Ġchocol":12318,"assy":12319,"Ġenergies":12320,"ĠHarris":12321,"Ġmultiannual":12322,"Ġtendency":12323,"Johnny":12324,"Ġimprisonment":12325,"Ġreinforced":12326,"found":12327,"uates":12328,"star":12329,"Ġattitudes":12330,"Ġlocals":12331,"Ġcommunist":12332,"Ġinspections":12333,"Ġdisplays":12334,"Ġadvocates":12335,"ĠMiranda":12336,"Ġelephant":12337,"Ġunprecedented":12338,"Ġbicy":12339,"Ġconvert":12340,"ĠSonia":12341,"ĠSolidarity":12342,"pled":12343,"ello":12344,"Ġspecified":12345,"Ġcompleting":12346,"Ġmaintains":12347,"Article":12348,"70":12349,"FI":12350,"Ġrear":12351,"ilia":12352,"urities":12353,"ĠFilm":12354,"Ġliking":12355,"Ġinterfere":12356,"ĠYe":12357,"Ġresponded":12358,"Ġforgive":12359,"ĠUkrain":12360,"Ġmortality":12361,"ispens":12362,"Ġincomes":12363,"Ġorgans":12364,"Ac":12365,"Ġaqu":12366,"leth":12367,"Ġbeaches":12368,"ulative":12369,"ĠPand":12370,"Ġtracking":12371,"Ġdesires":12372,"Ġsecondary":12373,"Ġindicating":12374,"Ġskept":12375,"Ġswiftly":12376,"21":12377,"Ġeve":12378,"Ġaged":12379,"ĠHart":12380,"plane":12381,"Ġdisplaced":12382,"ĠSophie":12383,"dent":12384,"zie":12385,"onte":12386,"Ġinmates":12387,"Ġasset":12388,"Ġally":12389,"unned":12390,"Ġenv":12391,"nownst":12392,"Ġdiscusses":12393,"umbling":12394,"Ġtotalitarian":12395,"ĠExec":12396,"Ġfulfill":12397,"Ġdawn":12398,"Ġcoffin":12399,"Ġintervenes":12400,"OL":12401,"Years":12402,"Ġnd":12403,"Ġinse":12404,"Ġhomet":12405,"Ġracial":12406,"Ġcaring":12407,"Ġchecking":12408,"Ġbreakfast":12409,"Ġmentioning":12410,"Ġsummar":12411,"Ġrigid":12412,"Ġopponent":12413,"Ġunstable":12414,"Ġhometown":12415,"vic":12416,"Ġmild":12417,"icter":12418,"Ġintending":12419,"Ġoutrage":12420,"identally":12421,"llor":12422,"shot":12423,"iciary":12424,"Ġrebel":12425,"fur":12426,"rine":12427,"ti":12428,"emporary":12429,"Ġherd":12430,"Ġchains":12431,"Ġstricter":12432,"rowing":12433,"Ġcorps":12434,"Ġdemonstrations":12435,"ĠElli":12436,"Ġseparately":12437,"Ġfacilitating":12438,"Ġfatally":12439,"Ġexplanations":12440,"ĠJudy":12441,"Ġpornography":12442,"daughter":12443,"issible":12444,"Ġlag":12445,"ĠDie":12446,"ĠUnder":12447,"agle":12448,"Ġevolution":12449,"Ġremit":12450,"iban":12451,"Ġbreast":12452,"ĠSaturday":12453,"Ġforty":12454,"idencies":12455,"ĠWind":12456,"Ġgenerated":12457,"roduction":12458,"ĠIslands":12459,"Ġtravelling":12460,"Ġhyster":12461,"Ġfortun":12462,"Ġexplosives":12463,"Ġtouches":12464,"aphne":12465,"Ġprivatisation":12466,"iop":12467,"math":12468,"ĠRound":12469,"Ġreformed":12470,"Ġhearts":12471,"ĠBol":12472,"Ġclan":12473,"weight":12474,"there":12475,"Ġtreating":12476,"Ġinvestigates":12477,"Ġheartbroken":12478,"2008":12479,"Ġexploited":12480,"Ġdarkness":12481,"Ġimagination":12482,"ĠNeighb":12483,"Ġbroadcasting":12484,"Ġridiculous":12485,"Ġbrilliant":12486,"Ġfighters":12487,"stat":12488,"ĠAy":12489,"ĠBaby":12490,"ĠTurn":12491,"ĠJin":12492,"ĠAmar":12493,"Ġeducated":12494,"Young":12495,"Ġambushed":12496,"Char":12497,"Ġcoordinating":12498,"ĠCliff":12499,"Ġdropping":12500,"Ġgraduate":12501,"Ġhalluc":12502,"Ġthwart":12503,"Ġindispens":12504,"Ġentail":12505,"ĠShankar":12506,"Ġmemor":12507,"Ġuncont":12508,"Ġsymbolic":12509,"ĠAustralian":12510,"olitical":12511,"TS":12512,"Ġpond":12513,"Ġabst":12514,"arett":12515,"Ġphones":12516,"Ġaudiovisual":12517,"ĠClaud":12518,"ĠCastle":12519,"oir":12520,"Ġcemetery":12521,"Ġdare":12522,"ĠMitch":12523,"acc":12524,"ocation":12525,"ogen":12526,"assador":12527,"eck":12528,"Ġtestimony":12529,"2009":12530,"Ġharmonise":12531,"ĠSanter":12532,"Ġpoorer":12533,"Ġneglected":12534,"Ġcharming":12535,"Ġsurplus":12536,"ĠFlorence":12537,"ĠAthen":12538,"ĠRain":12539,"ĠGon":12540,"Ġamid":12541,"ĠWayne":12542,"Ġentails":12543,"Ġsocialist":12544,"Ġpopul":12545,"ĠRussians":12546,"Ġstrive":12547,"Ġcriticised":12548,"ĠAnnex":12549,"Ġdramatically":12550,"Ġstimulate":12551,"ĠHindu":12552,"Ġfragile":12553,"Wal":12554,"Ġfet":12555,"Ġpic":12556,"Ġstunt":12557,"ĠEco":12558,"ayan":12559,"Ġengin":12560,"ĠDiane":12561,"berry":12562,"ĠLoren":12563,"aug":12564,"Ġprede":12565,"Ġcarriers":12566,"ĠYam":12567,"ĠInn":12568,"Ġ55":12569,"anni":12570,"Ġrecalls":12571,"Donald":12572,"ĠCosta":12573,"Based":12574,"Jake":12575,"ĠPam":12576,"ĠHague":12577,"Ġtraum":12578,"Ġreminis":12579,"Ġretal":12580,"Ġcaf":12581,"Ġdefended":12582,"Ġswing":12583,"Ġshortage":12584,"ĠJustin":12585,"Ġbonds":12586,"Ġdisadvantage":12587,"Ġwisdom":12588,"Ġmassacre":12589,"?'":12590,"isible":12591,"Ġhem":12592,"Ġcong":12593,"ĠBost":12594,"ĠDad":12595,"ĠHait":12596,"Ġoffences":12597,"Ġcrushed":12598,"Ġkillers":12599,"Ġchallenging":12600,"Ġcamping":12601,"Ġtrot":12602,"ĠTimor":12603,"natural":12604,"Ġpredecess":12605,"stage":12606,"ĠES":12607,"ĠYan":12608,"Ġaffirm":12609,"Ġurging":12610,"Ġcourageous":12611,"29":12612,"held":12613,"Ġgym":12614,"Ġexert":12615,"ĠLud":12616,"Ġunint":12617,"Ġovernight":12618,"Ġremedy":12619,"Ġconfession":12620,"Ġconfisc":12621,"Ġstudied":12622,"Ġchecked":12623,"look":12624,"Ġgarb":12625,"ĠGovernor":12626,"Ġfrankly":12627,"Ġpropaganda":12628,"vised":12629,"Ġhills":12630,"ĠAst":12631,"ĠHend":12632,"Ġquits":12633,"ĠCooper":12634,"Ġhitch":12635,"Ġsorts":12636,"Ġspeeding":12637,"ĠValent":12638,"Ġcake":12639,"raham":12640,"ĠLucky":12641,"lick":12642,"Ġaftermath":12643,"Ġkillings":12644,"Ġextrad":12645,"ĠPostal":12646,"Ġsplendid":12647,"Ġengines":12648,"ĠMid":12649,"ĠKane":12650,"ĠVar":12651,"ovation":12652,"Ġpaths":12653,"Ġwidowed":12654,"Ġcocaine":12655,"ĠCollins":12656,"hent":12657,"itary":12658,"esc":12659,"ĠEva":12660,"ĠLife":12661,"Ġclues":12662,"Ġdirectors":12663,"prints":12664,"Ġintegrating":12665,"Ġexclude":12666,"ĠIndustrial":12667,"Ġtrigger":12668,"Ant":12669,"adium":12670,"ĠMiles":12671,"ĠFam":12672,"ĠWork":12673,"Ġski":12674,"ĠSchulz":12675,"Ġadjustments":12676,"Ġabolished":12677,"ĠParker":12678,"Ġcontradiction":12679,"Ġastron":12680,"Ġindispensable":12681,"DR":12682,"Ġowing":12683,"Ġcoat":12684,"Ġcolumn":12685,"Ġflour":12686,"Ġ34":12687,"apel":12688,"Ġ65":12689,"ĠMedic":12690,"Ġanticipated":12691,"Ġwonders":12692,"Ġambulance":12693,"Ġsessions":12694,"rip":12695,"Ġwears":12696,"ĠSidd":12697,"opy":12698,"ĠAle":12699,"Ġidol":12700,"Fourthly":12701,"Ġluxury":12702,"Ġfabric":12703,"Ġace":12704,"enstein":12705,"Ġreappe":12706,"ĠPot":12707,"ĠDennis":12708,"ĠStud":12709,"Ġraft":12710,"Ġsubord":12711,"Ġequipped":12712,"ĠSebastian":12713,"Ġgoverned":12714,"Ġpilots":12715,"Ġ1989":12716,"ĠCanadian":12717,"ĠVerheugen":12718,"ĠSupreme":12719,"Che":12720,"Est":12721,"hop":12722,"Ġdairy":12723,"leton":12724,"Ġrecession":12725,"ĠCro":12726,"erent":12727,"formed":12728,"Ġretail":12729,"Ġ44":12730,"ĠWillie":12731,"Ġmysteriously":12732,"rehensible":12733,"Ġbiote":12734,"ĠLucas":12735,"Ġcinema":12736,"fr":12737,"Ġbeast":12738,"lip":12739,"ĠVince":12740,"Ġcaution":12741,"Ġcream":12742,"ylan":12743,"ĠUSD":12744,"Ġembra":12745,"ĠEvans":12746,"Henry":12747,"Ġrhet":12748,"ĠKitty":12749,"enson":12750,"ĠChap":12751,"Ġ1950":12752,"Ġappearing":12753,"ĠManh":12754,"ĠGodzilla":12755,"Ġforgiveness":12756,"Ġscarce":12757,"ĠSquare":12758,"Ġprecautionary":12759,"drop":12760,"fits":12761,"Ġlesb":12762,"ĠBry":12763,"ĠLola":12764,"Ġpublicity":12765,"Ġdistress":12766,"Ġinitiate":12767,"ĠCypri":12768,"ĠNeil":12769,"ĠMuslims":12770,"ĠNazis":12771,"Ġfeasible":12772,"ping":12773,"Ġmil":12774,"Ġstead":12775,"ĠTina":12776,"Ġtram":12777,"ĠNathan":12778,"osevic":12779,"Ġclown":12780,"Ġappalling":12781,"Ġrealised":12782,"ounts":12783,"Ġaddiction":12784,"Ġinternet":12785,"Ġ42":12786,"Ġambush":12787,"Ġrejecting":12788,"Ġargued":12789,"Ġmusician":12790,"Concern":12791,"Ġproclaim":12792,"Ġmagnific":12793,"Ġportrayed":12794,"omi":12795,"ĠLadies":12796,"Ġuncom":12797,"Ġlikewise":12798,"Ġissuing":12799,"eneration":12800,"Ġinterior":12801,"ysis":12802,"Ġproblematic":12803,"Ġpanel":12804,"Ġeliminated":12805,"Ġoptimistic":12806,"Ġfantasy":12807,"Ġinterpreted":12808,"ĠGabriel":12809,"Returning":12810,"90":12811,"kar":12812,"was":12813,"Ġhttp":12814,"ione":12815,"ĠMug":12816,"anting":12817,"ĠFrances":12818,"Ġclever":12819,"Ġballoon":12820,"ĠTravis":12821,"ĠIndonesia":12822,"Ġmonopolies":12823,"80":12824,"because":12825,"iors":12826,"Ġpor":12827,"anie":12828,"Ġrect":12829,"ĠMath":12830,"Ġdisability":12831,"Ġacute":12832,"pling":12833,"Ġattic":12834,"Ġadopts":12835,"Ġprogresses":12836,"Ġassisted":12837,"Ġgangs":12838,"Ġauditors":12839,"Ġcruise":12840,"Ġconsisting":12841,"backs":12842,"Ġcrystal":12843,"Ġsalesman":12844,"ĠSylvia":12845,"Ġremembered":12846,"asper":12847,"adh":12848,"ĠGhost":12849,"Ġunrest":12850,"Ġunseen":12851,"Ġrestoring":12852,"Ġpreserved":12853,"ĠSpencer":12854,"Ġpositively":12855,"ĠRox":12856,"Ġcompetitors":12857,"ĠNatalie":12858,"Ġunsuccessfully":12859,"Ġtransposition":12860,"Ġenforced":12861,"Ġirrespective":12862,"Gl":12863,"master":12864,"Ġrehe":12865,"ĠCurt":12866,"ando":12867,"Ġassisting":12868,"Ġfairy":12869,"ĠAshok":12870,"Ġacquisition":12871,"ĠCarmen":12872,"sed":12873,"Ġalike":12874,"ĠPir":12875,"uda":12876,"ĠUr":12877,"Ġaccountable":12878,"rogen":12879,"Ġinsults":12880,"Ġprecedent":12881,"Ġentertainment":12882,"ĠAlfred":12883,"Dev":12884,"Fe":12885,"bad":12886,"wind":12887,"Ġferry":12888,"adays":12889,"ĠIV":12890,"ĠWars":12891,"hedral":12892,"Ġmiser":12893,"uela":12894,"ĠPaula":12895,"ĠJacques":12896,"ĠGolden":12897,"Ġcannon":12898,"itology":12899,"Ġfingers":12900,"Ġincon":12901,"Ġdent":12902,"Ġpartial":12903,"uka":12904,"Ġeaten":12905,"ĠHolmes":12906,"person":12907,"isations":12908,"mentioned":12909,"Ġkicked":12910,"Ġchallenged":12911,"Ġengaging":12912,"Ġobserv":12913,"ĠDavis":12914,"Ġearns":12915,"Ġconceal":12916,"ĠJessie":12917,"Ġincompat":12918,"ĠBaroness":12919,"Billy":12920,"iri":12921,"moon":12922,"rons":12923,"Ġbored":12924,"ournal":12925,"Ash":12926,"Ġcares":12927,"Ġframed":12928,"Ġprotectionism":12929,"Ġadmir":12930,"Ġcapabilities":12931,"Ġbarrier":12932,"Ġreplacing":12933,"Ġoccasionally":12934,"ĠMichelle":12935,"ĠEstonia":12936,"Ġbiofuels":12937,"ĠSydney":12938,"35":12939,"Min":12940,"gage":12941,"ĠPrest":12942,"ĠRio":12943,"ĠGun":12944,"ĠDaw":12945,"Ġunsc":12946,"ourge":12947,"Ġbless":12948,"ĠâĢĿ":12949,"iolet":12950,"Ġcheaper":12951,"Ġportrait":12952,"ĠCoast":12953,"Ġlifted":12954,"ĠOrganization":12955,"Ġsuppliers":12956,"ĠBombay":12957,"Ġindigenous":12958,"anes":12959,"ĠCav":12960,"odox":12961,"ĠFab":12962,"Ġelite":12963,"Ġsurprises":12964,"Ġdinosaur":12965,"Ġauthorised":12966,"Ġwarming":12967,"Ġapologize":12968,"Ġsweethe":12969,"Ġabducted":12970,"enegro":12971,"07":12972,"movie":12973,"wed":12974,"Ãº":12975,"Ġawe":12976,"Ġcott":12977,"Ġconqu":12978,"ulu":12979,"ĠNora":12980,"ensing":12981,"Ġinstances":12982,"Ġpreserving":12983,"Ġsacred":12984,"junction":12985,"ĠIceland":12986,"Ġslavery":12987,"Ġprerequisite":12988,"ĠExecutive":12989,"cod":12990,"itives":12991,"Ġdile":12992,"Ġbelt":12993,"Ġgre":12994,"Ġatroc":12995,"ĠVic":12996,"Ġsecured":12997,"ĠDeb":12998,"Ġfounding":12999,"Ġtopical":13000,"ĠBeach":13001,"working":13002,"ĠManhattan":13003,"Tommy":13004,"fund":13005,"ĠIb":13006,"anti":13007,"ĠBattle":13008,"ĠDale":13009,"ĠDoyle":13010,"ĠKinn":13011,"erness":13012,"uko":13013,"Ġsixth":13014,"Ġjealousy":13015,"Ġsensitivity":13016,"Ġtill":13017,"Ġstere":13018,"ĠEnd":13019,"usty":13020,"ĠTro":13021,"perate":13022,"ribly":13023,"Ġspecialist":13024,"Ġunclear":13025,"Ġinsisting":13026,"Ġsemi":13027,"Ġmisunderstand":13028,"26":13029,"Ġcot":13030,"Ġinhuman":13031,"Ġeats":13032,"ĠBÃ¶":13033,"Ġcloning":13034,"Ġreplied":13035,"enez":13036,"psy":13037,"ĠZh":13038,"Ġbanning":13039,"2010":13040,"Ġpainted":13041,"ĠColumb":13042,"Ġsalaries":13043,"Ġdepartments":13044,"Ġcoward":13045,"ĠCaesar":13046,"Ġincredible":13047,"Ġdecrease":13048,"ĠColombia":13049,"Ġbunch":13050,"Ġtout":13051,"Ġlod":13052,"ĠCall":13053,"ĠPig":13054,"ĠPope":13055,"oku":13056,"Ġsubsc":13057,"Ġsmile":13058,"Ġminimal":13059,"Ġdemocracies":13060,"Ġsectoral":13061,"Ġassistants":13062,"Ġinjust":13063,"Ġcondemning":13064,"Ġlicence":13065,"ĠGoals":13066,"Ġassociates":13067,"fish":13068,"uesday":13069,"Ġexplode":13070,"Ġflames":13071,"Ġtalented":13072,"Ġauthors":13073,"Ġchoosing":13074,"Ġgrandson":13075,"Ġfortress":13076,"Ġpetty":13077,"Ġhonesty":13078,"Quite":13079,"Ġbags":13080,"Ġsurvivor":13081,"Ġpostponed":13082,"Ġearmarked":13083,"VD":13084,"tor":13085,"Ġts":13086,"Ġbay":13087,"Ġhi":13088,"Ġhed":13089,"ĠCle":13090,"ĠCab":13091,"ĠBra":13092,"Ġunch":13093,"Ġthemes":13094,"Ġrecital":13095,"Ġcivilisation":13096,"Ġemphasises":13097,"Ġdominated":13098,"Ġinsistence":13099,"Ġharassment":13100,"Ġpipeline":13101,"Ġkilomet":13102,"fig":13103,"oi":13104,"oft":13105,"Ġvers":13106,"Ġorchest":13107,"Ġabort":13108,"Ġunified":13109,"Ġcourses":13110,"Ġadvise":13111,"Ġcampus":13112,"Ġaudition":13113,"ĠAdams":13114,"Ġ2015":13115,"ijuana":13116,"Ġzones":13117,"Ġpunches":13118,"Ġreactions":13119,"Ġinspiration":13120,"ustainable":13121,"Ġseal":13122,"ĠBri":13123,"third":13124,"Ġlied":13125,"Ġportal":13126,"Ġrailroad":13127,"Ġquantitative":13128,"ĠDaisy":13129,"Yesterday":13130,"Ġaccusations":13131,"Ġoverseas":13132,"Sad":13133,"Women":13134,"Ġpills":13135,"Ġbee":13136,"ĠCanc":13137,"Ġconjunction":13138,"Ġvoy":13139,"Ġpassport":13140,"Ġbuilds":13141,"Ġbalcon":13142,"Ġskilled":13143,"Ġexpressly":13144,"Ġjudiciary":13145,"Ġwaitress":13146,"Ġabolish":13147,"Ġsympathetic":13148,"Ġwarriors":13149,"Turkey":13150,"ĠDistrict":13151,"LT":13152,"Red":13153,"iless":13154,"Ġlamp":13155,"ĠBishop":13156,"rying":13157,"Ġincorrect":13158,"Ġmonk":13159,"Ġinflic":13160,"Ġdepicts":13161,"Ġswamp":13162,"Ġbarrel":13163,"Ġemphasize":13164,"Ġstores":13165,"ĠMilosevic":13166,"Ġdismisses":13167,"Ġcontinuity":13168,"Ġdilem":13169,"NP":13170,"iac":13171,"etition":13172,"ummy":13173,"Ġrally":13174,"ĠFlynn":13175,"ĠKan":13176,"kett":13177,"Ġapproving":13178,"Ġearned":13179,"ĠDelhi":13180,"Ġtrailer":13181,"ALE":13182,"ĠAdministration":13183,"Ġchocolate":13184,"arettes":13185,"ĠEcofin":13186,"Six":13187,"oons":13188,"rors":13189,"tte":13190,"Ġtub":13191,"Ġtables":13192,"inos":13193,"eron":13194,"Ġdeeds":13195,"ĠTob":13196,"ĠLing":13197,"Ġlia":13198,"Ġunle":13199,"ĠNam":13200,"ogy":13201,"Ġmarking":13202,"ĠShiva":13203,"laims":13204,"Ġhearings":13205,"Ġassumption":13206,"Ġlaughs":13207,"Anyone":13208,"ĠCaroline":13209,"Ġanalyse":13210,"Ġinstallations":13211,"ĠRunner":13212,"Ġfarewell":13213,"Bes":13214,"bus":13215,"Ġtiger":13216,"ĠPy":13217,"igration":13218,"ĠNelson":13219,"Ġregrets":13220,"Ġglim":13221,"ĠRussell":13222,"Ġterrified":13223,"Ġacquaint":13224,"ĠCaucasus":13225,"MB":13226,"Ġyellow":13227,"usa":13228,"ĠBi":13229,"oding":13230,"Ġcounting":13231,"Ġinfo":13232,"ĠChristopher":13233,"Ġhorrible":13234,"Ġlawn":13235,"Ġaltogether":13236,"ĠIngleth":13237,"Ġprejudice":13238,"rection":13239,"itter":13240,"Ġmast":13241,"ĠCher":13242,"Ġstair":13243,"illon":13244,"ĠRet":13245,"Ġjet":13246,"Ġcancel":13247,"neg":13248,"Ġpersist":13249,"Ġmeasured":13250,"retion":13251,"Ġflirt":13252,"plete":13253,"Ġthirdly":13254,"Ġhypocris":13255,"Ġintolerable":13256,"Ġgesture":13257,"Ġconspiracy":13258,"Mark":13259,"ski":13260,"Ãł":13261,"Ġtender":13262,"Ġleague":13263,"oca":13264,"Ġdisin":13265,"Ġmankind":13266,"weet":13267,"Ġblocking":13268,"Ġdepression":13269,"Ġadministrations":13270,"Ġrebuild":13271,"Ġmerits":13272,"ĠBernard":13273,"ĠIMF":13274,"ĠBoston":13275,"fold":13276,"ĠCec":13277,"irk":13278,"ĠSister":13279,"Ġcomitology":13280,"ĠLen":13281,"veloped":13282,"Ġobey":13283,"Ġcarriage":13284,"Ġbehave":13285,"Ġcleared":13286,"Ġmentor":13287,"Ġblowing":13288,"Ġbeliefs":13289,"ĠNorway":13290,"Ġrecruits":13291,"Ġfurniture":13292,"Ġvault":13293,"Ġcoup":13294,"Ġtrash":13295,"Ġlegacy":13296,"ricia":13297,"Ġimminent":13298,"Ġforming":13299,"Ġcirculation":13300,"ĠBenjamin":13301,"Ġlimitations":13302,"Ġpragmatic":13303,");":13304,"Vice":13305,"oa":13306,"rus":13307,"vol":13308,"Ġtense":13309,"Ġpunch":13310,"ulsion":13311,"ĠDaphne":13312,"ĠLil":13313,"Ġcomputers":13314,"Ġfilming":13315,"oeuv":13316,"Ġabandons":13317,"ĠCorb":13318,"Ġbillions":13319,"Ġvegetables":13320,"Ġhungry":13321,"Ġvengeance":13322,"Ġabruptly":13323,"Ġflesh":13324,"24":13325,"Near":13326,"loyd":13327,"oma":13328,"ourhood":13329,"ĠWang":13330,"Ġaddict":13331,"Ġdeputy":13332,"Ġsuppose":13333,"ĠAnjali":13334,"Ġclassification":13335,"Ġrequesting":13336,"venth":13337,"ĠCenter":13338,"Ġpopularity":13339,"Ġconsolidated":13340,"Ġhouseholds":13341,"Ġspectrum":13342,"Ġcigarettes":13343,"Ġsympt":13344,"ĠInglethorp":13345,"ais":13346,"ded":13347,"alistic":13348,"Ġdock":13349,"ilton":13350,"Ġdeemed":13351,"ĠTit":13352,"ĠOcean":13353,"Ġfailures":13354,"Ġdrastic":13355,"ĠReview":13356,"headed":13357,"Ġheaven":13358,"ĠJuliet":13359,"ĠHamas":13360,"rishnan":13361,"speed":13362,"Against":13363,"ĠChancellor":13364,"iences":13365,"enders":13366,"ĠArea":13367,"ĠGwen":13368,"Ġafterward":13369,"ĠVenez":13370,"ĠInst":13371,"Ġpatents":13372,"Ġignor":13373,"Ġinspectors":13374,"ĠAllen":13375,"Ġadvertise":13376,"ĠVenice":13377,"Outside":13378,"Ġconvenience":13379,"zens":13380,"Ġtart":13381,"rem":13382,"Ġbother":13383,"avier":13384,"Ġcoex":13385,"Ġdefends":13386,"Ġprofitable":13387,"Ġengages":13388,"Ġparliamentarians":13389,"Ġportion":13390,"Ġappreciated":13391,"Ġblown":13392,"ĠTechn":13393,"Ġelimination":13394,"Ġboundaries":13395,"ĠSerbian":13396,"Ġtolerate":13397,"Ġprivileged":13398,"ipheral":13399,"ĠNordic":13400,"Ġdisproportion":13401,")]":13402,"aunch":13403,"parent":13404,"hee":13405,"Ġinherent":13406,"Ġuseless":13407,"antom":13408,"ĠJere":13409,"apore":13410,"Ġpreference":13411,"anka":13412,"Ġelectrical":13413,"ĠProcess":13414,"Ġclosest":13415,"iji":13416,"Ġcriticise":13417,"Ġenhancing":13418,"html":13419,"nu":13420,"Ġsights":13421,"arms":13422,"Ġarena":13423,"ĠFif":13424,"Ġapprehend":13425,"Ġblade":13426,"Ġobjection":13427,"Ġbullets":13428,"ĠBook":13429,"Ġemotions":13430,"Ġliterature":13431,"Ġhenchman":13432,"ĠGuinea":13433,"Gu":13434,"Jud":13435,"path":13436,"yles":13437,"Ġcord":13438,"Ġcripp":13439,"Ġpile":13440,"icious":13441,"Ġintimate":13442,"Ġcomposed":13443,"Ġintermedi":13444,"nai":13445,"Ġdeclaring":13446,"Ġindependently":13447,"Ġcondemnation":13448,"Ġvigilant":13449,"Ġhypocrisy":13450,"Fred":13451,"Whether":13452,"elect":13453,"Ġber":13454,"Ġprolong":13455,"ansas":13456,"ĠNep":13457,"Ġcompound":13458,"ĠCha":13459,"Ġreproductive":13460,"Ġbrothel":13461,"Ġlovely":13462,"Ġreviews":13463,"glas":13464,"rella":13465,"Ġmotivated":13466,"Ġperceived":13467,"world":13468,"Ġsar":13469,"Ġtooth":13470,"ĠMann":13471,"Ġassemb":13472,"ĠPut":13473,"ĠRol":13474,"ĠGran":13475,"luded":13476,"ĠMarco":13477,"Ġpreservation":13478,"Ġbananas":13479,"ĠJanet":13480,"Ġsuitcase":13481,"Ġdeliberations":13482,"Ġexpanding":13483,"Ġaltar":13484,"ĠEPA":13485,"elieving":13486,"ĠCindy":13487,"Ġinheritance":13488,"La":13489,"oline":13490,"ĠRena":13491,"ĠGor":13492,"ĠTweety":13493,"ĠLance":13494,"Ġplun":13495,"erences":13496,"Ġunh":13497,"Ġawful":13498,"Ġsmiles":13499,"Ġmoderate":13500,"Ġrepeating":13501,"ĠPhilipp":13502,"Ġdynamite":13503,"Ġmultinationals":13504,"Ġarrogant":13505,"jin":13506,"uo":13507,"upon":13508,"Ġtoile":13509,"Ġproport":13510,"Ġintri":13511,"ieval":13512,"Ġdecomm":13513,"Ġbackdrop":13514,"ahan":13515,"Ġbrid":13516,"ixon":13517,"Ġregulating":13518,"Ġrestriction":13519,"ĠMadh":13520,"Ġderogation":13521,"Ġingredients":13522,"Mo":13523,"Ġtons":13524,"Ġtends":13525,"Ġdances":13526,"amous":13527,"ĠTuesday":13528,"ĠDG":13529,"ĠNews":13530,"Ġskull":13531,"Ġmomentum":13532,"Ġresolute":13533,"Ġreminding":13534,"Ġoccurring":13535,"Ġpriorit":13536,"Ġquantities":13537,"Ġreliability":13538,"Ġlicences":13539,"ĠErika":13540,"Ġmasked":13541,"rakash":13542,"je":13543,"ranging":13544,"alin":13545,"istoc":13546,"ĠDrake":13547,"acker":13548,"Ġdragged":13549,"Ġmotives":13550,"Ġsubstantive":13551,"Ġfaithful":13552,"Ġculmin":13553,"Ġchapters":13554,"Ġprivilege":13555,"Ġmistakenly":13556,"Steve":13557,"Ġallegations":13558,"Ġtongue":13559,"ĠNeighbourhood":13560,"piece":13561,"atches":13562,"ambers":13563,"ĠSang":13564,"Ġsupr":13565,"anton":13566,"Ġsegment":13567,"ĠDh":13568,"ĠChile":13569,"Ġactivists":13570,"ĠBritt":13571,"ĠWalker":13572,"Ġmaxim":13573,"ĠVerts":13574,"ĠBalkan":13575,"ĠAcadem":13576,"Ġinequality":13577,"Ġtariffs":13578,"Ġprotagonist":13579,"Ġdrought":13580,"urg":13581,"ĠBull":13582,"ĠFo":13583,"ogues":13584,"ĠChamp":13585,"neys":13586,"Ġappeals":13587,"ĠZe":13588,"Ġfleets":13589,"Ġexciting":13590,"Ġdamages":13591,"Ġfeaturing":13592,"Ġforbidden":13593,"Ġowes":13594,"23":13595,"bow":13596,"dor":13597,"Ġbite":13598,"storm":13599,"Ġprophe":13600,"ĠRan":13601,"ĠJai":13602,"thal":13603,"ĠHorn":13604,"Ġsupportive":13605,"Ġsuccesses":13606,"Ġcharter":13607,"ĠSwiss":13608,"Ġcelebr":13609,"Ġprecious":13610,"Ġreassure":13611,"CNS":13612,"Ġfoss":13613,"Ġdwell":13614,"Ġgaps":13615,"Ġstir":13616,"rome":13617,"Ġcomr":13618,"ects":13619,"Ġmanoeuv":13620,"ĠWendy":13621,"Ġevol":13622,"neath":13623,"Ġformation":13624,"Ġrecognising":13625,"Ġwalked":13626,"Ġdevise":13627,"Ġcrosses":13628,"Ġdefinite":13629,"Ġineffective":13630,"Richard":13631,"Leg":13632,"vable":13633,"erce":13634,"Ġmit":13635,"Ġmud":13636,"ulously":13637,"emen":13638,"Ġreserved":13639,"Ġunderlined":13640,"ĠBruno":13641,"ECD":13642,"Ġcellar":13643,"Time":13644,"Ġgy":13645,"Ġwhist":13646,"ĠPop":13647,"Ġoffensive":13648,"Ġcarrier":13649,"Ġprotects":13650,"workers":13651,"ĠAmb":13652,"Ġweakened":13653,"Ġreunites":13654,"ĠCFSP":13655,"Ġunequiv":13656,"Good":13657,"Phil":13658,"lause":13659,"tail":13660,"osity":13661,"Ġshifts":13662,"Ġcontemporary":13663,"Ġimperson":13664,"Ġcrashing":13665,"Ġrefund":13666,"Ġbush":13667,"Ġunderstandable":13668,"Ġstepped":13669,"Ġlinking":13670,"Ġworthwhile":13671,"Ġhypnot":13672,"Ġresorts":13673,"ĠWallace":13674,"Ġwheelchair":13675,"Ġincapable":13676,"Li":13677,"dri":13678,"aders":13679,"Ġweird":13680,"ĠPeggy":13681,"acts":13682,"Ġdemons":13683,"Ġmotive":13684,"lett":13685,"ĠRichie":13686,"Ġdiplomacy":13687,"Ġrevolutionary":13688,"ĠNikki":13689,"Ġunsatisfactory":13690,"Ġolive":13691,"Ġlun":13692,"ateur":13693,"ĠGro":13694,"agar":13695,"urned":13696,"Ġfinishing":13697,"Ġsynd":13698,"Ġ600":13699,"Ġhospitals":13700,"ĠDanube":13701,"ĠOrder":13702,"rawl":13703,"aniel":13704,"Ġsimplifying":13705,"Ġcopyright":13706,"ĠPerspective":13707,"etermination":13708,"Robert":13709,"Ġutterly":13710,"Ġmonastery":13711,";#":13712,"Ġbites":13713,"Ġpending":13714,"utory":13715,"Ġhaul":13716,"ĠPow":13717,"Ġbutter":13718,"ĠKash":13719,"Ġrarely":13720,"Ġhandc":13721,"Ġminors":13722,"Ġadmin":13723,"Ġparach":13724,"Ġwrath":13725,"China":13726,"ĠClar":13727,"ĠBroad":13728,"ĠMonti":13729,"Ġaccomplished":13730,"Ġdismissed":13731,"Ġacknowledges":13732,"Ġhumiliated":13733,"Cla":13734,"iya":13735,"pers":13736,"post":13737,"tar":13738,"Ġft":13739,"istically":13740,"ĠRem":13741,"Ġrude":13742,"through":13743,"Ġprisons":13744,"luding":13745,"Ann":13746,"Ġattracts":13747,"Ġadvocated":13748,"Ġfiancee":13749,"Ġcottage":13750,"Nothing":13751,"have":13752,"Ġrede":13753,"ĠEun":13754,"livan":13755,"ĠFay":13756,"ovak":13757,"ĠShiv":13758,"Ġvari":13759,"Ġdestiny":13760,"Anna":13761,"Ġparticipated":13762,"Ġselfish":13763,"Ġquarrel":13764,"Ġbursts":13765,"Ġparadox":13766,"Ġwerewolf":13767,"Ġmagnificent":13768,"Ġwet":13769,"ĠCody":13770,"ĠMason":13771,"ĠImp":13772,"ĠBour":13773,"Ġunderpin":13774,"lude":13775,"ĠPeters":13776,"Accordingly":13777,"Ġwarrior":13778,"Ġmunicip":13779,"Ġroommate":13780,"Sarah":13781,"Ġsupran":13782,"Person":13783,"zi":13784,"roots":13785,"asa":13786,"ĠMich":13787,"illusion":13788,"acities":13789,"Ġseized":13790,"ĠBah":13791,"ĠBunny":13792,"Ġrice":13793,"ĠGib":13794,"ĠStr":13795,"Ġadvised":13796,"Ġ38":13797,"Ġcostly":13798,"Ġpatron":13799,"ĠWhit":13800,"iciencies":13801,"Ġrapes":13802,"Ġsubsidy":13803,"Ġversions":13804,"Ġashamed":13805,"ĠNigeria":13806,"45":13807,"bel":13808,"Ġcad":13809,"Ġbol":13810,"Ġanonymous":13811,"ustoms":13812,"ĠDomin":13813,"Ġdissem":13814,"hess":13815,"Ġinfat":13816,"Ġmeteor":13817,"azy":13818,"insky":13819,"ĠSpace":13820,"Ġappropriately":13821,"Ġinfluenced":13822,"Ġhumili":13823,"Ġinsisted":13824,"Ġaccomplish":13825,"Ġpluralism":13826,")).":13827,"jana":13828,"Ġtilt":13829,"atters":13830,"Ġlor":13831,"Ġgroom":13832,"opoul":13833,"Ġchur":13834,"Ġaristoc":13835,"ĠOk":13836,"ribution":13837,"Ġharbor":13838,"Ġabandoning":13839,"ĠSuperman":13840,"IM":13841,"top":13842,"Ġnons":13843,"Ġalign":13844,"ĠPerry":13845,"ĠGh":13846,"ĠLogan":13847,"asting":13848,"velope":13849,"ĠOther":13850,"Alice":13851,"Ġliveli":13852,"load":13853,"ĠAndrea":13854,"Ġinstructs":13855,"Ġprohibited":13856,"Ġgarbage":13857,"bound":13858,"Ġeleg":13859,"idget":13860,"terror":13861,"coni":13862,"Ġarisen":13863,"ĠOut":13864,"ĠMarian":13865,"itherto":13866,"isticated":13867,"Ġfearing":13868,"Ġdefinitions":13869,"Ġverd":13870,"ĠDonna":13871,"Ġculp":13872,"Ġnarrowly":13873,"Ġtactics":13874,"ĠMadeira":13875,"Ġdecommission":13876,"Roy":13877,"rez":13878,"Ġsink":13879,"Ġbone":13880,"Ġhabits":13881,"ĠStella":13882,"Ġdrain":13883,"ĠFronte":13884,"Ġ47":13885,"month":13886,"ĠAllison":13887,"Ġvirtual":13888,"Ġtranslated":13889,"Ġexhausted":13890,"Ġgreeted":13891,"Ġlesbian":13892,"ĠFrontex":13893,"far":13894,"Ġster":13895,"Ġsticks":13896,"Ġuniverse":13897,"Ġracing":13898,
[...]
