#version: 0.2 - Trained by `huggingface/tokenizers`
Ġ t
h e
Ġ a
i n
Ġt he
r e
o n
i s
a t
Ġ w
Ġ s
e r
e n
Ġ o
n d
i t
Ġ c
Ġ b
e s
Ġt o
Ġ f
o r
Ġ p
a n
Ġo f
Ġ in
in g
Ġa nd
a l
Ġ h
a r
e d
i on
o u
Ġ m
Ġt h
Ġ d
r o
i c
l e
Ġ ,
en t
Ġ re
a s
o m
Ġ .
Ġ n
Ġ is
i l
Ġb e
v e
Ġth at
s t
l y
Ġ e
c t
Ġ l
Ġ g
i m
o t
u t
Ġ on
Ġ he
Ġf or
i d
u r
s e
Ġw h
at ion
e t
Ġ C
o l
a m
c e
p e
o w
Ġ u
r i
it h
v er
a d
Ġw ith
i r
Ġ M
Ġw e
Ġa s
Ġ it
Ġs t
Ġp ro
Ġc on
Ġ E
a y
Ġa l
T he
g h
m ent
Ġ Ċ
Ġ S
Ġd e
u l
il l
t er
c h
or t
l d
r a
Ġh a
Ġ P
re s
Ġa re
Ġa n
he r
a k
Ġ I
Ġ '
Ġh is
Ġth is
Ġb y
at e
Ġn ot
om m
i f
Ġs u
Ġ y
p p
Ġa t
Ġn e
e m
Ġha ve
o s
e l
ou ld
o p
er s
es s
en d
u ro
Ġ A
ic h
Ġs h
an t
g e
l i
a in
it y
o re
a c
u s
Ġe x
Ġs e
i ve
n t
uro pe
b le
ĠE urope
Ġhe r
Ġ v
Ġwh ich
Ġh as
u st
ar t
gh t
Ġ le
es t
u n
q u
ro m
o c
Ġ B
s ion
i es
Ġ k
a nd
o d
i v
Ġw ill
Ġc om
u m
Ġb ut
Ġf rom
is t
ĠC omm
Ġin t
Ġy ou
Ġwh o
i e
p ort
Ġ im
ĠEurope an
i al
Ġa g
Ġ R
u re
Ġ r
ar d
Ġd o
al l
Ġh im
Ġo r
Ġal l
Ġw he
e ct
Ġ G
Ġ T
Ġg o
ou t
u d
Ġ en
Ġthe y
Ġ D
Ġre s
Ġc h
is sion
t her
Ġw or
f f
Ġw as
om e
b er
Ġm e
r ou
i g
al ly
Ġ j
Ġ -
Ġa b
Ġthe ir
ion s
Ġ J
p t
Ġc ou
Ġ L
k e
s o
Ġc an
t h
Ġo ut
Ġ H
ĠComm ission
r y
ou s
in d
id ent
ac k
Ġ U
' s
ak e
a b
Ġp l
Ġa d
Ġal so
Ġp ol
Ġthe re
Ġu p
ĠS t
Ġw ould
i re
Ġ F
Ġd is
ver y
Ġs he
at es
Ġp art
a u
Ġcon t
Ġa c
a re
p l
u e
e re
a g
an s
as t
Ġl i
on g
re e
Ġu n
Ġbe en
Ġs o
ation s
Ġm an
ĠM r
on e
Ġt r
T h
ic e
Ġbe c
Ġ N
id e
ou r
Ġa m
Ġcom p
Ġthe m
an ce
o st
im e
Ġsh ould
ul t
re at
k s
Ġf a
Ġon e
ar y
a p
ve l
Ġ 1
ĠP res
Ġre g
ĠU n
e ar
am ent
Ġ K
c on
Ġo ur
is h
W e
Ġint o
a ge
l l
r u
a ble
Ġm ust
i z
Ġo ther
c ess
Ġab out
i p
ar li
I n
Ġ qu
Ġm ore
am e
Ġu s
i a
pp ort
o se
el l
or m
Ġin c
i ght
f ter
ic al
d u
ment s
ĠPres ident
Ġli ke
n c
Ġcou nt
it t
Ġwor k
Ġc omm
i le
ri es
Ġa r
0 0
Ġ W
I t
Ġp re
Ġc l
Ġ ri
f ore
Ġa ct
n ow
Ġe v
Ġwhe n
at ed
in e
arli ament
a v
em ber
Ġp e
Ġit s
p er
o g
e e
res s
Ġa pp
o in
Ġ 2
en s
p os
Ġat t
en ce
Ġne ed
i ous
Ġof f
Ġre port
Ġde c
Ġl o
w n
Ġne w
ĠUn ion
it ion
Ġt ime
an c
au se
s i
Ġc o
Ġm ar
an g
se l
ad e
nd er
Ġwh at
o y
Ġon ly
Ġcon s
Ġ ro
Ġim p
a ch
ĠP arliament
Ġri ght
e ver
Ġk now
Ġy ear
f orm
Ġp os
Ġbe t
ur n
o b
Ġ very
pe ct
ĠSt ates
o k
is e
as e
Ġ ra
ou nc
Ġo ver
Ġag ain
Ġg et
u b
op le
Ġn o
ig n
Ġt w
Ġcon c
Ġs a
Ġre c
Ġth an
Ġt ak
Ġf in
H e
Ġ if
Ġs ome
ĠM ember
or d
g et
Ġm y
Ġu nder
Ġt e
j ect
Th is
Ġim port
oin t
ter n
ĠE U
en c
a ce
Ġf ind
ation al
iv es
Ġwhe re
v es
ĠC h
Ġthe se
ounc il
Ġ `
Ġpe ople
l ic
ĠC ouncil
n g
Ġbec ause
ay s
Ġthe n
it e
ow ever
g r
ir st
Ġin v
Ġc r
in k
Ġh ad
ut ion
Ġe m
Ġn ow
Ġj ust
Ġpro pos
Ġs pe
Ġs c
Ġ i
ing s
Ġan y
ct ion
Ġs p
w e
it ies
Ġin d
n e
Ġ' '
he n
er m
il d
Ġtw o
if e
as s
Ġs er
Â ł
Ġpol ic
Ġ` `
at her
Ġp r
i an
vel op
Ġa fter
Ġt ake
Ġbe ing
at er
Ġo b
Ġdis c
ot her
Ġe ff
Ġt ra
Ġ V
e p
or y
v ing
al s
Ġb ack
Ġm ake
â Ģ
Ġac c
ou se
Ġf e
Ġcount ries
d er
x t
l ow
a ct
il ity
Ġsu pport
u nd
il y
ic k
Ġse e
if f
Ġin st
at ing
u res
v ed
con om
Ġ O
li e
Ġw ant
Ġ end
Ġf irst
er n
ul ar
Ġde velop
Ġwe re
ow n
Ġp er
Ġre l
Ġre m
o ver
ri end
o od
Ġde m
Ġas s
Ġle g
rou p
re d
u c
or s
at h
Ġ (
Ġw ay
we en
Ġimport ant
Ġpart ic
Ġk ill
ic t
ou gh
c ed
f ul
Ġbet ween
t ain
Ġre f
Ġsu b
ot h
u es
sel f
g in
a w
if ic
l ud
rou gh
ol d
p on
ent ion
res ent
am p
A s
Ġbe lie
Ġdo es
le ar
Ġis s
Ġtr ans
i gh
k et
Ġre al
at ive
w ard
Ġag ree
Ġe conom
Ġp oint
Ġs oc
Ġsu ch
Ġd iff
Ġcon f
Ġwe ll
Ġt ell
ire ct
Ġs ay
Ġth rough
Ġpro v
Ġpolic y
l p
Ġc all
ce pt
Ġre t
he s
Ġo wn
Ġst r
ur ing
Ġfa ct
t e
Ġc ar
m s
Ġ ent
Ġhe lp
Ġa w
Ġo p
Ġth ink
ou nd
ro w
Ġyear s
Ġpol it
M r
un ity
Ġth ose
Ġd es
' t
Ġev en
g y
Ġe very
o v
Ġme et
he d
si ble
u ch
Ġpro ble
ie w
Ġs y
Ġg u
um an
Ġs et
Ġbe fore
Ġpro du
ou nt
Ġm ade
Ġgo od
u al
Ġapp ro
m er
Ġagain st
Ġconc ern
a il
f t
a ir
Ġpartic ular
Ġad d
n ing
Ġf am
Ġres pon
Ġman y
Ġqu est
it s
ub lic
p h
Ġw om
h ing
Ġb as
Ġv ot
d ay
Ġpro t
Ġg reat
Ġwh ile
o ve
it ed
The y
Ġf riend
Ġc lear
an ge
ad y
a j
Ġ1 9
le ct
Ġl ong
Ġinc lud
Ġse c
rou nd
u ally
re n
is ion
Ġb l
Ġre p
Ġmar ket
ur al
enc y
h ip
ar m
c es
a h
ic es
Ġ es
Ġc ol
c ial
Ġin form
Ġs ame
itt ee
H owever
Ġf il
t s
Ġb oth
in ce
on s
Ġd own
i ed
Ġh ow
Ġm on
m e
Ġbelie ve
Ġs it
Ġd irect
b ers
Ġh uman
Ġright s
Ġc ould
Ġa p
Ġde b
k ing
Ġst ill
l ed
Ġm ost
t ing
Ġm ak
st em
ol low
Ġcont in
Ġpolit ical
W h
W hen
Ġ2 00
Ġl ife
Ġto o
Ġc a
Ġch ild
en e
r ic
Ġre qu
Ġex t
Ġg roup
gr am
Ġde f
Ġs m
Ġm uch
ut h
ra ct
The re
Ġthere fore
Ġor der
t y
is ed
ri b
u ation
l es
Ġle ad
Ġf und
ter s
r it
Ġb r
Ġeconom ic
Ġu se
or k
Ġp ut
Ġsy stem
Ġret urn
Ġbe h
e c
Ġin tern
S he
en er
Ġst art
Ġcou r
ar ge
Ġreg ard
le ment
Ġin ter
Ġfil m
id es
Ġf ollow
Ġex p
ar s
A fter
ent s
t ed
Ġp ers
Ġbe gin
Ġsoc ial
is m
o pe
Ġwor ld
Ġprot ect
Ġha nd
pl oy
g an
Ġsh ow
ere st
Ġf ather
Ġl ast
Ġsa id
an k
Ġm at
Ġcount ry
er tain
iv en
Ġfin anc
Ġin s
Ġpro m
a ve
l and
em bers
Ġh ome
Ġen s
Ġ The
Ġhe re
ar n
Ġc ur
Ġp ublic
Ġb o
Ġb ro
Ġs ur
ere d
Ġinc re
Ġf r
Ġeff ect
Ġpro gram
a x
o h
g g
Ġp ri
Ġyou ng
Ġcons id
it iz
Ġint erest
Ġres ult
er ation
ate ly
ir l
Ġh igh
et y
Ġme as
one y
Ġfam ily
Ġpropos al
Ġl oc
Ġ Y
Ġf ut
con d
ud get
Ġm ay
Ġv iew
Ġne xt
Ġd ay
Ġyou r
Ġquest ion
Ġsit uation
n ment
Ġpl an
Ġha pp
al th
om et
Ġfut ure
Ġc itiz
Ġgo ver
ol ution
Ġpl ace
Ġtell s
Ġn um
s s
Ġd ra
em pt
Ġex pl
ut e
in c
Ġb u
R B
ĠCommission er
ir on
Ġh ouse
r at
Ġad op
i ent
Ġpre v
Ġt urn
i b
n er
ru ct
Ġd et
Ġ âĢ
B ut
Ġam end
Ġl aw
Th at
m en
Ġser v
Ġtak en
m an
Ġp resent
Ġf ul
Ġdevelop ment
Ġs ign
O n
n ot
o ol
re t
re nt
Ġiss ue
Ġr un
Ġpl ay
ol og
ver s
Ġre st
Ġn ational
Ġm oney
Ġlo ve
Ġle vel
ĠComm ittee
Ġpos sible
Ġcom e
re ady
L RB
Ġlo ok
Ġa ble
Ġcomp et
ĠI n
in es
Ġf l
Ġf all
Ġsu c
Ġpro cess
Ġc ase
ul ation
Ġc ertain
Ġh owever
v en
Ġan other
âĢ Ļ
Ġal ready
Ġcitiz ens
Ġdiff ere
Ġu h
Ġth ree
v iron
k ed
ĠM ar
viron ment
Ġs im
Ġt al
Ġwith out
er r
ĠC on
Ġinv ol
Ġst ate
Ġgo ing
ch ie
Ġwith in
Ġm in
Ġfinanc ial
Ġp ow
al f
Ġg ive
Ġst and
Ġt ry
Ġgo es
Ġtak es
Ġg irl
Ġdisc us
Ġb us
si b
e an
Ġaw ay
A t
Ġf ight
Ġc re
Ġcan not
Ġall ow
Ġs omet
Ġm ain
Ġres pect
n ess
is s
Ġto day
Ġdeb ate
Ġre as
ur ity
iv ing
Ġb udget
Ġ est
Ġd id
ist s
Ġo ld
Ġmeas ures
or ity
Ġcour se
Ġco op
u g
re ed
ur ther
Ġa chie
Ġde al
Ġac cept
Ġh ope
Ġinform ation
Ġj ob
Ġle av
Ġare a
Ġm other
Ġd uring
Ġf ar
Ġinv est
od y
ĠMr s
Ġa ff
ĠA r
l ess
as ed
it al
Ġt erm
Ġs ince
Ġfind s
Ġne g
ut ions
e w
Ġg ener
C B
Ġatt empt
Ġar ri
Ġv is
e g
Ġwh y
ct or
Ġimp lement
ri ed
Ġp h
Ġin f
is l
Ġcon st
Ġe ach
in ess
Ġagree ment
n ce
Ġ ;
Ġnum ber
ro l
Ġes c
is ation
ain s
Ġsa f
w ork
Ġhe ad
Ġdem oc
ch n
o ot
l ing
Ġwom en
Ġad v
p r
an y
im in
Ġbec ome
Ġcon d
Ġen vironment
on d
ar ch
ir d
ro ss
e ur
is ter
Ġn ight
Ġhim self
Ġop en
Ġcomm on
Ġa uth
it ions
Ġin it
Ġsm all
Ġbec om
Ġimp ro
Ġc or
Ġrel ations
as h
Ġto get
Ġtoget her
ĠF r
Ġg l
Ġleg isl
Ġm aj
Ġcur rent
ent ly
Ġem ploy
Ġ 3
Ġa v
Ġor gan
y s
Ġpol ice
Ġp ur
ag es
ic ult
Ġde ath
Ġinst it
ĠâĢ ĵ
Ġspe c
ĠS h
Ġha ving
Ġfe w
Ġre ally
Ġg r
ward s
au gh
Ġens ure
pport eur
Ġg iven
Ġob ject
ĠT h
Ġpr inc
Ġcom es
Ġproble ms
Ġproble m
i o
Ġen er
al ity
Ġap pe
Ġme ans
Ġcomp le
ar k
Ġim m
Ġle t
Ġne cess
Ġcoop eration
ill ion
Ġact ion
Ġintern ational
is es
are nt
b y
Ġst ud
ch ool
is on
n a
c c
ee p
Ġfor m
Ġst re
Ġre ve
Ġa id
ĠD e
oc k
amp le
Ġm en
or ities
c k
r on
Ġatt ack
ent ial
at t
im es
n y
Ġchild ren
ĠComm unity
I f
Ġse cond
Ġd ist
Ġdiffere nt
Ġsomet hing
Ġra pporteur
ic ally
Ġre du
Ġfe el
Ġcon v
it ive
are d
Ġener gy
Ġl ater
ĠA l
us es
Ġex ample
ul es
Ġp ay
ab l
Ġd ri
w h
Ġex per
id ed
Ġse em
Ġwe l
Ġm ed
Ġm od
c ome
Ġp res
Ġsuc cess
a pe
Ġinclud ing
Ġw ife
Ġpers on
ab ility
Âł Âł
Ġf ore
ĠH ouse
st and
Ġo pport
ro du
ĠUn ited
ion al
Ġsec urity
ent le
Ġp ass
Ġwork ing
i k
Ġfa v
Ġb re
Ġc are
in ed
Ġg row
mer ic
g ed
Ġbus iness
Ġs chool
Ġus ed
Ġleg al
Ġrep resent
Ġget s
Ġfriend s
g es
Ġg entle
Ġac cess
ot i
Ġte chn
Ġconsid er
Ġf urther
Ġ2 0
Ġv al
ard s
th ing
ĠA m
is ing
Ġen c
Ġe qu
ad ies
Ġhe alth
reat y
Ġre v
ant s
Ġon ce
Ġc ent
Ġvot e
i x
Ġs ol
Ġdiff icult
Ġbet ter
al e
Ġu nt
itt le
in a
Ġo per
Ġiss ues
Ġpos ition
Ġind ust
u p
Ġrequ ire
Ġa round
as es
p le
sel ves
Ġparticular ly
Ġc ost
Ġprotect ion
Ġpow er
Ġeff ort
Ġwhe ther
Ġs on
Ġcol le
Ġt ries
Ġnecess ary
Ġc he
Ġm et
e ad
Ġgentle men
Ġe lect
Ġmak es
Ġacc ount
e y
Ġmat ter
ra c
w ays
Ġneg oti
Ġth ings
Ġso on
Ġad m
Ġest abl
Ġwor d
ĠA meric
Ġ19 9
Ġl arge
Ġb oy
t ic
Ġch ange
Ġf ound
Ġst ory
li ght
Ġde p
a z
Ġp ract
Ġcont rol
l us
Ġne ver
Ġd one
g ress
Ġcons um
Ġstr ate
Ġro le
Ġw ar
ie ld
Ġn ame
Ġloc al
ou ra
Ġ ide
Ġpre p
Ġle ave
r ation
Ġ :
Ġprodu ct
end s
Ġf ree
Ġs ing
Ġto wn
Ġneed s
Ġm ur
t he
Ġk eep
Ġsu pp
Ġdirect ive
Ġare as
augh ter
im s
in s
am ed
ad am
Ġre ce
sib ility
Ġdec ision
Ġserv ices
Ġser ious
Ġspe ak
Ġwho le
Ġmak ing
st er
Ġbr ing
anc es
Ġw ish
Ġc ap
Ġfa il
Ġcr it
ĠP ro
Ġv i
Ġcontin ue
Ġwom an
d en
s ide
t en
Ġm ove
Ġunt il
Ġv ar
Ġf ac
F or
Ġb est
li g
Ġreal iz
Ġbecom es
th ough
Ġspec ific
Ġreas on
ĠA n
Ġtak ing
ap s
W ith
Ġpro ced
Ġl ittle
Ġprom ot
Ġst ep
our ces
Ġdisc over
i er
Ġg ra
is hed
if ied
id ency
Ġto wards
Ġl ess
Ġch ar
Ġse ctor
Ġas k
Ġkill ed
Ġbegin s
e ed
Ġoff ic
Ġpro ject
Ġd est
ar ing
Ġtra in
uc k
ĠG roup
Ġme an
end ing
Ġop in
ĠT reaty
Ġl adies
is ions
Ġt ax
air s
Ġal ong
g er
Ġcont rib
Ġres olution
Ġb ene
c om
p s
Ġterm s
il it
Ġch ang
Ġbre ak
on t
Ġsub ject
Ġ ur
Ġev ent
Ġal ways
Ġr ules
Ġ 5
ame work
Ġbu ild
Ġe l
Ġn at
Ġinit i
Ġre se
Ġgover nment
Ġbas is
e ah
ab ly
Ġd r
Ġpro gress
Ġint rodu
Ġc reat
Ġbeh alf
Ġbro ther
Ġthan k
ic s
le g
oh n
Ġle arn
er v
i ble
Ġp o
e k
Ġdem and
at ch
Ġtr ade
ort h
a i
if y
Ġamend ments
og n
Ġ ed
Ġvi ol
Ġd aughter
r al
Ġp ar
Ġs w
r ist
Ġsu ff
ĠI t
Ġre form
Ġeffect ive
pe cial
i ety
Ġro om
Ġa ir
Ġle ft
Ġpro f
Ġcl ose
in ation
Ġse ver
Ġhapp en
i ence
Ġ 4
Ġpropos als
ult ural
Ġo cc
er ing
Ġunder stand
Ġfin ally
is is
ere nce
ress ed
ĠM embers
Ġdec ides
Ġp op
Ġbene f
\ /
Ġappro ach
Ġsh ort
t o
Ġre ad
Wh ile
Ġde ad
u nt
Ġrec ogn
Ġprogram me
m y
Ġleav es
Ġsever al
Ġm embers
Ġt ri
Wh at
Ġcr isis
Ġd on
Ġth ough
err or
e x
Ġact iv
as ing
ure d
Ġk ind
wh ile
Ġmon th
Ġfav our
Ġan n
Ġadop ted
Ġdiscus s
O ne
Ġconcern ed
se qu
it ing
Ġs ays
Ġr ather
or n
en se
Ġst op
Ġ Z
us ed
l a
p ri
Ġex ist
reed om
Ġcomm un
Ġstr ong
Ġl ab
im ate
Ġm illion
ĠS p
h a
le y
Ġf le
Ġwant s
Ġm ention
o on
Ġprov ide
Ġfor ward
Ġw r
Ġr is
A l
Ġact ually
t on
Ġprinc ip
Ġpe ace
Ġlegisl ation
g u
at ives
Ġo pp
enc es
Ġth ird
ĠI s
Ġfr amework
Ġopin ion
Ġfin al
Ġful l
ĠR us
pecial ly
ĠSt ate
Ġd i
Ġopport unity
T o
ish ing
Ġp ast
f ort
Ġf ood
Ġp le
Ġtrans port
ce ed
f riend
s p
os s
Ġg ives
over nment
id ing
Ġother s
s w
rat ic
u se
Ġrem ain
Ġne ar
Ġachie ve
Ġinvol ved
n ers
Ġth reat
Ġimpro ve
Ġas ks
Ġf our
Ġcomm it
Ġes pecially
Ġn amed
pp ed
ar ant
Ġm or
Ġrelations hip
Ġl and
ĠM in
Ġre le
Ġinstit utions
Ġman age
Ġit self
e f
Ġcall ed
00 0
ke y
id ence
rac y
Ġm ot
Ġvar ious
i od
en sion
Ġass ist
Ġv ill
Ġl ive
Ġsu m
ob al
Ġle ast
el s
Ġgener al
Ġwel come
Ġ ess
Ġs ent
ĠN ew
Ġj oin
i um
Ġf reedom
l er
b and
he re
ir m
iz ed
i res
ou ght
Ġfollow ing
ĠT ur
an e
p ite
ur y
re st
Ġb ody
A n
m es
Ġt reat
e gr
Ġqu ite
ament al
a id
Ġy et
ĠS e
Ġatt ention
iv il
it her
Ġm ight
ĠI nd
Ġag ric
ĠG erm
Ġt error
un g
Ġen ough
Ġcom b
an n
Ġ ident
Ġm om
all en
Ġauth orities
at s
Ġbeh ind
Ġgu arant
Ġadd ition
u ge
Ġbas ed
itt ed
Ġl im
st it
Ġmeet s
Ġres ources
Ġfor ce
Ġh old
Ġesc ape
Ġcond itions
Ġse en
Ġd ue
Ġreturn s
Ġam ong
Ġmeet ing
Ġprev ent
Ġl ives
Ġrese arch
Ġmaj or
it or
Ġfa ce
Ġt ie
i ans
Ġint egr
end ed
u le
Ġtry ing
ĠS c
Ġpart y
ĠJ ohn
Ġex pect
Ġo ri
Ġthem selves
Ġincre ase
ean while
i ation
Ġext re
Ġab s
Ġtr ue
Ġpropos ed
s h
Ġw ater
out h
Ġqu ick
Ġse x
ra ph
Ġp ress
Ġprincip le
A nd
Ġw rit
ĠA f
Ġfall s
Ġsh all
us band
Ġcomple te
Ġch allen
Ġclear ly
Ġsaf ety
Ġl ist
Ġemploy ment
Ġdo ing
M eanwhile
Ġpro per
Ġte xt
ire d
iv id
o o
m ost
ĠP ol
pl es
Ġp at
Ġsoc iety
Ġeffort s
Ġw a
Ġindust ry
li es
Ġper form
Ġm o
re en
ic ient
re am
at a
R CB
Ġstre ng
er t
Ġse es
Ġess ential
m b
Ġgover n
Ġpolic ies
ar ity
c hes
Ġgl obal
ful ly
Ġword s
Ġc amp
Ġrespon sibility
Ġcl a
Ġa im
Ġreg ul
os ed
Ġf ield
Ġsh oot
Ġh usband
Ġimport ance
w ay
Ġth ing
Ġper iod
Ġl ot
Ġup on
Ġk id
est s
Ġen g
Ġacc ident
Ġpri v
Ġaw are
Ġto e
Ġb al
ag ed
o e
Ġs k
Ġsing le
ĠA g
Ġf arm
Ġv ict
Ġshow s
Ġevery one
c ing
Ġpoint s
am es
i et
Ġp arent
Ġaff ect
Ġvot ed
ĠPres idency
Ġsu gg
Ġc ity
Ġstrate gy
Ġag o
ult ure
Ġtra vel
ĠL e
Ġsu re
Ġus ing
Ġgreat er
Ġd ou
The se
Ġl iving
Ġan sw
Ġst e
Ġex c
Ġg un
Ġn on
ed i
Ġend s
Ġb ig
Ġed uc
Ġent ire
Ġd oc
Ġappro pri
os p
Ġro ad
Ġenvironment al
Ġch o
Ġproduct s
Ġind ivid
ru g
Ġnegoti ations
Ġori gin
Ġte am
Ġh ard
Ġinst ru
Ġb ar
iv ed
Ġextre me
on y
Ġsign ific
Ġof ten
l in
Ġreve al
Ġseem s
ang er
Ġf un
re es
Ġe as
ĠR e
Ġpr ison
Ġsec ret
s pect
ir c
as ter
F in
v ention
Ġw al
st ain
Ġfund amental
Ġs l
b on
Ġs av
Ġout side
ĠB ar
pt ion
ious ly
Ġst at
Ġreg ulation
Ġc ivil
ĠC ar
om b
Ġcolle ag
Ġdiscus sion
Ġnot hing
Ġt y
Ġm ov
Ġmonth s
Ġpos itive
Ġhis t
Ġsay ing
Ġd ays
Ġg ang
p ly
Ġspe cial
Y ou
ap er
Ġcall s
Ġc ut
Ġwork ers
Ġst ruct
Ġinterest s
Ġg ot
Ġeconom y
Ġadop t
r ate
Ġde v
Ġ 6
p or
Ġac ross
ĠL is
c o
y l
ific ation
Ġdoc u
Ġinvest ig
t hen
Ġ ve
at or
Ġfor mer
a ff
Ġcomp an
Ġenc oura
Ġsh ip
m it
S o
Ġen l
Ġattempt s
Ġca pt
Ġincre asing
s ia
Ġarri ves
ĠB l
e es
Ġde li
Ġcompet ition
Ġh on
Ġst ates
Ġav ail
og ue
Ġmom ent
v al
Ġl ow
Ġob s
Ġap art
Ġm ind
Ġwho se
Ġintern al
y ing
ĠB r
Ġan im
ĠB rit
Fin ally
fort un
igh b
e xt
Ġin n
Ġparent s
ot t
ĠH ar
Ġm ilit
Ġtr ad
Ġinst ead
Ġdra w
Ġwh om
Ġreg ions
Ġam b
Ġquick ly
f or
id d
Ġacc ord
Ġevent ually
Ġd rug
Ġturn s
Ġdest ro
er ry
g ing
olog y
Ġsim ply
Ġevery thing
iz e
Ġpart ners
Ġf oc
L CB
Ġt ar
Ġb an
in ist
i or
Ġf ell
Ġide a
Ġdemoc racy
Ġpur s
Ġapp lic
Ġas pect
Ġresult s
Ġt er
Ġc irc
z e
b e
ĠAmeric an
Ġpartic ip
Ġstart s
Ġp ost
Ġl ack
ic ation
ak ing
u ff
Ġl ine
Ġreg ion
ĠCh rist
Ġs ide
us h
Ġimplement ation
Ġrun s
Ġst ay
Ġdemoc ratic
Ġhe art
H is
Ġcre ate
p ose
Ġfund s
Ġconcern s
er al
Ġg round
ution al
ul l
Ġpl ans
il ities
Ġb ord
ro wn
Ġqu ality
' re
om p
Ġdra ft
Ġe le
Ġrec ent
Ġimm edi
Ġquest ions
C h
Ġf is
o le
Ġt imes
Ġdem on
Ġal though
tic le
Ġgrow th
h aps
Ġcomm ittee
ul ate
Ġn et
nc y
Ġne ighb
Ġmov ie
Ġdiscover s
Ġful ly
Ġstreng then
ĠG e
Ġg en
ut es
i ke
Ġ Q
at ic
Ġc red
u ed
Ġsu per
i vers
Ġli ght
Ġrespon sible
Ġget ting
Ġlong er
Ġtrans p
ĠG overnment
itt ing
ant ly
Ġent er
Ġk ey
Ġh arm
Ġe ver
Ġcompan ies
Ġleav ing
at ory
ĠH e
ep end
a pt
Ġor d
Ġreve als
art h
a ur
o f
ĠU S
ĉ ÂłÂł
Ġre ach
Ġstand ards
ĠN o
Ġem ph
Ġextreme ly
Ġto p
Ġproced ure
Ġwe ek
Ġrealiz es
Ġexp ress
lus ion
Ġchang es
Ġimp act
Ġris k
an a
Ġf ire
Ġd ata
U n
Ġ We
ĠP r
Ġj ud
o id
n ect
Ġmur der
s c
us ing
a pp
Ġf ive
p ar
Ġsu stain
ne y
un e
Ġres ol
res sion
Ġre ject
Ġchar act
Ġprodu ction
c ise
Ġrec omm
gr at
Ġp ot
ar a
Ġconf ron
Ġmaj ority
Ġar rest
Ġdec ide
ĠAf ric
el f
Ġavail able
Ġgroup s
Ġa ud
Ġd ial
en n
Ġcon grat
ĠIn tern
Ġdec isions
Ġsh are
our t
Ġdet erm
rou ght
Ġh or
Ġs ister
ĠA ff
Ġcertain ly
a f
Ġc at
s on
ce ll
n ter
ĠEU R
Ġc ru
or ld
Ġw in
ly ing
Ġ 7
Ġmilit ary
ud e
Ġcl ass
Ġtal k
ĠAff airs
Ġmanage ment
Ġsur v
Ġsub st
Ġs olution
Ġrequ est
Ġcr imin
m a
Ġto t
ĠR om
Ġcr ime
ĠS w
Ġh ot
Ġneed ed
ĠI r
Ġprogram mes
Ġp arliament
Ġmor ning
Ġb ur
b s
Ġ1 0
Ġdec l
ĠA d
Ġeduc ation
Ġvis it
as k
pp ing
Ġex am
Ġcomp any
ĠW h
Ġobject ives
Ġass ess
ar ian
ac hed
ar ly
fortun ately
r ict
ĠD r
Ġal most
Ġsc ene
Ġconst it
Ġind eed
Ġam ount
Ġh osp
Ġb ad
Ġemph as
Ġjob s
ren ch
Ġcon sequ
a ul
Ġ ill
ĠT r
D uring
ĠM adam
Ġr ule
Ġmar ried
Ġpl ac
A ll
Ġtar get
y a
ne w
att le
Ġhe ld
Ġbro ad
Ġs old
Ġte le
Ġadd ress
g o
Ġvill age
ĠD an
et s
Ġinclud e
Ġc ases
Ġher self
Ġagree ments
Ġconf lic
a ut
Ġbuild ing
ri age
l o
Ġestabl ish
ĠC ourt
Ġappe ars
ac hes
ĠIt al
Ġsh ot
l t
Ġp ack
ĠLis bon
Ġlook ing
Ġal one
ber t
Ġcost s
h od
Ġcont ext
Ġc e
ĠT om
Ġm iss
Ġprof ess
e v
Ġactiv ities
ist ic
Ġt est
Ġdou b
Ġm ess
Ġt re
ĠF und
ĠJ ack
Ġd anger
Ġas ked
Ġ 8
Ġcl os
ĠS oc
Ġdo or
ĠM on
Ġc ross
Ġk n
M adam
ĠP et
Ġfor ces
Ġev ents
at ors
Ġl ost
Ġh alf
Ġwrit ing
Ġar t
Ġe uro
Ġcurrent ly
Ġco ord
Ġconv in
. .
Ġdial ogue
Ġcomp rom
m ber
Ġdemon st
Ġobject ive
Ġdevelop ing
Ġsystem s
Ġto ld
Ġkill s
o ks
Ġreport s
Ġ 9
ĠA nd
Ġadm inist
ff ice
Ġb rought
) .
Ġf ig
Ġth ought
Ġcar ry
end a
Ġserv ice
Ġbl ack
Ġinf l
Ġab ove
Ġe y
led ge
h ood
li ed
Ġref uses
Ġcom ing
Ġs elf
Ġreg ional
our s
ib ility
Ġamend ment
uc lear
2 0
Ġappropri ate
Ġst ri
Ġiniti ative
Ġagric ultural
Ġd iv
ol l
Ġmention ed
2 00
Ġres c
Ġem er
Ġfor ced
Ġindivid ual
Ġknow n
Ġto ok
ak es
ĠTur key
Ġhosp ital
Ġdes pite
Ġwor ks
Ġreas ons
Ġel se
Ġmain tain
Ġm ult
idd le
Ġre pe
qu e
ĠF rench
Ġw it
Ġp erm
il t
Ġm is
Ġco he
Ġimm ig
F irst
Ġcom pl
Ġf ear
r imin
Ġmar ry
Ġind epend
Ġfa ir
ĠBrit ish
iven ess
Ġm ist
ĠM an
Ġb ri
Ġg iving
Ġcou ple
u k
ab led
Ġun c
ight s
Ġm us
Ġenl arge
en g
ot e
Ġconcern ing
Ġw atch
d ing
Ġact ions
is hes
Ġcl imate
Ġco ver
ive ly
Ġsugg est
ĠK ing
ĠD irect
ĠP al
Ġmat ters
Ġr ad
um p
in ks
Ġfell ow
Ġ20 1
ĠS am
Ġdet ail
Ġesc ap
Ġe ither
ru ction
Ġtrain ing
re g
n ed
le t
Ġfr ont
Ġem b
Ġw ind
E urope
Ġcon nect
Ġhand s
Ġtal king
Ġmet hod
en ed
Ġmur d
ĠR o
ber al
s id
Ġprov ided
S e
ac y
c ent
Ġe arli
Ġsh own
Ġd am
Ġconc lud
Ġsol id
Ġsa ve
Ġfore ign
ĠRus sia
Ġguarant ee
Ġst age
ĠGe or
Ġl ed
Ġ il
Ġan t
y eah
ĠE m
Ġj oint
ot s
Ġdes ign
) ,
ĠAm end
Ġp ort
Ġag rees
Ġst ru
Ġpriv ate
Ġpart ies
Ġmar riage
Ġsignific ant
Ġth us
Ġy eah
ĠE l
d e
Ġany thing
Ġn uclear
et h
k now
i ples
olog ical
Ġ1 5
ic i
Ġp ain
Ġkill ing
Ġmon itor
he ad
Ġenlarge ment
ore d
Ġrev iew
Ġex cell
ĠE d
Ġcomm unity
Ġrec ord
at is
Ġs ens
L et
ĠC l
Ġex ch
Ġper haps
ch an
Ġsp ir
Ġar r
Ġoffic ial
Ġs ix
ĠA ng
u h
ct ions
art y
or ies
ĠW orld
f er
he l
se t
Ġfund ing
re w
Ġoff er
v ent
Ġan al
Ġim pos
am b
Ġoff ers
Ġw on
Ġro b
Ġf oot
Ġoff ice
Ġis land
Ġsc ient
Ġprinc iples
Ġse arch
ĠY ork
Ġil leg
Ġearli er
r ing
er a
du ct
Ġdes c
Ġl a
Ġfollow s
Ġconsum ers
Ġpop ulation
iz ation
ĠR ep
anc ed
Ġcommit ment
Ġref er
L ater
o or
atis f
Ġa ut
Ġv ol
l ine
Ġt em
Ġlearn s
Ġansw er
Ġwr ong
ĠB el
ĠB al
u ly
Ġm ag
Ġrem ains
Ġdef in
Ġdo g
Ġ ver
ĠC ol
Ġd ut
ur s
Ġob v
ĠSoc ial
i j
Ġnat ure
em oc
ap an
Ġsur pr
Ġpo or
Ġh op
um b
Ġj our
Ġproject s
re ct
un k
ru pt
Ġgovern ments
Ġdec ided
Ġs ense
Ġopp os
j oy
Ġrespon se
Ġrecomm end
ĠR eg
en ing
enc ies
Ġperson al
er ia
Ġm ob
em ploy
m ore
Ġins ide
Ġex cept
Ġthrough out
Ġpract ice
tern al
Ġapart ment
Ġdestro y
Ġgra nd
her n
Ġregard s
Ġm ission
ang u
Ġregard ing
Ġse par
r is
res ident
Ġpot ential
Ġrec ently
Ġrem ind
' ve
Ġd ate
u ing
og raph
Ġd ream
Ġpromot e
S t
Ġp en
Ġexcell ent
Ġprev ious
Ġu m
Ġviol ence
Ġav oid
it es
Ġdocu ment
Ġb ase
Ġexper ience
ain ed
an ia
Ġcomprom ise
or row
Ġimmedi ately
ab y
ĠCh ar
Ġs al
Ġsu sp
Ġass oc
ra el
ĠAr ticle
Ġag reed
Ġbl ood
ĠM ay
Ġhe ard
Ġachie ved
Ġc le
ĠM c
ĠE ng
u el
ad es
Ġbenef it
Ġman ages
D E
Ġassist ance
Ġto r
ĠC o
Ġme chan
Ġbo ok
is ters
s y
ous ly
Ġv o
ĠP h
- -
ĠC ent
ĠO r
Ġlead s
ter m
P resident
Ġre con
Ġra p
Ġur g
ĠP ar
Ġcont r
Ġc ust
Ġgr ant
Ġ z
Ġe arly
v ant
ra in
Ġarri ve
Ġpri ority
M y
Ġar gu
ener al
Ġl ate
Ġinit ial
es e
ĠD av
Ġpow ers
Ġsuccess ful
Ġind ic
over ty
ĠGerm an
au ght
Ġwant ed
b o
Ġappe ar
ĠCh ina
g ic
Ġhappen ed
Ġch ance
Ġpro ceed
Ġun able
Ġc ause
Ġth row
Ġcontin ues
Ġd en
ĠJ apan
Ġm ass
ĠCon vention
Ġbri ef
ĠG ree
Ġnot e
Ġhapp y
ve re
un ch
N ow
Ġd ro
S h
Ġh ig
Ġex ec
ol ute
Ġh ost
Ġcont act
y n
Ġh uge
Ġu nd
Ġf ishing
op h
im um
ĠS ec
Ġg ame
ĠW ar
' m
r ated
Ġcongrat ulate
Ġb ed
h old
i ers
Ġit em
Al though
Ġcomplete ly
Ġval ue
ĠMin ister
Ġcap ital
Ġrequire d
Ġaspect s
Ġa ge
Ġnew s
Ġmarket s
Ġinfl u
c hed
Ġen joy
a el
ct ors
ĠB e
Ġtechn ical
Ġc ame
Ġ1 8
Ġpre t
re ad
ar ily
Ġcharact er
Ġto ur
Ġt en
Ġval ues
Ġcrimin al
Ġknow s
e qu
Ġpro b
Ġcolleag ues
Ġde ep
ill s
Ġl angu
Ġcol l
Ġapp ly
Ġlab our
Ġt rou
un ities
Ġbelie ves
Ġlegisl ative
Ġabs olute
y ear
Ġdemand s
on es
Ġl os
il es
ĠE uro
le ep
Ġsustain able
Ġtr uth
er y
Ġd ies
Ġrest rict
ĠIs rael
Ġar m
le x
The n
Ġsolid arity
are ncy
Ġh it
Ġexist ing
B e
Ġb ank
op s
Ġp overty
Ġus es
Ġhe ar
ĠM ed
Ġc and
Ġinvest ment
Ġconsum er
Ġw ays
ri f
w ell
ition al
Ġwe ap
f erence
T O
ens ive
ĠJ an
Ġcons ult
Ġcommun ication
Ġhist ory
Se cond
ĠFr ance
There fore
Ġl at
Ġrel ation
ra w
ĠU N
ĠF in
O ffice
Ġd om
Ġs ell
t t
Ġ $
w here
Ġcar ried
Ġfam il
u ine
Ġ1 2
Ġh ar
Ġtra ff
Ġwe alth
ed eral
he ries
Ġread ing
Ġin j
ac her
Ġorgan is
Ġjust ice
Ġcol lect
Ġrequire ments
Ġintegr ation
Ġvict ims
im ately
Ġbe aut
ie f
Ġreal ity
a res
Ġst ation
ĠR aj
Ġcont ract
Ġsub sid
Ġcontrib ution
Ġre ven
Ġre pl
v ision
Ġf ra
Ġre d
ant ic
ĠFr ank
O ur
Ġconsequ ences
ir th
Ġtransp arency
il ar
Ġlead ing
Ġass um
Ġag enda
Ġrespon d
Ġwit ness
Ġc ultural
Ġsc he
ap pe
Ġbas ic
Ġm ut
re c
ing ly
ĠP e
Ġbal ance
ri ght
ĠR ights
Ġmod el
Ġra ised
Ġelect ions
Ġstru gg
er c
Ġterror ism
Ġincre ased
Ġproced ures
ra nd
if t
Ġilleg al
Ġo pt
ĠD emoc
Ġple ased
Ġknow ledge
Ġh om
Ġb attle
Ġser ies
ess ion
Ġun employ
ri al
Ġs atisf
Ġcre ation
Ġbegin ning
in t
Ġgirl s
oc ks
Ġ |
Ġm ember
Ġreveal ed
Ġstate ment
ĠDirect ive
Ġbo ard
Ġattack s
Ġcla im
Ġs ound
nc es
Ġspir it
i en
il ly
Ġdoub t
Ġregul ations
al d
et ary
Ġem ission
Ġcrit eria
Ġpress ure
Ġchallen ges
ĠP l
Ġf irm
Ġinn ov
Ġref lect
Ġl ink
Ġatt ract
Ġprov isions
ut ed
Ġmess age
Ġpresent ed
ĠJ im
Ġst ress
Ġinvol ve
d den
Ġredu ce
Ġset t
si an
ro ll
Ġ200 0
Ġlead ers
Ġd ire
Ġra il
Ġt ask
conom ic
Ġconflic t
ĠP aul
Ġfoc us
Ġthan ks
Ġmod ern
Ġu lt
Ġcru cial
Ġsaf e
Ġc od
ĠA ust
b all
o ke
Ġob tain
Ġexch ange
Ġwe ak
Ġequ al
' .
Ġst aff
Ġmus ic
m ar
ro om
ĠM or
Ġcon duct
ĠS he
Ġsu dden
Ġy es
Ġpre cise
Ġgirl friend
Ġthink ing
ĠP ort
Ġter rit
Ġp ie
Ġfarm ers
ic ide
Ġw orth
v is
ag er
ĠM al
Ġapplic ation
ĠA b
Ġs ort
Ġrece ived
iz es
c l
Ġtreat ment
d om
Ġour selves
Ġset s
ol ly
e en
am a
Ġhigh light
Ġ ir
Ġg as
Ġcour t
ĠE ast
Ġw ed
Ġprep ared
Ġab and
Ġw ent
li ance
as on
Ġde l
Ġob lig
ver t
Ġb aby
ich ael
b an
id el
Ġev idence
Ġprob ably
Ġcrit ic
Ġenc ou
e ch
ĠW ill
Ġfle x
Ġtell ing
ĠAmeric a
Ġli beral
Ġst ability
Ġ1 1
Ġbecom ing
m p
ĠJ ust
ug s
Ġcor rect
Ġord ers
Ġo il
Ġm ater
Ġtot al
Ġc ast
Ġinstru ments
Ġanal ys
Ġpr ice
Ġlevel s
Ġoffic er
er ve
Ġb it
Ġcre w
Ġlet ter
Ġre ached
Ġcirc um
ous and
Ġinclud ed
Second ly
it er
Ġcohe sion
in i
ĠL i
r ay
Ġhot el
Ġb omb
Ġd ied
Ġr at
Ġac qu
Ġmy ster
Ġb irth
ĠM art
it ude
ĠTh is
ic ks
Ġeffect s
Ġbreak s
Ġrel ating
Ġp ub
li ke
l ong
e ks
Ġallow ed
Ġexpl ains
Ġex act
D es
Ġplay ing
Ġca using
Ġstud y
Ġdire ction
ĠI ra
ĠRep ublic
Ġconsid ered
Ġharm on
the less
Ġcomm itted
Ġcreat ed
Ġ "
Ġw all
Ġd in
ĠS outh
\ *
Ġcons ist
Ġw arn
w ise
Ġt abled
ĠAmend ment
Ġmove ment
ol id
Ġvot ing
Ġref uge
Ġb and
Ġnat ural
ĠM ad
ĠDav id
y le
Ġlo oks
Ġh y
sel s
g ar
ve red
Ġtechn ology
ĠAng el
ĠA s
ĠAfric a
Ġencoura ge
Ġrem ember
Ġopport unities
Ġn orm
Ġiniti atives
Ġcand id
Ġm ent
Ġre lig
Ġinstru ment
Ġname ly
Ġsu spect
ĠP arty
Ġstep s
it arian
Ġg one
Ġbr ings
ĠD on
Ġsuc ceed
oura ble
Ġsim ilar
Ġexpl ain
Ġgen uine
Ġaccess ion
Ġant i
Ġpack age
Ġca uses
if ul
Ġto m
Ġh um
Ġreg ret
Ġunder t
Ġapp arent
ow s
Ġsee k
Ġorganis ations
Ġ3 0
Ġs n
ĠI re
Ġestabl ished
a ign
ĠB en
ur ch
f ect
Ġf re
le b
ĠIra q
ĠQ u
d y
Ġhe av
Ġdis e
itt en
Ġlead er
ist an
Ġpri orities
end er
H er
port s
Ġtr ust
S ome
Ġdo ctor
ĠG u
Ġdis appe
Ġrece ive
Ġb od
Ġocc as
Ġdevelop ed
il ater
Ġcust om
at ure
Ġth ousand
Ġprov ides
Ġmonitor ing
ĠJ ul
Ġfore st
ĠâĢ ĺ
j ust
Ġ !
in o
c er
Ġdisc rimin
Ġconc lusion
Ġaddition al
se c
k en
b ack
r ative
Ġs end
v iew
re ly
Ġorigin al
Ġwe eks
M ore
Ġdep art
Ġvo ice
b ody
Ġn or
Ġcamp aign
it a
h ic
e ff
Ġ ign
Ġexper i
Ġs low
Ġal tern
Ġfl oor
i ated
Ġrun ning
g n
Ġas king
ĠPal est
Ġsome one
Ġph ot
Ġpur pose
Ġb illion
Ġspe ech
sib ilities
ĠS l
Ġconvin ced
u ct
Ġaband on
all ed
Ġpr im
Ġsu icide
Ġsee ing
for ce
ou l
Ġwas te
Ġw ound
Ġescap es
Ġex ternal
n ie
Ġt ro
Ġadv ant
u f
is c
Ġcall ing
ĠI I
oc ked
Ġp ick
Ġph one
Ġsuff icient
Ġcircum st
F urther
Ġbudget ary
ri e
im ent
Ġdis p
Ġdesc rib
Ġext ent
Ġp un
ĠM ary
Ġ2 5
Ġset ting
h an
Ġv ital
g est
Ġexp ressed
Ġcreat ing
ir t
Ġ ?
Ġs ends
Ġdri ve
ac ity
Ġre new
b our
ic ations
Ġopen ing
Ġre b
iv al
ĠCon stit
Ġw at
Ġr ural
Ġcent ral
Ġm ount
Ġve hic
Ġmed ium
ici ency
Ġr ich
Ġr ate
Ġcla ims
Ġev al
Ġsupport ed
ĠS an
Ġre ady
ĠC y
Ã ©
ic y
e al
Ġshoot s
Ġty pe
Ġpos sibility
Ġcomb at
a ction
Ġwa iting
Ġpl ot
Ġbod ies
Ġbenef its
Ġchallen ge
Ġw id
Ġgood s
Ġop ens
B y
Ġfor ms
ĠC al
Ġauth or
Ġp aid
Ġmot ion
Ġm em
Ġdut y
Ġc ulture
Ġw ishes
ar ation
Ġan g
ra ft
Ġimplement ed
Ġh ours
velop ment
rat s
ĠM a
Ġbeh av
Ġpartners hip
Ġbe y
C on
ic ial
h ouse
p re
Ġanim als
Ġfor get
Ġcolle ge
Ġabsolute ly
ĠS u
ĠGerm any
ag raph
Ġdr ink
r s
Ġpr ices
Ġse a
Ġemission s
Ġca used
Ġt able
Ġ rom
Ġp ict
re hen
Ġaff air
ĠSw ed
Ġbord ers
Ġmater ial
Ġgr ad
ĠIre land
Ġs leep
Ġconf irm
Ġdrug s
Ġbey ond
ac ed
yl um
Ġredu ction
Ġmed ia
ĠJ une
Ġun s
en a
ĠE n
Ġcou nter
ic a
Ġce leb
Ġ1 3
Ġwed ding
err an
Ġcircumst ances
Ġincreasing ly
Ġpart ner
Ġtom orrow
Ġl oss
Ġconf idence
Ġstud ents
Ġens uring
ce mber
ove red
Ġ. ..
Ġcom ments
Ġar my
Ġimmig ration
Ġconnect ion
Ġ 000
Ġarrest ed
ĠG od
Ġpub l
c ks
ĠL u
Ġc aught
it ation
Ġcompet it
g round
Ġbeaut iful
Ġen able
ilater al
Ġsa w
Ġt ack
it ch
Ġl if
ĠE x
Ġany one
ĠPort ug
Ġp ull
Ġcomple x
Ġindust rial
Ġeff icient
Ġc al
Ġc op
Ġeven ing
k y
m ing
an ish
Ġse ctors
com ing
ĠS er
Ġun f
in ated
ĠC he
Ġaccept ed
Un fortunately
c he
ĠCon ference
Ġint ended
Ġfun ction
Ġfind ing
it erran
es tern
our ce
iterran ean
Ġint el
ĠA lex
z z
Ġn ar
Ġg ave
ill ed
Ġbe ar
Ġpres idency
Ġdiscuss ed
Ġbord er
Ġdanger ous
Ġview s
Ġserious ly
o x
Ġbusiness es
ur t
Ġcont ent
ĠJ oe
Ġdirect ly
Ġsp ace
Ġspe ed
ĠM ichael
Ġ1 7
Ġbu y
Des pite
Ġstat us
ĠS ch
Ġagric ulture
il ing
Ġcon cept
Ġfis heries
i am
ri an
Ġenter pr
ĠN ations
Europe an
n al
Ġaccord ing
ict ion
Ġfight ing
ĠCent ral
Ġstre et
Ġaffect ed
Ġapp lied
Ġm ach
Ġper fect
Ġassess ment
ivers ity
ar i
iz ing
Ġcho ice
ag ing
enc ed
Ġeffective ly
ĠB ob
Ġpract ical
Ġsp end
Ġs il
Ġanim al
ĠDe cember
Ġs an
Ġreform s
r id
Ġrepresent atives
ic ated
Ġpol l
w or
Ġqu al
Ġinc ident
Ġsex ual
Ġindepend ent
Ġ1 4
Ġexpl o
el t
Ġdef e
ĠG eneral
Ġsold iers
ĠE C
Ġfor t
in ary
Ġplan ning
Ġhigh ly
ĠN orth
ĠS um
Ġperform ance
O f
Ġas ylum
pp er
Ġprov iding
sy ch
idel ines
Ġunemploy ment
ĠB udget
Ġsupp ly
Ġwon der
E C
b ed
Ġdeal ing
in ing
Ġcent ury
Ġcont ain
ĠJ erry
Ġresc ue
Ġdep end
Ġs qu
Ġm iddle
ok ing
Ġident ity
Ġcond em
ĠGeor ge
' ll
Ġste al
Ġown er
Ġst ar
Ġey es
an i
ure au
Ġoper ation
arli e
ond on
ĠB ank
pect ive
Ġte acher
Ġrele vant
Ġcolleag ue
Ġme ant
On ce
Ġcomm er
Ġ er
Ġr out
Ġl ar
Ġwill ing
Ġra ise
ol f
u ary
Ġsomet imes
Ġsubst ant
Ġk e
Ġdiscussion s
Ġcom ment
Ġon es
Ġhist or
Ġf em
ĠJust ice
S ince
Ġfeel s
Ġcap acity
Ġgrow ing
Ġdifficult ies
Ġann ounc
Ġe ld
Ġb ul
Ġpl ays
d am
r ant
ĠWh ite
' d
Ġpl ant
ur ance
ĠJ o
Ġboy s
Ġfollow ed
k es
Ġstart ed
Ġth inks
Ġful f
Ġadopt ion
Ġpers u
Ġkid s
ĠSp anish
Ġs itting
Ġsim pl
ĠDe velopment
Ġhig her
Ġocc ur
Ġrad io
re l
ĠL ondon
Ġext ra
Ġvis its
Ġann ual
Ġinflu ence
E P
Ġpen al
anc ing
Ġag encies
Ġun ac
ect ive
Ġsudden ly
Ġmiss ing
Ġb oss
Ġst ab
ĠB ro
it able
Ġact ive
Ġt ried
Ġb all
ak en
J ust
Ġplay ed
Ġe th
c her
H ow
Ġ1 6
Ġreven ge
ra p
und red
av ing
Ġstruct ural
Ġs ong
ĠS ar
Ġappro ved
Ġar ms
r am
Ġp sych
ĠRus sian
ĠG reen
Ġb urn
Ġaccident ally
Ġconc ent
ĠB er
r ast
Ġm and
Ġk iss
Ġde leg
Ġhapp ens
Ġwa it
Ġcoord ination
Ġbe long
Ġstud ent
ree ment
Be fore
Ġeff iciency
I s
Ġf low
v a
ar ies
Ġon to
Ġrealiz e
Ġconst ruct
Ġsupp osed
i ate
l or
Ġfamil ies
Ġref erence
Ġb i
Ġpre gn
ord er
Ġmeas ure
o ff
ic it
Ġold er
Ġman ner
ĠL a
Ġkill er
Ġfail ed
Ġ %
Ġprov ision
Ġcl im
Ġarr ange
Ġg old
Ġre un
ĠIr ish
e b
Further more
Ġst o
Ġ5 0
Ġweap ons
ir ing
Ġcomm and
Ġinstit utional
ines e
it ious
et her
b ur
Ġanalys is
Ġrequ ires
Ġscient ific
Ġgu idelines
Ġsum mit
c le
o es
oh ol
Ġwh ite
Ġconsider able
Ġput s
I nd
Ġreg ime
Ġc ell
Ġf ish
Ġr ise
Ġsc ope
Ġtri p
Ġexact ly
Ġc atch
lus ions
A r
ro g
Ġclos er
A m
om en
Ġcl ub
Ġc am
od ay
Ġsol utions
Ġturn ed
rast ruct
c ohol
k i
ers on
ĠB o
Ġpart s
Ġchang ed
Ġd ie
ĠPalest in
ĠItal ian
Ġspeak ing
Ġover all
ĠR es
Ġaim ed
Ġl ose
Ġlangu age
Ġunac cept
it ure
ĠP at
N o
Ġbo at
Ġra ce
Ġintrodu ced
Ġfig ure
Ġpar agraph
Ġrap id
Ġw ood
Ġh ide
Ġbo x
ĠC ity
Ġhelp s
Ġdam age
or por
Ġdri ving
im ension
Ġattack ed
Ġauth ority
Ġeas y
Ġsub m
ra ge
Ġput ting
m aking
Ġdis app
Ġclose ly
b it
Ġinclud es
ĠA nt
Ġg ain
ĠK os
Ġprodu ce
k a
Ġst ated
Ġper cent
Ġreg ular
Ġl ies
ter day
ĠCh inese
Ġcompetit iveness
Ġd oll
as hing
Ġh undred
ĠR ich
Ġactiv ity
Ġal ive
Ġdiscrimin ation
Ġsim ple
Ġocc up
Ġadminist rative
Ġwork ed
Ġtal ks
Ġph ys
ut er
m as
Ġstrate gic
ify ing
Ġlim it
Ġm ig
ad a
ver se
Ġinf rastruct
s ive
w o
Ġc ro
Ġcontrib ute
sequ ently
First ly
Ġpop ular
Ġre in
u ght
il st
and a
C omm
k er
Ġgu ard
ĠItal y
Ġacc omp
Ġcommer cial
ĠR ed
E ven
Ġp il
it le
Ġcl ar
Ġparliament ary
Ġp ath
Ġhe ro
Ġboy friend
Ġad apt
ĠF or
i ents
ick ing
Ġlim ited
ar ry
Ġdis m
Ġtrans fer
oc ol
Ġall oc
eg u
Ġ ut
l ish
Ġpro ve
Ġneighb or
Ġr ound
Ġspecific ally
r ates
Ġunaccept able
Ġtr uck
Ġdef ence
Ġmy self
Ġprecise ly
Ġpro pose
r an
ĠSt e
ĠPet er
ĠIntern ational
ra ce
ĠW est
Ġpres ence
ĠInd ia
Ġhuman itarian
Ġlaw y
Ġ X
l aw
Ġcond ition
Ġty p
Ġimpro ving
r ants
Ġfor g
Ġst ore
Ġun fortunately
uf act
Ġal cohol
Ġa head
Ġvol unt
am ber
Ġqu ot
Ġab ility
Ġlaw s
Ġp ension
The ir
Ġconc lusions
Ġapp rec
Ġfail ure
Ġp et
Ġe ight
Ġpres ident
ĠE arth
Ġdef end
ĠS erv
h i
ĠL ou
wor ks
Ġnear by
ĠM ax
Ġj ail
Ġinterest ed
Ġdra wn
Ġeng age
Ġrefer red
Ġsusp ic
ĠDemoc rats
r as
Ġt rib
Ġsaf egu
Ġw ide
Ġb low
Ġst ra
ic o
in y
Ġ19 8
it ors
Ġag ency
Ġwind ow
Ġconsid eration
Ġr id
u gg
Ġpromot ing
Ġcle an
Ġsur round
Ġm id
Ġd a
Ġleg it
Ġmin imum
Ġ200 7
Ġimplement ing
Ġs ad
Ġult imately
bour g
Ġdist rib
Ġbu ilt
is ms
ul a
Ġaccord ance
Ġobv iously
h ost
Ġk ing
Ġmo ving
Ġparticip ation
Ġprofess ional
ĠT e
ec ause
ĠS ing
ov o
Ġcomp rehen
Ġright ly
9 9
ĠV al
j a
um e
g overnment
ĠL eg
Ġremain ing
Ġcont ains
Ġde g
d ie
ĠS y
Ġplac es
Ġd ark
ra z
ĠB ur
h ib
ĠMar ch
Ġim ag
Ġman ufact
Ġh id
Ġen orm
Ġmurd ered
Ġent ers
Ġh ang
Ġris ks
ĠL uc
Ġsupport ing
ent y
Ġfra ud
Ġbring ing
ĠSec urity
ag ue
ra b
Ġsp ent
Ġtrou ble
Ġadvant age
ĠEng lish
ĠK ar
Ġdeterm ined
Ġv ac
Ġmethod s
Ġv an
Ġstand ard
Ġbec ame
Ġyoung er
c ers
est ic
Ġsubstant ial
Ġch air
Ġprodu ced
Ġdocu ments
Ġref ere
Ġp aper
Ġconf erence
Ġstart ing
ĠR am
s ized
Ġinterest ing
ar ks
ri a
Ġwal ks
Ġobs er
Ġwith d
Ġtele vision
Ġeld er
Ġuse ful
il le
Ġfac ing
Ġinform ed
Ġd ance
Ġad equ
anc y
Ġdeli ver
Ġdiscuss ing
Ġrel uct
ĠAg reement
Ġintrodu ction
Ġamb itious
Ġenterpr ises
ĠW TO
Ġre act
Ġaccept s
ĠPro t
ĠE conomic
Ġallow s
Ġconclud e
ent ions
as hes
Ġbe at
ĠS m
Ġtrans form
ul ated
Ġstr ict
Ġmo ves
u pp
ĠMed iterranean
T oday
Ġto ol
Ġe p
Ġac know
Ġg reen
Ġexp end
Ġl ines
us hes
Ġco ast
Ġcommit ments
Ġemer g
Ġkid na
Ġp an
Ġpract ices
re y
Ġwealth y
Ġman aged
Ġbe g
ĠS im
us sels
Ġch urch
Ġcrit ical
ĠPol icy
Ġtor t
ĠPar is
il iation
Ġhelp ing
Ġwr itten
Ġm ill
ĠA t
Ġrem o
Ġnear ly
Ġstr ange
Ġnorm al
Ġdes ire
Ġhon ourable
Ġrece ives
Ġpro spect
Ġatt end
Ġins ist
Ġrepe ated
Ġte en
N ot
Ġdiffere nces
Ġwal k
F rom
Ġinvol ving
Ġnew sp
Ġun ion
Ġmyster ious
Ġact s
Ġhold ing
Ġc li
ur ally
Ġw arm
ĠF ore
w ood
Ġt im
Ġconf ess
Ġcompet itive
S E
Ġfinanc ing
Ġide as
r ad
Ġlo ves
Ġfac ilit
ĠJapan ese
Ġentire ly
Ġs ac
Ġpolit ic
ĠJan uary
Ġ- -
Ġins pect
h am
Ġcare er
Ġfle e
Ġsh op
ĠSp ain
Ġcandid ate
Ġcur re
ĠIntern et
Ġel imin
r or
ar ning
ou d
Ġrest aur
Ġoppos ition
Ġdel ay
Ġproper ly
Ġex er
Ġconfron ts
en ny
ĠR ob
Ġinform s
apt ain
i ant
ate ver
ĠB ill
re te
Ġfe ed
Ġrespon sibilities
government al
0 1
u ations
Ġpos s
Ġadd ed
ĠBr ussels
Ġag ent
Ġsp ending
Ġfem ale
t a
Ġev il
ĠM e
Ġproper ty
Ġact ual
Ġrele ased
ĠKos ovo
N ever
Ġsugg ests
t ime
Ġcapt ured
ĠReg ulation
Ġf ederal
Ġd imension
Ġrepresent s
Ġco vered
Ġmed ical
c ast
ĠCh arlie
Ġdes per
Ġredu ced
o very
an im
Ġint ention
Ġallow ing
n es
u als
Ġrele ase
or a
Ġprom ises
Ġsum mer
n o
Ġe arn
Ġen h
Ġatt itude
Ġurg ent
E very
ĠC an
Ġme rely
Ġm er
h ar
Ġa ims
Ġplac ed
Ġfig ures
ut ch
ri ff
Ġfam ous
Ġele ments
f e
Ġsee king
pr il
Ġconv ince
Ġinter vention
Ġinnov ation
Ġsuff ering
w ide
ĠHar ry
Ġob st
er ous
Ġsepar ate
Ġsu n
Ġdr unk
Ġb ott
ĠM ex
Ġnet work
ain t
Ġass ass
Ġconst ruction
Ġunderstand ing
Ġdeb t
ĠPh il
Ġgo al
Ġdin ner
as ure
Ġl og
ĠJ ames
n el
Ġs ources
Ġimpro ved
Ġthousand s
Ġfeel ings
Ġd er
Ġapp oint
iv ity
Ġmed ic
Ġ199 9
Ġrecon c
Ġinn oc
A cc
Ġc ab
Ġinc ome
L ast
Ġpropos es
ag ers
Ġdevelop ments
Ġredu cing
ĠConstit ution
v an
omm y
Ġaltern ative
Ġneg ative
Ġyes terday
ĠGree ce
h ab
ĠAfric an
re et
or ing
Ġsc en
ĠSum mit
Ġpie ce
Ġen em
or se
Ġwor se
Ġg e
Ġa f
Ġhead s
Ġcred it
ĠIr an
Ġrel ated
olog ies
Ġ \*
Ġinvestig ation
Ġwel com
Ġl ay
Ġdis pl
ru it
wh at
i us
Ġpregn ant
Ġhor se
ĠH en
Ġmin utes
ĠH ung
o ber
Ġreject ed
Ġver sion
Ġke pt
Ġprodu cers
Ġdri ver
Ġtrad itional
Ġfor th
pt ember
Ġlike ly
Ġestabl ishing
b ing
Ġam d
Ġcomp ens
ĠTur k
Ġim pl
Ġconfron t
M E
Ġser ve
Ġexpend iture
Ġf ur
ĠW al
er ate
Ġemploy ees
Ġequ ality
ath y
m on
ect ion
o res
Ġpoint ed
Ġdi vers
Ġstruct ure
ul ations
Ġout come
Ġplan e
Ġimpos sible
r ison
ĠM EP
ab or
Ġar ch
Ġse ven
s man
Ġgreat est
' ,
Ġachie ving
erv ation
Ġ &
Ġdis aster
a it
c alled
Ġintrodu ce
Ġun con
Ġhe aring
on a
Ġenorm ous
Ġrecogn ition
know n
Ġs ource
M any
ab les
Ġfail s
ĠN ick
ens us
Ġf if
Ġhop es
Ġey e
Ġass ign
Ġfre qu
Ġe c
Ġtr uly
Ġstrong ly
ell ing
ĠO ct
ĠH el
Ġexpect ed
us ion
ĠU k
Ġgu ess
Ġmut ual
ad ing
Ġex cess
Ġdis ch
et he
Ġdisc overed
ĠC ons
ort hern
Ġshow ing
land s
Ġsp read
Never theless
B oth
ist ics
ĠEuropean s
ĠN e
S C
Ġsav ing
Ġl aid
Ġjour ney
ĠChrist mas
Ġdesign ed
ĠB ul
Ġperm an
p ro
vent ually
Ġf light
Ġfe at
ĠIn ter
ĠBl ack
Ġ201 0
Ġeng ine
ove mber
Ġlow er
Ġp al
Ġinstit ution
Ġur ge
Ġbal anced
Ġrelig ious
S oon
Ġjour nal
Ġrecommend ations
Ġtraff ic
Ġobv ious
Ġcon ver
ĠA pril
Ġp ill
Ġ1 00
w w
Ġinter view
Ġcontrol s
Ġtri al
b order
Ġdisapp oint
Ġcomprehen sive
ĠC ong
Ġde light
Ġconc rete
Ġf ine
Ġf ix
Ġfall ing
in ate
Ġs ides
Ġv ia
Ġcut s
Ġinitial ly
il ed
E ventually
Ġbrother s
Ġconvin ces
Ã ¶
Ġr ange
T om
Ġpower ful
Ġtarget s
Ġappe al
Ġthrow s
st ead
se mb
Ġprom pt
Ġmean ing
F R
u ous
Ġinc orpor
Ġinvolve ment
ĠEn vironment
Ġc row
ill ing
Ġhappen ing
Ġdestroy ed
c a
res pon
ron ic
ĠH uman
ĠPro gram
Ġterror ist
Ġst orm
ind ing
id ge
Ġhe s
ĠM ic
od e
ang es
Ġmot or
Ġs pl
it z
Ġsec ure
Ġh unt
Ġri ver
Ġestablish ment
Ġrefuge es
More over
Ġargu ment
Ġdise ase
ak er
Ġmon etary
Ġpers pective
Ġplan ned
Ġch ase
Ġs ite
Ġh ous
ĠM iddle
ĠG l
ĠK ore
Ġcomp uter
Ġt ree
ed y
Ġcurre ncy
Ġequ ip
ra ine
Ġres ist
. "
Ġex pos
Ġapparent ly
ĠPe ople
Ġpict ure
Ġche ck
Ġstrengthen ing
Ġbur den
i que
Ġrec over
Ġdid n
or ter
as c
Ġknow ing
Ġtem por
Ġc ry
ra g
eng ers
I T
Ġstud ies
Ġem ot
g ies
Ġsign ed
ĠSe ptember
Ġlos es
Ġsafegu ard
Ġ4 0
ur d
Ġr ates
Ġch arge
an ks
ĠM ag
Ġexp ression
Ġflex ibility
Ġcontin uing
st on
ro c
Ġtra ck
Ġsuccess fully
Ġprep are
stit ute
Ġmain ly
p ol
os h
Ġp air
Ġso le
Ġ2 1
u nder
Ġpay ments
stand ing
d d
ĠN ovember
Ġcontr ary
y al
ir a
ĠU K
Ġstop s
Ġcomb ating
Ġcarry ing
Ġ200 1
Ġlat ter
ĠR ay
Ġsche me
M ar
ce l
y an
Ġwh atever
Ġencou nter
Ġstand s
Ġsens itive
Ġinfrastruct ure
Ġmat ch
Ġneighb our
ĠL at
Ġw ild
il s
ĠM iss
Ġnum erous
i ro
ow er
O s
u it
ĠC aptain
Ġ200 4
Ġ200 9
ad ed
an ch
go ing
Ġapp lies
Ġexer cise
ang ed
Ġ200 6
et t
B ecause
n ic
Ġele ction
Acc ord
Ġro ll
Ġte ach
Ġresult ing
ĠAg ency
ĠKing dom
Ġne ither
ear s
Ġsp ot
Ġsee ks
Ġex port
Ġpos itions
Ġ200 8
Ġemphas ise
ĠJ ew
Ġun anim
Ġbro ken
Ġterrit ory
Ġv ision
Ġexist ence
ĠM us
Ġadd ressed
Ġn ation
ĠS ant
Ġr ide
Ġg host
at ically
Ġinvestig ate
Mr s
ĠPalestin ian
as ters
Ġcr imes
Ġcons ensus
ĠRo bert
Ġfac ed
Ġpass ed
U pon
Ġv ide
Ġdeg ree
Ġother wise
Ġrel ative
Ġpri or
ĠFore ign
ĠC la
Ġprev ention
Ġaccept able
p ir
ol a
le ction
ut ive
Ġle arning
ĠT V
Ġadv ice
Ġhe ars
Ġexpl os
On ly
ĠC or
Ġr u
Ġpret ty
Ġcou rage
o ok
Ġaff airs
Ġt itle
ĠJ uly
ad ow
Ġmach ine
Ġpurs ue
Ġse vere
out hern
An other
ĠV an
Ġchild hood
ĠInd ian
Ġtransp arent
Ġd ying
Ġnet works
Ġr ing
Ġofficial s
Ġrep ly
Ġpass engers
Ġvict im
Ġb ureau
Ġadminist ration
Ġ19 7
ĠAn n
Ġc ult
ĠTurk ish
Ġconst antly
Ġrecogn ise
ĠSl ov
Ġfin ance
Ġdri ves
Ġliberal isation
Ġf elt
Ġoffic ers
ĠRom ania
Ġunc le
f are
ĠR ules
ĠOct ober
Ġr ul
Ġdes er
Ġpromot ion
ĠTr ans
ĠJ on
Ġstate ments
Ind eed
ĠA sh
Ġ200 2
ve y
5 0
Ġreturn ed
Ġang ry
ate g
Ġfirst ly
ru ption
Ġf at
Ġm aster
Ġd ed
Ġresol ve
l am
Ġe at
Ġsupport s
Ġprev iously
T wo
ic ed
m ed
Ġm ax
Ġk new
Ġbl ind
Ġf ir
Ġelect ed
ĠA ss
ĠV er
as tern
Ġe lement
ĠP aper
Ġdirect ives
Ġt un
Ġdiv or
ĠLeg al
Ġemerg ency
Ġfis her
Ġs ne
Ġelect ric
he st
Ġd ict
ate ful
Ġtot ally
ĠM ike
ov iet
ission er
Ġabandon ed
Ġhid den
us hed
Ġwh ilst
Ġ200 3
Ġoblig ations
Ġ200 5
Ġkeep ing
Ġe arth
C P
Ġsh ared
Ġlo ver
Ġf i
ĠPr ime
ver age
Ġd ig
Ġindepend ence
Ġs ed
Ġopp osed
Ġhon est
Ġinst ance
Ġmo ved
Ġan c
Ġrepl ace
Ġequip ment
Ġche m
Ġsign al
ĠSt rate
Ġrestaur ant
Ġint ends
ĠR oy
In stead
Ġsit uations
Ġmechan ism
ar us
Ġb ath
ak s
Ġground s
Ġdou ble
Ġun ivers
Ġoff ered
Ġrapporteur s
i el
ĠA ud
port ion
ĠK y
ro at
Ġwatch ing
il k
Ġins urance
Ġstrugg le
i ar
Q u
Ġb ound
Ġpers ons
Ġloc ation
Ġthreat ens
Ġro ck
Ġcrow d
Ġc oin
a ult
o ly
Ġsubm itted
Ġres ident
Ġrepe at
ĠGree k
0 2
Ġcl osed
A T
and y
Ġimprove ment
Ġgrant ed
oc king
r ich
Ġbr ut
Ġprep aring
Ġdeleg ation
and er
Ġpre d
ol en
ill a
Ġobst ac
Ġdeal t
ĠS al
Ġexper t
as sion
Ġexpl an
ĠW estern
Ġpull s
c raft
f ather
F r
um ps
P arliament
Ġsan ctions
Ġpat ients
Ġcon vers
Ġoper ations
en ary
Ġad just
Ġdream s
ĠY ou
ĠA ll
Ġun less
Ġc ard
Ġcam era
Ġo ught
Ġintegr ated
ath an
Ġcharact ers
gh an
Ġparticip ate
Ġbe ach
pl om
Ġgo als
Ġap olog
Ġbe gan
ĠT im
Ġst ock
g ment
ĠA ct
b ut
Ġaut om
ĠS oviet
Ġh at
ou nce
Ġad vert
Ġ2 7
Ġimmedi ate
Ġdirect or
Ġprotect ing
Ġnot ices
ic ate
ĠB illy
Ġpolit ics
Ġreturn ing
d own
Ġst olen
Ġadv oc
Ġfeel ing
Ġpre m
ster dam
sib ly
ĠBel g
Ġthere by
Ġsac rif
h ag
Ġl ie
Ġs outh
i pe
Ġstre ets
Ġcare fully
ĠSe a
Ġmechan isms
Ġbureau c
Ġins ists
Ġh iding
av es
ĠCh amber
Ġcar s
O ther
Ġhelp ed
Ġjud ge
ot o
Ġpil ot
Ġcons c
Ġguarant ees
Ġgener ally
ĠRom an
Ġlat est
ĠP ri
ĠT ommy
O ver
Ġt reaty
ut ing
Ġpay ment
f in
Ġcat ches
Ġheav y
ĠN ational
ren ce
ec ision
ĠF is
ict or
Ġinter p
Ġse ction
Ġdisch arge
Ã ¡
Ġorgan isation
Ġinvol ves
Ġdom estic
l antic
Ġent ry
ĠFr anc
ĠMin isters
ĠJohn ny
b ased
Ġsome what
ĠGeor g
Ġwithd raw
Ġd ress
Ġfl ash
ĠJim my
n ters
ĠM ont
Ġsc reen
Ġab use
b al
Ġst ake
Ġgovern ance
Ġeas ily
ell a
Ġsurpr ise
Ġintel lig
ing er
Ġorgan ised
r in
op les
ok en
al i
B ack
Ġf ast
Ġorgan iz
use um
Ġadequ ate
ĠAm sterdam
Ġab ol
ĠChrist ian
ud d
Ġtechn ologies
ĠB ugs
Ġra c
Ġconsult ation
Ġlawy er
Ġdis gu
Ġfav or
Ġansw ers
W ill
Ġn one
Ġover come
Ġinj ured
r ating
ro ad
ĠTh om
Ġnot ice
Ġprison ers
Ġpur ch
ĠHe alth
Ġmist ake
H aving
ri ble
Ġsubsid i
ĠMEP s
Ġdetail s
Ġnewsp aper
Ġdi plom
Ġelder ly
Ġyou th
Ġsav ed
ĠS ME
ĠP o
Ġem pt
Ġaud ience
Ġcontin ued
Ġs ight
u ke
Ġdefin ition
Ġconstruct ive
c omm
ĠH igh
y ou
Ġe t
Th ird
Ġbe low
Ġkeep s
s per
Ġqu ar
Ġch ief
Ġal ien
Ġchar ges
Ġvehic les
Ġlink ed
Ġappro aches
Ġmag ic
Ġmand ate
Ġrefere nd
ĠM ac
p he
ĠE li
Ġinst ruct
ĠSc ott
Ġun w
Ġindivid uals
ĠStrate gy
ĠG ar
Ġgr ateful
ag on
Ġequ ally
Ġtreat ed
err ing
mb ol
ĠM el
Ġrecommend ation
n s
Ġback ground
Ġstra ight
gy pt
ĠJ es
a e
Ġt on
ĠTr ade
op en
Ġfa ith
Ġpre fer
ĠMart in
A P
Ġcont roll
ĠM ill
Ġmeet ings
g ue
Ġla unch
Ġs en
Ġparliament s
Ġoccas ion
Ġsol ve
Ġint end
Ġcho ose
ĠT ony
ĠF l
ĠMar k
ĠAf ghan
ul ating
Ġt ee
ast ic
ner gy
Ġpe oples
ĠDe v
Ġrenew able
Ġwor ry
Ġaff ord
ĠUk raine
Ġs or
if ies
Ġlos ing
Ġso vere
Wh y
Ġdiffere nce
Ġ199 8
u gh
Ġact ing
Ġgl ad
Ġh all
ĠHen ry
Ġb ag
ĠAn ne
ĠSc he
Ġspeak ers
ĠPol and
ĠH am
ed ly
Ġsurpr ised
Ġeval uation
Ġhold s
qu es
ĠProgram me
ĠN A
pos es
ĠPro ced
Ġinv ites
v est
Ġdeb ates
Ġsy mbol
Ġamong st
c y
Ġext end
c al
ra id
itt ees
H ere
Ġprom ise
ict ed
P L
ap ers
Ġsk ills
ĠQ ue
Ġc ateg
Ġo h
z a
Ġd yn
ĠE astern
Ġf uel
ail s
ĠEng land
ĠM att
os en
Ġviol ent
Ġregul atory
Ġis ol
Ġsecret ly
Ġsc ream
Ġlook ed
Ġest im
ĠChar ter
Ġmount ain
Ġslow ly
ĠT ex
Ġcent er
te en
Ġcast le
ĠRich ard
C O
Ġappro val
Ġbrief ly
Ġmembers hip
ĠCar l
semb ly
3 0
Ġb orn
Ġban ks
st ers
it led
Ġv ul
Ġfriends hip
h and
Ġob li
ĠBel arus
ear ch
Ġeng aged
Ġinterp ret
Ġc old
ag o
Ġt end
ĠProced ure
m other
Ġf ate
J ohn
Ġn orth
ĠJ ud
Ġtraff icking
n ight
ĠD en
Ġcap able
r ish
ĠJ ane
Accord ing
s es
Ġm ir
Ġrepresent ative
Ġlist en
Ġmass ive
Ġconsist ent
ĠE gypt
Ġperman ent
Ġfall en
Ġpeace ful
Ġc ere
Ġnot ed
Ġturn ing
Ġconsum ption
Ġto w
or ial
al a
os es
ick y
ro so
th at
ĠSar ah
Ġen force
ash ion
ar ations
Ġret rie
Ġjoin s
ĠWill iam
gr icult
ĠAn na
Ġcommun ities
Ġf ly
ĠF red
Ġeas ier
Ġencou nters
Ġwound ed
Ġc art
Ġto ward
Ġv irt
Ġplan et
a o
Ġcomp ly
if orm
Ġhy p
Ġda ily
Ġcons olid
ĠR ome
Ġman ager
rou d
Ġeconom ies
m in
Ġdivers ity
Ġpun ish
c an
as ks
Ġdra g
Ġlab or
Ġdis s
Ġri val
f ace
res h
i h
ĠS us
Ġwel fare
Ġ20 20
r ick
ĠC ount
Ġne ck
Ġarri val
ent ed
Th rough
Ġri g
Ġsw ord
Ġpolitic ians
ur ies
Ġpro c
ard en
Ġrec all
p oint
Ġn ations
Ġcapt ure
am s
Ġp ul
Ġstand ing
Ġadm its
Ġimmig rants
Ġcritic ism
ĠPortug al
Ġm ad
Ġm ail
pr us
Ġassoc iated
Ġw ins
ob ody
ĠSec ret
Ġor ph
ars h
ĠOr gan
Ġpubl ished
Ġw ine
Ġposs ess
Ġdetail ed
E S
Ġb ra
Ġd u
ĠC ub
Ġemb ar
Ġorgan ization
t ies
ĠL os
Ġrev ol
Ġdr am
Comm issioner
b oy
p et
Ġimprove ments
Ġm ix
out s
Ġmin ister
Ġperson ally
Ġabs ence
Ġc y
ethe less
Ġsh ut
Ġshoot ing
P E
Ġfr ust
Ġrem arks
Ġpoll ution
Ġpro sper
ac co
Ġf al
Ġre tain
Ġdelight ed
ĠC O
Ġqu iet
ĠJ ean
Ġtour ism
Ġbehav ior
Ġunder m
r ust
cept ion
Ġassist ant
Ġa verage
Ġpass es
Ġlar gest
e in
Ġs ize
Ġc as
Ġre aches
Ġv amp
Ġpur poses
Ġsubsidi arity
f ord
ĠH er
gar ia
Ġg ather
Ġreason able
Ġnat urally
on ia
Ġs ending
Ġjud icial
D o
Ġcom fort
ĠN at
Ġfact or
ik a
uck y
Ġsto pped
Ġcustom s
Ġchem ical
Ġg ar
Ġpl enary
ĠCy prus
ĠMon etary
Y et
Ġs light
Ġend ing
Ġwal king
Ġtax es
P er
ot hes
Ġ19 6
Ġcomp ar
in cess
ĠAr my
Ġres ort
Ġstruct ures
or ough
Ġp ark
Ġvot es
Ġreferend um
ĠN os
Ġrespect ed
Ġadop ting
Ġplay ers
Ġh ole
Ġrec overy
Ġvul ner
P ro
Ġair port
ĠSME s
ĠD utch
ĠAngel es
ĠL aw
Ġadv ance
Ġla un
Ġn ice
Ġsc ale
on el
Ġtra ged
Ġaf raid
y e
ĠCon t
j un
Ġh un
Ġt ape
p ay
Ġaccomp an
u an
ĠD ay
Ġcompet ence
ĠDan ny
Ġtack le
Ġmill ions
Ġdyn am
1 0
in al
Ġw akes
Ġdest ruction
Ġqu ant
Ġphys ical
v in
Ġ2 4
Ġlim its
tt p
Ġs we
Ġun iform
k o
Ġnum bers
ump ing
Ġprim arily
Ġend orse
ĠH ow
ĠBal k
Ġdescrib ed
Ġm ort
Ġcor ruption
Third ly
Ġcontin ent
Ġsurv ive
Ġfact ors
Ġdrink ing
Ġo ption
Ġfle es
A O
ur a
Ġso ft
Ġrob ber
ĠSwed ish
Ġsh ocked
Ġun ex
Ġcontrib utions
ĠUS A
ĠK ong
Ġevery body
ollow ing
anc ial
Ġsu it
ĠV ictor
Ġsy mp
Ġfoot ball
Ġcomm ittees
s pe
Ġh its
ĠH ead
ir ty
Ġ199 7
Ġrecogn ised
Ġmurd ers
Ġarrange ments
Ġtrad ing
Ġpropos ing
ĠServ ice
Ġg ender
Ġgra bs
ruct ural
ĠB h
Ġstreng th
ĠBul garia
Ġtw enty
ĠL ee
Ġvide o
Ġf ires
ri ers
Ġdeli ber
f ess
u able
Ġ6 0
aw are
Ġsubst ances
Ġoppos ite
u ate
Ġempt y
M ember
ĠD ep
Ġcomp liance
R e
Ġv es
Ġcont ained
Ġcitiz en
Ġprom ised
ĠN az
Ġcred ibility
Ġag ents
Ġinter rupt
ĠMc C
Ġcompens ation
Ġmax imum
j i
Ġj eal
Ġs port
Ġb inding
Ġcompl ain
ot ed
Ġcr ash
Ġb ird
ng en
n ch
Ġf o
Ġme at
Ġmin ority
Ġarm ed
Ġdisappe ar
ĠSwed en
in n
Ġglobal isation
Ġresol utions
ain e
g a
ĠH ol
Ġimp ression
Ġident ify
Ġreveal ing
p art
r ations
Ġs li
ĠD el
Ġbr idge
Ġmanufact ure
c us
d i
Ġre li
Ġex ists
om pl
ĠA gricult
ak istan
ĠP act
ak ed
ĠB rown
Ġfl ood
Ġad ult
Ġgl ass
Ġdraw ing
ĠG re
ĠTh at
Ġst uff
Ġpro portion
are t
ĠSer b
Ġim per
Ġcolle ction
Ġd ign
ĠA CP
ru ary
eb ruary
9 7
Ġaccount s
Ġc ash
el ly
Ġrem ove
Ġchang ing
Ġt ick
Th ose
f ield
Ġm erc
ite ly
Ġpay ing
Ġcod e
Ġment al
ad s
ze ch
il ty
est ion
Ġenem y
Ġinvest ments
Ġvehic le
ĠAmeric ans
ĠB ut
ashing ton
ues e
Ġexc lud
l im
p se
Ġto b
Ġleaders hip
at he
ĠP ublic
Ġp ure
Ġmin orities
Ġcor por
Ġencoura ging
Ġtrans l
Ġconsid ers
Ġsh o
Ġmob ility
bo ard
ag n
w an
Ġtro ops
Ġhop ing
S uch
Ġde als
Ġinnoc ent
Ġfin ish
Ġunc ertain
p ut
Ġb ill
ĠCal if
Ġsubsid ies
Ġsh adow
ab eth
ĠChar les
Ġcrimin als
id s
ĠM il
Ġbelie f
F ollowing
ĠJ er
Ġtempor ary
ĠC zech
en ger
sc ious
Ġth rown
Ġup set
Ġsal es
Ġn ames
ac es
u ild
Ġprotect ed
Ġconflic ts
Ġemphas is
ĠPortug uese
n am
Ġattempt ing
Ġfacilit ate
ĠSche ngen
Ġm ine
Ġpar al
eng th
Ġv ir
ific ations
Ġrequire ment
Ġ199 6
orn ia
et er
ĠM y
P T
ug ust
ĠRom a
Ġst ories
Ġrom antic
Ġl ic
Ġdis pos
ĠComm un
ĠSt ructural
Ġent itled
Ġg ri
Al so
ou b
ĠD ar
Ġrequ ests
Ġs ession
ĠAmend ments
us al
Ġbl ock
Ġamount s
ĠFund s
it ime
ĠJ eff
Ġdes ert
Ġjeal ous
Ġgra ve
and al
Ġwar ning
Ġexam ine
in ent
Ġc ow
Ġth orough
l ines
id er
Ġimp rison
ĠP ark
Ġexper ts
Ġgrow s
erv ations
Ġhig hest
h ow
Ġdec is
lus ive
Ġa irl
Ġadv ent
il a
ot ic
ĠP akistan
Th ough
Ġg iant
Ġcou s
Ġconvers ation
Ġm ilk
h uh
p ire
ĠB os
Ġcre ates
Ġwarn s
Ġdefe at
ĠD or
Ġrestrict ions
Ġtob acco
et ic
A b
Ġf ruit
Ġp roud
om s
et te
ost er
Ġfact s
u x
Ġdemand ing
L adies
act ory
Ġsubst ance
Ġf lying
ĠD o
ĠL ind
Ġext ended
at ter
Ġto uch
ĠK at
Ġpre c
Ġpenal ty
Ġpos sibly
Ġsurv iv
Ġdecl aration
Ġdistrib ution
Ġpl ants
Th ank
Ġresol ved
Ġdemonst rated
Ġorganiz ations
. '
c hen
Ġoper ating
Ġopin ions
Ġsav es
Ġdeep ly
Ġconfess es
Ġsuff er
Ġfield s
Ġlangu ages
Ġshort ly
ĠIs lam
i as
Ġharmon isation
Ġstri ke
Ġrepeated ly
ing u
Ġm ale
Ġmay be
er o
Ġun it
Ġelect ronic
ac hel
Ġbreak ing
Ġcreat ure
hag en
Ġdut ies
Ġoper ate
Ġ ice
Ġdef ined
w ing
l ers
Ġre lie
Ġcon ce
Ġus ually
Ġgu ilty
rou s
Ġdis g
Ġform al
Ġb ilateral
Ġph ase
Ġtravel s
Ġoblig ation
Ġno vel
Ġexcept ion
Ġp assion
Ġconstit utional
ĠW ashington
ian a
Ġtyp es
Ġl augh
Ġimp ose
Ġse lect
Ġbelie ving
Ġaware ness
Ġf ashion
ĠL aur
Ġdis ag
Ġar ticle
oth ing
Ġintrodu ces
Ġgu y
ploy ment
Ġmem ory
U nder
Ġdoes n
Ġcomple ted
Ġdist ur
Ġsupp lement
Ġpo ison
av i
Ġdeterm ine
Ġoccas ions
Ġexp and
D P
ĠD a
ĠH olly
Ġconv ention
Ġ2 2
ĠCh ris
ĠMex ico
Ġco ff
Ġ19 4
i pl
Ġs ick
Ġf resh
Ġeth nic
Ġfirm ly
Ġt asks
ĠF ebruary
Ġeffect iveness
ĠQue en
Ġca ve
Ġdro p
Ġrout e
Ġair craft
ĠCalif ornia
Ġinc ent
v ia
Ġconst ant
Ġval uable
Ġcompl icated
b ro
Ġprogram s
Ġfl ag
Ġarri ved
mb ud
Ġdemonst rate
Ġch osen
Ġjoin ed
Ġcondem n
m i
Ġto ler
se e
Ġown ers
Ġident ified
b or
ĠS at
ĠW il
ĠW all
ĠT am
ĠG al
l s
ĠBrit ain
Ġforth coming
ĠM o
e per
ĠR ad
Ġguarant eed
m ark
Ġwas h
th ur
Ġfact ory
l av
Ġtra p
Ġimpos ed
Ġun known
Ġret ire
Ġexec utive
Ġbirth day
ab ling
Ġp ool
Ġc ities
Ġdeath s
Ġfal se
g ie
Ġf it
re nd
Ġsh ares
Ġexp ensive
Ġgu ards
Ġconsider ing
ĠCong ress
h us
Ġanc ient
Ġass ure
L e
Ġprim ary
Ġobstac les
Ġbad ly
Ġscen es
ĠM ur
Ġcab in
Ġl ength
Ġsp ite
ĠSte ve
Ġs oul
st ood
Ġwe ight
fess or
u ated
ĠR a
Ch rist
Ġkn ife
Ġexperi ences
Ġannounc ed
ĠAfghan istan
Ġcomp ared
og ether
Ġacc ompl
Ġsub sequently
ĠJ ac
e er
Ġweap on
w ar
ĠA rab
Th us
Ġpass ing
Ġrece iving
Ġdifficult y
Ġfreedom s
ĠE ve
Ġflex ible
ĠP er
ĠH ong
Ġsing er
ĠEd die
Ġassum e
ĠRes earch
ĠAud itors
con t
Ġmor al
Ġor al
ang ing
Ġfis cal
ĠLu x
ĠP PE
Ġdet er
Ġdev ast
Ġvolunt ary
open hagen
Ġorph an
ĠA ir
Ġsett le
Ġre action
Ġin hab
Ġha ir
Ġsp oken
l ined
um er
ĠL ord
Ġappro ve
Ġopen ed
Ġnegoti ating
ĠJ ake
Ġman sion
Ġsing ing
Ġlearn ed
Ġvulner able
Ġpri est
Ġple ase
Ġsp oke
Ġappropri ations
Ġcl othes
Ġlegit imate
i pp
n oon
Ġfeat ures
Ġh our
op eration
Ġsuff ered
Ġpat ient
Ġexam ples
Ġtem ple
Ġal arm
Ġwr ite
Ġbe friend
ol es
ad em
Ġal le
ĠS ol
Ġdist in
ĠP art
el ess
ĠG o
Ġprocess es
Ġcontr ad
Ġflash back
Ġbuild ings
ĠS and
Ġnew ly
Ġfight s
T se
Ġan tic
Ġter rible
Ġh ur
ĠG reat
Ġl ived
Ġfor cing
ra ck
ĠJ ose
Ġrem ote
Ġkidna pped
op er
Ġav o
E x
Ġre nt
ul s
ri pt
ĠR os
Ġprot est
Ġl iter
Ġbet ray
Ġlarge ly
Ġtax ation
ij ay
Ġw oo
Ġb ond
ĠC lin
ĠCommission ers
ib ly
Ġfear s
g ain
ect ed
ĠMar ket
Ġtre nd
ĠAust ria
A C
d o
z en
Ġkid n
Ġst able
Ġv ig
ĠC openhagen
ĠH all
1 3
Ġo dd
Ġch amp
Ġexcess ive
ĠAgricult ure
9 8
Ġp hen
ar l
ĠTex as
f ree
Ġtraged y
ĠA ugust
Ġcor respon
ial ly
Ġgrand father
mbud sman
Ġm iles
as ant
pl ace
ĠN ether
Ġdeli very
Y es
Ġch ases
Ġinc lusion
Ġafter noon
ph one
Ġconclud ed
or al
ĠE nergy
ang ers
Ġmig ration
Ġim age
Ġsign s
Ġhead ing
J ack
Ġfisher men
he t
ra ged
Ġdise ases
Ġhistor ic
ĠS ir
Ġg amb
ĠV ir
Ġnever theless
Ġb are
ĠS un
Ġch a
Ġh ired
Ġ2 3
stit utional
Ġun aware
Ġsm ugg
Ġconfirm ed
ok ed
Ġhapp ily
S im
Ġfriend ly
Ġadm it
Ġbig gest
bur g
z abeth
Ġrec ip
Ġn ut
Ġpro of
Ġmon ster
Ġstrong er
ĠNA TO
h u
Ġprevent ing
Ġs outhern
ic ing
Ġfarm ing
Ġapprec iate
Ġhouse hold
Ġgener ation
Per haps
Ġdis asters
Ġpresent s
Ġrequest ed
Ġsold ier
Ġwelcom ed
ĠThom as
g ence
ĠJ ess
ĠL o
Ġlo b
Ġcontract s
Ġet c
ĠNether lands
an ny
Ġhe nch
Ġa ward
ĠSt an
Ġuncon scious
Ġshe l
Ġcor rupt
ĠLou is
h r
Ġle ts
ĠO li
Ġdist ance
Ġsuggest ed
Ġmeant ime
` `
Ġdoll ars
Ġsor ry
A ny
b ie
Ġfun eral
Ġste als
Ġadvert ising
Ġunex pect
Ġproceed s
Ġwat ers
Ġelectric ity
ly n
b a
Ġl ady
ĠS en
ĠD ave
Ġfunction ing
E U
S ub
Ġt ests
ĠR ule
Ġdispl ay
Ġdet ective
Ġsw im
Ġt ension
ĠA z
Ġtra pped
Ġwat ches
Ġany way
Ġs now
ĠG ene
Ġbo oks
ĠLux em
Ġon going
Ġoper ators
Ġex empt
Ġconf ident
Ġgrad ually
ĠBer lin
Ġhundred s
Ġdivor ce
Ġfac es
Ġargu ments
Ġremo ved
Ġv ast
Ġwor st
Ġunf air
ĠGeorg ia
ĠDan iel
Ġassoc iation
ĠIsrael i
Ġmar ries
0 3
Ġal t
With out
ĠCar ol
enc ing
Ġs pect
Ġto ugh
ce an
Ġoff ering
Ġperfect ly
Ġm outh
Ġse qu
Ġcoop erate
ĠP re
Ġro of
Ġtr ick
Ġreach ing
Ġtrou b
ĠPl an
G eneral
Ġbl ame
or ous
Ġpro sec
ĠAl ice
u zz
Ġtra gic
Ġplay er
Ġlab elling
G iven
Ġpo ore
M ost
Ġjust ified
Ġexper iment
Ġin qu
Ġnot es
ade qu
L A
Ġt ent
ro p
em a
Ġreport ing
Ġcor ner
Ġ They
Ġch ain
ip s
Ġbl ue
Ġland s
Ġdign ity
Ġtrad ition
Ġur ban
Ġintrodu cing
Ġcontain ing
ol k
ĠK e
Ġschool s
Ġalloc ated
in ating
ĠO ffice
ĠB ig
Ġl ake
ĠC am
Ġtechn ological
Ġrelative ly
ĠSocial ist
Ġassign ed
ĠSus an
m ail
he art
Ġthe ater
Ġart ist
Ġsell ing
ĠBudget s
g l
Ġwe aring
ĠV iet
Ġ \/
Ġpro hib
Ġvis a
Ġcollect ive
Ġwitness es
Ġsuspect s
Ġwid ow
Ġc ul
Ġbe ings
Ġsearch ing
Ġproceed ings
Ġintel lect
Ġsh ape
ĠInd ust
Ġitem s
b ar
v ille
it ect
ĠE ll
Ġwork er
ev in
ĠLuxem bourg
es h
lic op
Ġmin ute
Ġacknow ledge
Ġmin isters
A d
I S
ĠS yl
Ġch ann
Ġseem ingly
Ġpurs ued
rel ated
k in
Ġstrate gies
Ġg rown
Ġrel ates
Ġexpect ations
ĠN G
Ġattract ive
Ġdism iss
Ġhe licop
ber g
Ġin adequ
Ġsk y
Ġfour th
Ġre ass
ĠA sia
ĠO mbudsman
Ġcoll abor
Ġtrans ition
Ġas ide
Ġpl at
ĠK ate
ort ion
Ġsc ience
Ġpal ace
Ġp ir
ĠLis a
Ġnar row
Ġcontact s
ras bourg
Ġint entions
Ġco al
Ġacc used
Ġill ust
act ive
Ġsuspic ious
Ġpill ar
et ty
ĠT y
cess ion
Ġrem ark
D r
Ġn ine
se ts
ig er
ok es
Ġrev olution
Ġforg ot
Ġaccompan ied
ĠF ar
ĠN or
Ġprof it
ĠBar roso
ĠBal tic
Ġ199 5
f ere
Ġbroad cast
Ġn obody
oc ket
Ġan ger
Ġbelie ved
Ġgreat ly
Ġsmall er
Ġcous in
Ġst ocks
ĠFr amework
Ġr ushes
uc cess
Ġmult ip
h um
at o
Ġext ension
Ġlar ger
ĠSt rasbourg
Ġsav ings
Ġreal ise
Ġstat istics
oub ted
D on
ĠR ock
ĠL arry
Ġfe et
Ġdevelop s
Ġest ate
9 6
Ġun ited
ĠAust ral
C an
Ġass ault
ad d
ear ing
Ġrepresent ed
Ġfulf il
ur se
Ġimport s
Ġrest ruct
Last ly
ĠE ric
ĠJ ason
Ġco vers
Ġpolic em
Ġcare ful
Ġre iter
Ġch ap
ĠW ood
P e
m o
Ġindust ries
Ġsum m
Ġclaim ing
M ay
as ion
Ġdemoc rat
Ġsp ends
Ġsp ring
Ġsent ence
Ġmaterial s
R O
Ġe gg
ĠBob by
or ters
e or
Ġh am
Ġm al
It s
Ġdesper ate
m et
z y
ĠT reat
Ġt ze
c ase
m ates
Ġtra il
Ġend ed
Ġref used
Ġfac ility
ĠR i
Ġdro ps
Ġh ides
ĠF ederal
Ġunder stood
Ġref use
Ġ id
Ġst one
Ġus ual
ĠY ug
Ġengage ment
Ġdecis ive
ĠC a
ĠM aj
ĠSt ability
am i
e conomic
Ġd ad
Ġrapid ly
ic an
Ġmar itime
b re
Ġrep lies
Ġrev ision
Ġsuper vision
ĠHel en
B I
Ġship s
rif ied
Ġin ev
Ġcl iff
Ġimp ress
Ġsupp lies
Ġprofess ion
Ġwood s
Ġt ail
Ġpro ves
Ġviol ations
Ġpie ces
Ġsub mit
ĠAl liance
C l
Ġneighbor hood
Ġprosper ity
Ġpro ved
Ġsh ock
ĠPro fessor
Ġfamil iar
Ġm useum
Ġmaintain ing
Ġref ers
Ġelse where
Ġexperi enced
ĠEC U
Ġarch itect
ad vant
pp y
Ġreport ed
Ġappear ance
oubted ly
ak sh
Ġacknow led
ed s
Ġtravel ing
ĠPr ince
Ġmar k
Ġsignific antly
Ġbehav i
ĠBalk ans
u ce
Ġvis ited
el a
um n
az a
Ġquot as
em b
Ġcred its
Ġf ired
Ġcop y
Ġattract ed
Ġt te
st airs
ĠSt ep
Ġapp lying
Ġvis iting
Ġdis advant
Ġspec ies
Ġtax pay
Ġsurround ing
ĠTreat ies
Ġinv ited
Ġthreat ened
Ġphot ograph
y o
om an
Ġconduct ed
Ġacqu is
i os
Ġreg ist
ov a
rodu ct
Ġpass enger
ĠSm ith
ĠC omp
Ġcent re
Ġgun s
Ġun like
Ġassoc i
ĠSu per
Ġg od
ĠCh ic
Ġiss ued
Ġ2 6
Ġref erring
Ġdi am
Ġge ograph
c are
pe ll
ik o
Ġrecogn izes
ul f
Ġcour ts
Ġval id
Ġopt ions
Ġf er
ĠC AP
Ġgenuine ly
Ġh al
Ġwor ried
ab e
ĠV en
Ġoper ational
Ġcoll aps
ĠS il
Ġless ons
Ġdestro ying
ĠFin ancial
Ġb att
ĠV ice
Ġconstit ution
Ġterror ists
1 1
R eg
Ġsc andal
w in
it i
st ruction
ather ine
Ġdeterm ination
y es
Ġb ow
cent ury
Ġ5 00
Ġann ounce
Ġvict ory
ĠLat in
Ġins ult
Ġhistor ical
I A
Ġve ter
Ġph il
v ene
as hed
ĠC ast
Ġst ays
Ġrealiz ing
ĠAs sembly
Ġj umps
ĠF irst
Ġno ise
Ġfil ms
ĠKore a
r ut
el le
pt h
Ġco ach
Ġent hus
Ġhost age
Ġsatisf ied
k ay
ĠS a
Ġsur ve
Ġincre ases
ĠAg enda
Ġsignific ance
Ġexplo itation
Ġh olid
Ġus ers
Ġannounc es
Ġtort ure
Ġb rain
Ġcan cer
ĠN orthern
aff y
Ġdepend ent
ĠSecret ary
Ġ 0
Ġrest ore
ĠPol ice
ĠFranc is
im a
ap se
Ġra pe
ĠA ction
Ġ8 0
Ġrail way
ĠO n
w are
Ġm ic
ĠG rand
Ġdec ent
Ġrep ut
Ġconfron ted
Ġsens ible
ĠSing h
Ġenforce ment
ĠR on
Ġsecond ly
Ġhum ans
Ġcl ause
Ġra ising
Ġdri ven
Ġresist ance
Ġrobber y
ĠClin ton
Ġpre ced
Ġunder w
Ġthreat s
Ġreal istic
Ġinnov ative
W ell
Ġmar gin
Ġlet ters
Ġlaun ched
Ġp ra
Ġexplan ation
oh an
Ġfl at
Ġche cks
ĠAd am
Ġsen ior
Ġa x
iet ies
Ġgrand mother
Ġreluct antly
s ing
it age
ĠG ra
Ġprofess or
h ttp
ir y
Ġde ce
Ġund oubtedly
ĠB oy
Ġwrit er
Ġdefin itely
os lav
ĠMar ia
r ary
ĠJul ie
Ġp icks
se y
ĠT ra
Ġdec ades
ĠE r
Ġfrequ ently
Ġm ap
Ġm ouse
Ġpolit ically
uff s
Ġbott om
Ġresident s
ĠO b
Ġd rown
Ġv ent
ĠT o
Ġtra cks
Ġide al
Ġprep aration
Ġkn ocks
Ġ There
ĠM ah
au nt
Ġlo yal
Ġtop ic
Ġz one
W here
u els
ĠC roat
ĠK im
al y
Ġleg ally
Ġfoc used
Ġstrengthen ed
il i
Ġse at
Ġth r
Ġaccident s
ar on
Ġl uck
Ġprep ares
Ġbehavi our
m osp
ĠSt ar
ĠCont rol
Ġent ered
Ġexc lusion
S am
Ġinf ring
Ġcapt ain
Ġaw ak
Ġcal c
ĠLaur a
Ġrom ance
Ġf ake
ul ous
Ġdes p
or ne
if er
Ġse ason
Ġun ique
Ġurg ently
j ay
Ġqual ified
Ġbeg un
Ġact or
âĢĻ .
Ġdoub ts
Ġopt im
ĠInter governmental
Ġf illed
art ment
Ġsche mes
Ġt ight
ne cess
ĠSc ot
L ike
Ġat mosp
Ġj ew
ĠR ose
Ġmag n
Ġb es
ĠD ou
ĠJ un
Ġp ays
Ġfort une
Ġcohe rent
ĠBos n
Ġfac ilities
od es
ĠO ne
gg ed
ĠProt ection
Ġinterpret ation
er ved
Ġin her
Ġover he
Ġsleep ing
Ġtim et
ĠSlov ak
ĠYug oslav
Ġs ake
ĠC ivil
ri er
Ġinhab it
v i
re a
am ing
Ġgu ide
v y
ab ilities
Ġtool s
b orn
Ġ iron
ĠBr ad
Ġcod ecision
e av
Ġessential ly
Ġcoord inated
Ġh urt
Ġst yle
Ġdiam ond
ĠT un
ĠAr thur
Ġvar iety
200 1
ĠEli zabeth
Ġwant ing
Ġimag ine
Ġs ports
er b
ĠOrgan isation
ĠUn iversity
Ġra in
Ġhealth y
Ġpunish ment
E l
Ã ¼
Ġ lying
Ġf ool
Ġst im
Ġvill agers
r un
Ġinc omp
z o
Ġf right
ĠM i
ĠA c
Ġstri kes
m ond
ĠSant a
A R
ĠSt reet
Ġdef ine
Ġfle et
Ġdepart ment
ar an
us hing
ĠD ec
Ġun necess
Ġwhere as
Ġbo ost
Ġdisappoint ed
r ance
ĠD ub
Ġdeb ating
Ġclar ify
Ġw and
ro vers
Ġloc ked
m ate
Ġadv ances
sc ale
Ġz omb
ĠTrans port
Ġend eav
ict s
Ġrelig ion
ĠCan ada
Ġs and
Ġext ensive
Ġmob il
ĠNG Os
Ġdist ract
Ġdecl ared
ĠJew ish
ut en
Ġv ary
form ation
erm an
ĠSim on
Ġb reat
Ġsp ots
Ġill ness
ig nt
Ġcomp on
Ġrep orter
Ġfail ing
N e
Ġc ert
Ġp ush
ĠA li
Ġunivers al
Con sequently
re ll
ĠS ud
art ial
all s
ĠH ome
Ġprodu cer
: \/
A S
st r
Ġres idence
av al
Ġpersu ade
Ġord inary
Ġc ore
ĠG old
Ġaffect s
:\/ \/
Ġs em
ĠT ib
Ġens ues
Ġresc ued
Ġab stain
Ġcont est
Ġadv is
ĠProt ocol
Ġd ancing
Ġ2 8
Ġmon op
Ġhelicop ter
Ġmist akes
Ġpart ly
Ġple asure
ĠLe on
ĠFund amental
st ein
ĠH an
Ġtri o
Ġconstit u
Ġun iversity
Ġbar riers
Ġpain t
Ġoccur red
c king
Ġeas tern
m ony
ĠB as
Ġhighlight ed
a ire
im p
ĠE P
Ġint ens
Ġheav ily
Ġlegit im
Ġre ward
Ġkind s
N L
u a
Ġt act
av an
ĠCh and
igh ter
Ġfair ly
S c
Ġnegoti ation
Ġord ered
e z
Ġsc ar
Ġrepl aced
Ġretrie ve
1 99
Ġs ought
ĠI m
qu ar
Ġar gue
Ġmurd ere
ĠAss oc
I D
Ġorigin ally
Ġsovere ignt
Ġthreat ening
Ġbed room
Ġterrit orial
Ġe ast
Ġst ick
ĠAnd rew
Ġreput ation
Ġg ap
ro t
Ġcut ting
Ġf an
ou red
ak i
Ġprof its
Ġwin ning
or i
Ġprot ocol
ĠPet e
Ġscient ists
Ġsteal ing
Ġcere mony
al ed
ĠM er
ĠG DP
Ġbusiness man
ĠPro di
Ġstru ck
Ġspl it
Ġneighbour ing
Ġins p
Ġamend ing
y m
S ud
Ġcomb ined
Ġantic ip
r ass
hold ers
Ġundert aken
m ission
or ney
ate ll
Ġacc ur
ĠChic ago
Ġst ating
Ġen vis
Ġspe ll
Ġent ering
Ġsur re
Ġpres um
Ġrepresent ation
Ġhom es
Ġslight ly
ess ed
w hel
ĠE v
Ġread s
in stitutional
Ġc ig
ro s
Ġves sels
ĠS ad
Ġha unt
Ġsubject s
og rap
Ġarri ving
i at
Ġsu gar
Ġaccomp any
Ġhous es
Ġscient ist
Ġreluct ant
Ġsurviv ors
ĠHolly wood
Ġcont rovers
Ġobli ged
as y
ĠB ush
Ġprodu cing
Ġche ap
o ard
Ġelimin ate
Ġsovereignt y
1 2
Ġm ac
Ġappro x
Ġstrugg ling
raz y
Ġdram atic
ro te
less ly
Ġp age
ĠPol ish
Ġun re
Ġpurs uit
Ġbeat en
Ġn urse
ul ed
Ġtown s
spect or
Ġdispos al
ĠL am
h y
ĠP ost
Ġhard ly
O r
Ġd anc
Ġn om
Ġres ign
Ġher itage
Ġlo ved
Ġdisc ipl
Ġdep ends
Ġencoura ged
af ety
f ire
st one
Ġser ved
Ġsuff ers
sequ ent
om ing
Ġn orthern
ĠC as
Ġdisp ute
ĠHung arian
Ġl inks
Ġg ay
ut or
ĠBar b
Ġf lies
Ġdef icit
Ġtrans f
Ġrespect s
ĠJo an
R aj
ir able
ĠServ ices
Ġt ies
Ġextra ord
ĠC at
ĠS k
Ġres um
Ġcr ashes
Ġimpl ications
D A
ell s
Ġseem ed
Ġindic ated
S P
im ents
by e
ĠKy oto
id a
ĠCh ief
Ġinter vene
Ġconstit ute
ol m
ĠT ed
act ions
ĠFis heries
le vel
Ġsett lement
is p
Ġe ating
i xt
an o
ol ic
Ġpict ures
Ġl it
ub e
Ġexpl icit
Ġprospect s
is a
Ġuns uccess
ĠHead s
Ġlo an
Ġresult ed
Ġenh ance
E n
pe l
Ġsu itable
Ġyour self
erv ative
Ġli ber
Ġanal y
Ġvac ation
Ġbeg s
Ġre n
cl ass
Ġregret t
Ġj e
Ġcomp at
Ġhon or
Ġmaintain ed
Ġvamp ire
i pped
l ife
ĠF er
Ġa st
ĠE st
ĠB on
ĠEm ployment
ĠM ir
ĠK evin
Ġar ise
Ġra ises
Ġ199 0
Ġconver gence
Ġg ift
ust er
ĠW in
Ġact ively
Ġworld wide
ĠY ear
J erry
Ġact ress
Ġrelationship s
Ġdeser ves
ra ction
ĠL ib
Ġf ro
ha ust
Fr ank
on om
Ġw ake
ĠN ic
ĠO s
Ġ3 1
Ġmult ilateral
Christ ian
Ġhon our
Ġconcent rate
ĠCons umer
ĠGre ens
ĠS und
Ġli qu
ĠIntern al
Ġa unt
ĠCol onel
Ġrat ification
Ġceleb rate
ĠT ok
ĠF BI
ĠK en
Ġent re
j ud
w en
Ġex ceed
qu ality
ĠH o
ĠH owever
Ġbudget s
la im
Ġtele phone
Ġrad ical
Ġexec ution
Ġsufficient ly
A L
Ġover whel
Ġsur face
Ġrestruct uring
en ch
im b
Ġstr ing
Ġcent res
Ġmem ories
Ġsole ly
n or
at i
Ġw is
Ġsh aring
Ġintellect ual
Ġst ressed
Ġsh ar
ĠL ittle
ĠK ir
Ġamend ed
Ġf ant
al ing
Ġfir ms
Ġ2 9
Ġaddress ing
Ġmis under
o oth
Ġt ank
are n
ach ing
Ġconf usion
Ġret reat
Ġescap ed
Ġs ons
Ġv ic
Ġsub sequent
Ġent ertain
ec hes
Ġperform ing
Ġreflect ed
Ġretire ment
g en
Ġdo ors
Ġcompet e
cel ona
Ġev ident
. )
Ġw o
ĠG r
Ġexpl ained
Ġmot iv
Ġphen omen
ĠV ijay
Ġwilling ness
Ġr um
Ġdog s
Ġforgot ten
Ġqu ote
Ġhor ror
Ġcontr ast
ĠB ab
Ġspeak s
Ġsure ly
Ġhe nce
ĠT our
Ġfoc uses
Ġlif est
ĠJ enn
ĠK h
Ġconc iliation
Ġt ied
Ġt rees
ak a
Ġthan king
Ġpriv ile
ĠConstit utional
Ġsatisf actory
op ard
Ġdo ctors
Ġdirect ed
ĠRep resent
Ġb at
ĠB ern
ĠK am
Ġneg lect
Ġreject s
Ġcli ents
Ġinadequ ate
id ers
Ġmost ly
Ġachieve ment
Ġmist aken
S ever
ar io
Ġinst all
Ġsent enced
Ġbase ment
b l
ad o
em pl
ĠA k
Ġact ors
Ġche st
Ġurg ency
Ġcal m
Ġexplos ion
Ġj ump
Ġshe riff
ĠBar celona
uls ory
Ġs isters
ĠB ud
ĠT re
Ġunder ground
Ġtal ked
ĠN orm
Ġpos sibilities
aw ay
Ġphil os
os is
Ġcomp os
Ġper pet
Ġfl o
Sh ort
Ġunemploy ed
Ġwe b
Ġcol on
Ġprep arations
he m
ĠR od
Ġhuman ity
Ġrespond s
ĠMor oc
re ts
Ġprison er
Ġdev ice
uff icient
Ġstay ing
Ġwrit es
Ã Ń
Ġbare ly
Ġlob by
ĠAssoc iation
% .
Ġfore ver
Ġclos ing
Ġr ising
ĠLuc y
Ġto uc
Ġbur ied
Ġwid er
Ġreun ited
Ġw est
ĠB ec
Ġconsider ably
Ġf asc
Ġex ports
ĠD es
Ġaw a
Ġ7 0
od d
Ġli kes
ĠK al
Ġemploy ee
or ate
Ġv en
ret t
uten ant
Ġt ur
im al
Ġcar ries
comm un
E ach
Ġs ke
ĠAm y
Ġrecogn ize
Ġweek end
Ġwelcom es
Ġshel ter
ĠL es
ĠH y
ĠJose ph
Ġpro stitute
Ġlist ening
N ew
t ion
Ġrein force
Ġm aid
Ġgu ests
Ġalong side
Ġpure ly
ast e
Ġra b
Ġcommun ications
Ġcorrect ly
Ġsucceed ed
Ġweak ness
Ġmin or
Ġobtain ed
Ġintellig ence
ĠSerb ia
J im
Ġh ill
Ġup d
Ġro c
Ġdist ort
Ġign ore
Ġsne aks
Ã ³
Ġp apers
ĠT ime
Ġdis abled
Ġpat ent
Ġapplic able
ĠV ik
Ġhunt ing
ĠM os
ĠO ld
Ġnecess arily
Ġencoura ges
Ġmic ro
Ġs its
E L
s en
Ġb ought
Ġf inger
Ġ201 1
ar ged
ĠS on
ĠWh at
pre ne
ĠCub a
uild ing
Ġatmosp here
Ġmod ified
ĠAnd y
Ġp ig
Ġcompet ent
Ġstrugg les
Ġa h
Ġl oud
ĠR en
.. .
Ġw estern
ill ance
ĠCh air
ink ing
Ġprincip al
Ġu pper
ves ter
Ġbath room
quar ters
a an
it ative
Ġex haust
ĠB rian
per or
ĠFin land
Ġchair man
ograph ic
Ġstab il
Ġhang ing
ĠL SC
ĠAl b
Ġtre asure
1 5
Ġg all
ĠT ri
ĠH aw
az e
ĠLe ft
Ġdeli vered
ĠAust rian
o ch
Ġspe eches
Ġcor pse
Ġphenomen on
i able
Ġw rote
Ġd ressed
Ġav iation
Ġdict ators
F our
Ġexplain ing
Ġloss es
Ġwhe el
Ġce iling
Ġinhabit ants
g ent
are r
Ġtest ing
Ġworry ing
Ġobser ved
ul ates
Ġab road
Ġtw ice
Ġind irect
Ġexp ense
ĠTh urs
Ġconsequ ence
isc rimin
Ġreconc ile
w ith
il m
Ġbe ats
ie ce
Ġun us
ĠN ice
Ġdeb ated
Ġsustain ability
Ġhar ass
Am ong
ĠCroat ia
n i
Ġb le
um ar
Ġsit es
Ġcivil ian
Ġarr anges
Ġdiplom atic
ĠJ enny
Ġneighb ours
D e
Ġdec la
Ġpurs uing
Ġrecon struction
in er
Ġo kay
qu is
Ġjournal ist
Ġteach ing
Ġbe ef
Ġregular ly
Sever al
Ġn urs
Ġan x
Ġen abling
Ġsc hed
ick ed
Ġed ge
Ġbrut al
Ġinterrupt ed
E d
j o
ĠR yan
ĠJ am
Ġfi anc
ĠBosn ia
Ġmar ked
Ġgu ilt
hip s
Ġ9 0
Ġcoll apse
Ġn in
ak ers
ork y
Ġmedic ines
or o
Ġlo ans
Ġpr ime
ĠDan ish
Ġfr ame
Ġdecla res
Ġj ur
Ġman ip
Ġpresent ing
den ly
Ġroad s
ĠTib et
Ġas sets
Ġloc ated
Ġhous ing
il arly
Ġg ames
Ġmean while
ĠEd ward
Ġtransfer red
Ġsurve illance
ĠG AO
Ġsa il
tic les
Ġtimet able
i pping
Ġtarget ed
Ġresc ues
ĠR og
ĠL ady
Th ree
Ġcomp lement
Ġtrans itional
ĠM at
Ġcover ing
oph ob
Ġreflect s
Ġhes it
Ġwe ather
ĠMar g
Pe ople
Ġgener ations
Ġwit ch
Ġh ires
le l
ĠT erry
Ġme re
Ġregard ed
E N
Ġser ves
ors es
Ġpromot ed
Ġopp ose
ĠRaj a
Ġcondem ned
ir ms
Ġdestro ys
Ġp orn
Ġr ational
Ġconf used
Ġbas ically
Ġrein for
Ġp it
ĠC r
ter ing
um s
Ġatt ached
Ġwall s
Ġunnecess ary
0 4
x ual
Ġn it
Ġbe aring
Ġmore over
Ġsome where
al es
Ġli b
Ġsp y
Ġdet ect
Ġfew er
ĠScot land
Ġs ale
Ġk it
Ġab oard
ĠK han
Ġexpress es
Ġcust ody
raz il
Ġexpos ed
Ġreli able
du c
Ġsoc ieties
ĠD et
Ġfa ult
Ġdiv ided
Ġport s
Ġep is
Ġext ending
Ġrespect ive
Ġcandid ates
Ġemot ional
? ?
ĠMor gan
Ġp act
Ġp ocket
Ġd ating
Ġst uck
un a
ĠJ ones
con s
Ġesc ort
Ġcru el
Ġmag az
ĠF ood
Ġnegoti ate
Ġpersu ades
cher s
C ar
ĠE M
Ġconnect ed
ĠThurs day
Ġpro stit
Ġwhere by
Al ong
Ġmount ains
ath i
ĠEx ternal
c ount
i ens
ĠB y
ĠB ureau
ĠK elly
Ġoff ices
rat or
Ġopp on
ĠBelg ian
Ġfavor ite
ĠM en
Ġperiod s
Ġamb ition
Ġburn ing
ĠMic hel
Ġemploy ers
Ġrecord s
Ġele v
Ġexam ined
Ġvol ume
ĠT em
Ġleg end
E R
S p
Ġw ise
Ġn a
ist ent
Ġtw in
Ġsc rut
Ġadv anced
Ġrac ism
is her
Ġf ought
Ġrel oc
Ġcar bon
ĠR achel
Ġreven ue
ol t
Ġcan n
ĠV AT
aw a
man n
enn ium
Ġguarantee ing
Ġthrow ing
ĠB ang
Ġbus y
augh ters
ograp her
re p
ol it
Ġst ars
ĠMar ie
Ġdri vers
ĠFin n
ĠBelg ium
Ġhench men
Ġtun nel
Ġwin ter
ĠLi ber
Ġrat ified
ĠN ik
Ġcli ent
Ġimprison ed
Ġentre prene
Ġhe l
ge ant
itiz ens
els on
at lantic
el ine
Ġsh r
av y
ens es
ian o
Ġafter wards
S ee
Ġp upp
Ġch arm
Ġcomp ulsory
Ġfix ed
Ġinfring e
un ately
Ġdef ending
CO M
N or
g un
urn ing
Ġprocess ing
ash a
Ġtaxpay ers
Sud denly
Short ly
Ġroc ket
D oes
Ġt iny
Ġra re
Ġcustom ers
a ver
h t
h il
Ġco ok
Ġconc ert
Ġtext s
Ġbeaut y
Ġp a
Ġv on
Ġdist rict
Ġsw itch
âĢ ĵ
Ġinter pre
Ġsuggest ion
ĠA uth
ĠW olf
Ġ19 5
Ġdev oted
Ġc attle
Ġshow ed
Ġconsider ations
ann ed
Ġgamb ling
Ġto ys
ĠS afety
Ġex hib
ĠL ith
Ġsepar ated
Ġisol ated
Ġlifest yle
ĠB arn
Ġcoop er
Ġmom ents
Ġteen age
Ġdeter ior
P aul
Ġs at
Ġo cean
Ġl one
Ġsome body
Ġblack mail
ĠCla ire
Ġsh ame
ap h
Ġcontroll ed
Ġdemonst rates
Ġemer ges
O ut
Ġac adem
Ġrec ru
Ġcho ices
ĠEm ily
Ġpain ting
ĠViet nam
Ġ [
Ġs ch
ri g
Ġsusp ended
ĠWal ter
Ġcha os
Ġa ven
Ġg arden
Ġas leep
row th
Ġjoin ing
Ġsevere ly
2 000
? "
al ph
Ġout standing
ĠDe f
ĠCar ter
Am end
Ġgover ning
ĠRe port
enn is
Ġgrant ing
Ġsqu ad
Ġembar rass
ur i
se ll
Ġdead line
B l
Ġt ears
Ġin equ
sion s
ĠG M
ke ep
Ġestim ated
ĠP en
Ġref lection
ograph y
Ġli ked
Ġteam s
Ġdiv ision
Ġbro ke
ĠAn nie
Every one
f it
Ġr ub
ĠG ord
Ġjust ify
Ġsucceed s
le ts
ĠP an
ĠP ers
Ġremind s
Ġmultip le
ay lor
ĠL ew
Ġm oon
ĠC ath
ĠM s
ĠW omen
ung le
Ġharm ful
Ġwitness ed
ĠRepresent ative
Ġc ite
Ġv oc
ĠG ab
Ġshe ep
Ġopen ness
Ġg ains
ĠP ac
ĠL y
ĠSt at
Ġtra ce
Ġs le
oth y
Ġ3 5
Ġsk in
ĠReg ional
ĠB razil
Ġint ense
ĠG i
Ġpension s
ĠDep artment
ĠB SE
Ġres ervations
Ġaccept ance
Ġfore most
Ġve get
ĠD un
Ġapplic ations
ww w
D av
S te
if ts
ĠT al
Ġemploy ed
Ġnon etheless
Ġpost al
Ġlight s
ard ing
el ing
ĠF ather
ag ger
Ġcitizens hip
Ġcontrib uted
Ġtrib e
T ogether
l ot
om in
se en
all ing
ĠH ans
Ġaut onom
Ġt ang
Ġl unch
Ġinv ite
R eal
Ġ era
Ġth ief
ut y
B ar
age ment
Ġeconomic ally
Ġcountry side
Ġviol ation
ri ption
ĠM ount
Ġr an
Ġlo vers
Ġfin ished
Ġmarket ing
Ġjud gment
d a
ab ot
Ġtrans actions
Ġisland s
ĠDon ald
Ġenh anced
ĠMus lim
Ġp ipe
ly mp
Ġman aging
ob y
ĠHung ary
Ġro w
ĠCh urch
Ġrese ar
ĠBar on
Ġbureauc racy
Ġdisag ree
Â Ń
Ġser ving
Ġper sec
Ġevery where
ĠIs land
Ġaffect ing
Ġsho pping
Ġpoore st
Ġlegitim acy
Ġh os
Ġaccept ing
ĠEuro pol
Ġt empt
Ġpurs u
Ġcorpor ate
it o
el ve
iv a
ĠPresident s
Ġcertain ty
Ġmod els
Ġje opard
ut t
ĠG reg
Ġab d
og an
Ġdraw s
Ġexperi encing
Ġincent ives
Ġch ased
Ġtr icks
Ġcr ises
Ġprom ising
Ġaud it
Ġun b
Ġcomm ission
ĠSocial ists
Ġsacrif ice
N on
Ġth res
ĠComm on
Ġstud io
Ġmanufacture rs
Ġsecret ary
Ġconfront ation
ĠB ay
ĠF e
ĠD affy
Ġins ufficient
Ġmob ile
Ġdisappe ared
Ġgreen house
r iment
or ious
Ġsome how
Ġpresent ation
Ġexpress ing
ĠAnt on
Ġmedic ine
ĠVir gin
ĠE ri
Ġmus ical
ĠMaj or
ac ing
Ġown ed
ĠIn spector
Ġdeal er
Ġinfl ation
Ġsupposed ly
Ġfif teen
ĠMag gie
Ġconsc ious
M ed
Ġse ar
Ġexcept ional
j u
Ġover lo
ivers ary
Ġconstit utes
Ġfoot age
Ġe lig
Ġg rat
ĠS o
ast s
Ġcoin c
st al
ile y
Ġdet riment
Ġbroad er
ĠBudget ary
Ġc oc
Ġb io
Ġdes erve
Ġpick ed
Ġal iens
Ġregard less
Ġsuper vis
ĠLi beral
ĠKore an
Ġkit chen
A meric
ol ved
Ġcon ven
ant e
app ro
ĠAt lantic
chn ology
Ġless on
Ġsuggest ions
Ġment ions
Ġst ations
Ġcl in
ĠO ff
Ġparticip ants
Ġadvant ages
Ġjournal ists
Ġbefriend s
Ġco ol
Ġrep air
Ġ3 00
Ġform ula
Ġreject ion
Ġdro pped
rich t
ĠG over
uk i
Ġsatisf action
ĠIslam ic
Ġpro p
Ġcou nc
Ġholid ay
k ind
ĠM un
Ġst al
Ġsm oking
Ġpri ze
ĠCo operation
Ġsil ent
Ġquar ter
l ord
ay a
fortun ate
Ġconclud es
ru ce
Ġdisappe ars
ĠHow ard
Ġmurdere r
Ġs atell
it als
Ġn ative
Ġassum es
Ġm as
ast richt
gr ily
Ġnational s
Ġearth qu
Ġbe ating
ak ings
ĠB etty
Ġinc red
Ġmar ks
Ġtal ent
Ġopen ly
Ġeduc ational
Ġindic ate
LA F
ĠTun is
Ġthres hold
Ġf est
ĠAl bert
Ġann oy
Ġinvestig ating
Ġdescrib es
ĠPhil ip
B en
or p
Ġd aughters
ĠB ow
ĠD uke
ĠO lymp
Ġste el
Ġincident s
ĠNaz i
u v
am an
ĠK rish
Ġatt orney
Ġnegoti ated
Ġemer ging
Ġprompt ly
ĠDub lin
I I
g ers
Ġ error
Ġc ards
as p
ri el
Ġr ough
Ġpl ed
Ġun ha
Ġhead quarters
Ġmir ror
A re
Ġcl othing
Ġgu ys
Ġserv ant
B ob
k ins
Ġthe ory
Ġha z
ĠH it
Ġun fortunate
Ġdocument ary
N at
Ġcent uries
Ġwonder ful
ĠSlov en
ĠT imes
on ing
Ġsw ift
ĠMex ican
Ġreiter ate
G eor
er ves
ĠS ak
Ġan grily
Ġrev ised
Ġprevent ed
Ġemphas ised
Ġthought s
cl ub
Ġstab s
Ġdynam ic
iti ative
ĠG en
ab el
Ġcomm its
ĠV eg
Ġfav ourable
Ġmult i
Ġincorpor ated
ĠM olly
el ie
Ġrec y
Ġhand le
Ġann iversary
Ġsound s
Ġrevol ves
Ġcoff ee
Ġsequ ence
Ġre nd
Ġappe ared
ĠAngel a
Ġairl ines
Ġrelie f
af ia
Ġlawy ers
Ġrid ic
Ġregrett able
Ġpres erve
Ġ199 4
Ġsurpr ising
M an
Ġst umb
um ph
Ġchap ter
ĠRi ver
Ġgeograph ical
Ġextraord inary
Ġjur is
ĠAuth ority
O b
Ġb orrow
or age
Ġar ts
Ġmar ine
Ġpr incess
Ġsm ooth
Ġocc urs
Ġunanim ously
Ġphilos oph
e ers
Ġs in
Ġpret ends
ĠMa astricht
Ġcomplain ts
N ext
l ock
Ġprot ests
ron t
Ġperm it
Ġw ave
ist ical
Ġfound ations
Ġassass in
Sub ject
Ġwe ar
Ġenvironment ally
Ġadm itted
ĠDen mark
2 5
Ġoccup ation
Ġspeak er
ĠLe ban
Ġexc use
A gain
Ġin ad
Ġun p
Ġcirc us
Ġwarm ly
ch o
gress ive
Ġgang ster
Ġhop ed
Ġsil ence
Ġb iod
ĠT ar
Ġremain ed
Ġdecl ine
Ġin eff
ol i
ĠS ara
itt y
Ġtrans pos
Ġdesper ately
Ġalle ged
f ight
g irl
p read
ad or
A pp
Ġth irty
nt h
ID S
ĠL ie
Ġcred ible
Ġundert akings
ĠFor ce
Ġsymp athy
c ked
ord an
Ġrem embers
Ġlast ing
ĠGene va
Ġapprox imately
h o
al ities
ro y
ill er
ge red
Ġland ing
ann ah
Ġwide ly
T e
in ational
Ġas h
ĠB eth
olog ist
Ġtrib ute
Ġsupplement ary
i ques
ĠC ap
Ġsh ift
Ġbu ys
Ġbu ying
Ġdist ingu
ĠRo ad
Ġcontrad ict
Ġt ap
Ġbas ket
ides pread
ĠSe cond
Ġsurround ed
m inist
s ession
av en
ĠMon day
Ġparal lel
st ate
ĠS chool
ĠA pp
Ġr iding
Ġthem e
ish a
Ġco pe
Ġrel ax
Ġimportant ly
Ġpsych iat
ners hip
Ġmov ies
ĠOli ver
S A
Ġcons ists
Ġhor iz
R RB
h uman
Ġany more
Ġdi ver
Ġabs or
m atic
Ġha ven
ore n
Ġrel ate
Ġent rance
ound ed
ĠCon f
Ġobs ervation
Ġw idespread
id ay
ĠC F
Ġk een
ĠG rowth
Ġsp here
Ġtem per
Ġrul ing
Ġpul led
ĠS ur
Ġfe ature
gg ing
Ġden ied
Ġbureauc ratic
ĠC om
ĠT s
Ġamb itions
Ġbott le
Ġcorrespon d
ĠB a
Ġshould er
Ġtour ist
Ġsuspic ion
Ġded icated
Ġpred ict
Ġplat form
or ation
st ream
ĠM it
ĠE CB
Ġlo ose
ĠC amp
Ġst ip
ra k
ĠT er
Ġtime ly
ĠGerm ans
vent ions
Ġfif th
z one
ĠM aced
ac he
Ġro yal
Ġintegr ity
I N
Ġ x
Ġw age
ĠN a
Ġgra b
ĠJack son
Ġproc ure
ĠI f
Ġr it
Ġreg ister
rib e
Ġfree ly
ĠPr incess
Ġphot o
Ġfur ious
n an
u y
ĠThe se
Ġcompet ences
Ġattempt ed
Ġaccount ing
Ġed itor
Ġbur st
Ġir re
Ġuncertain ty
U sing
i ge
Ġab ortion
Ġpr ay
Ġarr anged
in ts
Ġvis ible
Ġtrad itions
ĠJes us
Ã ¤
ard o
Ġcontin u
ĠAl ger
Ġconcent ration
Ġtow er
Ġwas n
Ġcl arity
uc ks
Ġdel ays
Ġbelong s
Ġpolicem an
Ġah d
ĠL iz
ĠParliament ary
Ġjoint ly
Ġder og
ĠLind a
1 4
E m
Ġse as
ĠO l
Ġpar am
Ġmult inational
Ġappoint ment
Ġnot iced
ĠF re
Ġimp ressed
Ġacc uses
Ġequ ival
Ġur ges
Ġexec uted
m ind
Ġne ut
un ction
ĠD ur
Ġexpl ore
ĠBur ma
Ġcateg ory
Ġex erc
Ġwor s
ĠF ree
Ġforest s
Ġpercent age
Ġcollaps es
c ut
Ġa er
Ġfinanc es
Ġgr ass
Ġperform ed
ĠJ osh
Ġnight club
all as
Ġj ungle
itz er
om ed
ĠTok yo
et ically
ĠG il
pect ives
Ġprev ail
ik i
Ġrob ot
Ġfor b
Ġsurv ival
ĠAustral ia
pell ed
R es
Ġkn ocked
Ġrestrict ed
Ġemot ion
Ġtick et
Ġmac ro
c as
ĠS qu
Ġfind ings
ick en
Ġgr ants
Ġsurv ived
Ġult imate
Ġexclud ed
Ġcollabor ation
v iously
Ġst ages
te xt
Ġf oster
Ġra w
Ġph arm
Ġint im
ĠG race
Ġperson nel
lus ively
Ġvisit ors
Ġstrict ly
ĠFrancis co
s m
Ġf ed
Ġd umping
Ġfr ank
Ġrest ored
Ġtreat ies
bert ies
Ġtyp ical
Ġrecogn ized
Ġvac c
Ġcoast al
C lear
ot y
Ġfound ed
Ġdecl are
Ġsimpl ification
Ġli ability
Ġrecord ed
Ġhyp oc
ĠP a
os ing
ant ed
Ġclaim ed
Ġwound s
Ġsqu are
Ġapolog izes
T A
c ar
Ġg ained
Ġst orage
Ġr ush
Ġredu ctions
Ġbul let
he w
Ġcol or
Ġinter institutional
Ġc raft
ĠR ural
Ġres erve
Ġinter rog
ĠBl ue
commun ications
ĠC ulture
ĠN ap
Ġappoint ed
b ec
l ings
ĠA v
Ġag g
ĠJ oint
ĠL ab
Ġworth y
Ġeth ical
S et
p ow
Ġhe at
Ġfar mer
Ġche er
Ġtor n
ĠJes se
f all
Ġcomm end
old s
Ġelect oral
Ġpop ulations
Ġundert ake
Ġdanc er
er ted
Ġr ic
ĠG ood
ĠF ed
ĠK ay
Ġro les
Ġo w
ĠH els
Ġinv itation
Ġwar ri
Ġtax i
a fter
Ġ err
ĠR y
Ġpurch ase
ĠC ost
Ġst em
ĠI ng
Ġconf irms
Ġtar iff
Ġdisgu ise
ĠIn stitute
com ings
Ġunus ual
C ons
p in
Ġd ates
am m
Ġport ray
R ec
c ul
Ġb rand
ĠR avi
Ġpan ic
ĠCommun ist
ĠC IA
Ġcreat ures
ĠLu ke
Ġmotor cy
ib b
Ġsign ing
ĠPart nership
Ġdec re
inc ing
Ġpenal ties
Ġabol ition
ĠB an
ist ol
Ġhom ose
ĠIraq i
1 8
id ance
ĠT ai
Ġsc ore
Ġappro ached
Ġperson ality
ins on
ĠSud an
Ġl au
Ġatt ending
Ġchar ged
ony m
Ġescap ing
Ġer ad
u ction
Ġh ire
Ġst ance
ĠS her
Ġpre jud
Ġri f
ĠAl f
Ġdr inks
Ġalcohol ic
Ġenem ies
Ġp in
Ġp ushes
Ġd ry
Ġapplic ant
Ġexam ination
Ġvir us
Ġdisg ust
Ġc razy
ĠB udd
Ġhealth care
Ġce ase
Ġbiod iversity
or gan
Ġd ump
Ġe ager
ay ne
um a
ĠD ick
Ġra ge
Ġhighlight s
ĠRob in
ĠMoroc co
Ġc ure
ĠC ur
Ġinvest ors
Ġalloc ation
Ġscream s
Dav id
u ania
ĠE th
ĠR ud
Ġr ides
Ġres ource
ig ation
anc he
Ġut most
Non etheless
Ġnot ably
Ġj oy
Ġunder line
ph y
Ġsm oke
ier ce
la ud
Ġneighb ors
Ġbrut ally
Ġfrust rated
Ġsched uled
J oe
Ġbe ars
Ġde pos
Ġdam aged
an j
ĠR ah
Ġab duct
ĠL as
ĠSt ock
Ġwhen ever
Ġinter im
er k
Ġb anned
art s
ĠF lor
ĠK enn
Ġorgan ized
Ġrepresent ing
Ġign ored
Ġassoci ations
ĠL ong
Ġdef ense
Ġshort comings
Ġundert aking
ĠK urd
Ġsp are
Ġobs erve
Ġperm itted
Ġexpert ise
Ġf ict
ol er
Ġup stairs
Ġstat ue
Ġplac ing
Ġdeliber ately
Ġax e
st an
Ġaccount ability
Ġdep ri
ast rous
ov ie
Ġfinanc ed
the y
Ġintellig ent
ĠBarb ara
T r
Ġd os
Ġpo et
Ġn ick
ĠA h
Ġg ate
Ġal ter
Ġmist ress
Ġbase ball
Ġrout ine
ĠSy stem
Ġec ological
Ġestim ates
ĠYugoslav ia
Ġexp an
Ġclim ax
Ġas pir
op her
Ġdis astrous
Ġthreat en
Ġfun ctions
Ġperm ission
Ġindic ators
Ġaltern atives
I V
Ġregul ate
Ġcoord inate
ĠCent re
Ġkiss es
usal em
g s
Ġmass ac
od a
ĠV inc
Ġpublic ly
Ġsurv ives
ĠPalestin ians
H ar
a uth
Ġto y
el and
ke eper
Ġdec iding
ok er
Ġinv asion
Ġinter ven
be it
Ġtack ling
ĠIndust ry
? ÂŃ
S omet
Ġs abot
ĠP SE
ich i
pl ess
ult ane
Ġqu een
ier re
Ġexc lusively
Ġkidn ap
Ġmagaz ine
% ,
A ng
l an
Ġm ask
Ġse vent
Ġtrans atlantic
Ġstr anger
Ġent ities
Ġ19 3
ĠIn vest
Ġinf ected
Ġcomb ination
Ġhands ome
Ġcounter fe
Ġsed uc
Ġawak ens
Ġjuris d
phe w
w ater
Ġt ired
Ġra id
Ġcr ush
Ġabs urd
Ġcharacter istics
Ġsafe ly
Ġmyster y
et us
Ġint ent
ĠUn cle
Ġpres c
Ġban king
Ġqual ifications
P art
ĠS ean
ra h
ĠB or
ĠT an
Ġcont am
Ġinter governmental
Ġunderm ine
Ġun ity
Ġcons ent
Ġinform al
âĢĻ ,
reg ular
Ġcampaign s
Ġdefe ated
Ġking dom
Ġcontrovers ial
ĠS pecial
Ġv ows
ĠR and
ĠD am
Ġsurre nder
J on
Ġto x
al ia
Ġhelp ful
Ġdraft ed
Ġimpos ing
Ġst ood
Ġout set
ĠW hen
Ġnecess ity
et a
Ġha bit
Ġen for
Ġenjoy ed
Ġterrit ories
Ġbit ter
Ġinsp ired
Ġb ab
le ase
os aur
Ġbenef ici
Ġswim ming
n ity
Ġse ctions
Ġme al
Ġteacher s
ĠSyl vester
et erm
ĠP ap
Ġne phew
ĠFr iday
Ġlack ing
Ġrecord ing
ab we
Ġpers pectives
Ġlet ting
ĠMill er
Ġam az
Ġhead ed
Ġword ing
az z
ger y
Ġindic ates
Ġvirt ually
ĠCath olic
C o
J ul
f l
Ġto ss
ra pporteur
ĠK a
Ġro pe
ank ar
Ġdiscover ing
ĠCol le
Ġdrunk en
Americ an
Ġtrans it
ĠIn formation
Ġw ages
Ġth ugs
ĠM arsh
ĠSh a
Ġmod est
Ġinj uries
re ck
Ġrese mb
Ġbig ger
Ġsl ave
Ġadvoc ate
le an
Ġexpl odes
Ġcamp s
Ġoverhe ars
ĠVeg as
Y our
Ġc in
Ġcry ing
Ġcompar ison
Ġadvent ure
imb abwe
Ġb on
Ġb ench
Ġh ind
Ġbe l
Ġl ux
Ġback ing
Ġapproach ing
Ġobs essed
Ġexch anges
Ġdistin ction
Ġc ops
Ġun e
Ġinc om
Ġinv ent
pr ing
Ġemploy er
Ġassum ed
ed e
ĠM ade
Ġar ising
Ġexp ed
Ġproduct ivity
Ġvi able
ĠMad rid
Ġd ow
omm od
ĠT or
ĠH ind
Ġsc ared
Ġlab el
Ġden ies
Ġposs ession
Ġal beit
ĠP oo
200 2
Ġas c
Ġde pth
ĠJ ordan
Ġcou n
ĠAr t
Ġinf ilt
count ry
b ul
Ġp istol
Ġh ate
ĠC arm
ĠA sian
ĠH ill
Ġsurv iving
ĠMic key
Ġjew el
Ġsatell ite
is ons
ar o
le m
ĠS av
Ġsocial ly
Ġsur pl
Ġtele communications
ĠTour ism
c over
Ġpr ince
Ġfound ation
Ġcro ps
Ġreconc iliation
Ġchemical s
1 7
ĠH ot
Ġobject s
Ġconv iction
ĠAl an
Ġefficient ly
ĠJenn ifer
Ġis n
el li
Ġnow here
Ġgood bye
Ġmove ments
Ġland sc
Ġdisappear ance
n est
ic er
Ġas p
Ġacc ommod
ĠMin utes
ĠPat rick
Ġfat al
Ġin ject
ĠS ub
ĠH al
ĠN ancy
ĠC hen
ĠMar cus
Ġlist ened
ĠRe form
Ġoccup ied
Ġblow s
Ġrec ruit
Ġtri gg
Ġparticip ating
Ġrap ed
Ġdepart ure
Ġsne ak
I m
Ġn erv
Ġde lic
Ġent ity
Ġpriv at
ĠRe v
Ġclos es
Ġre ly
Ġg rew
ĠT aylor
Ġcat ast
che ll
Ġcult ures
ĠJer usalem
Ġm artial
ol o
ra v
us s
Ġatt raction
Ġstre am
Ġel abor
Ġcho oses
Ġmand atory
Ġdig ital
Ġfor um
ĠS pe
air y
Wh o
Ġdr ama
y ard
Ġg reet
ĠB art
Ġany where
ib i
ĠFr an
upp ence
Ġcateg ories
Ġrecip roc
A N
ia h
Ġdes irable
Ġgu idance
Ġdraft ing
Ġ198 0
Clear ly
0 5
Ġpr ide
Ġtal e
Ġstud ying
Ġattack ing
Ġroom s
Ġpresident ial
Ġsovere ign
ĠMos c
1 9
ed ed
ir ts
Ġk m
Ġdis reg
Ġproced ural
Ġpat tern
200 6
Ġquot a
ĠSlovak ia
it ar
ĠL and
Ġcontroll ing
ĠLith uania
Ġr anch
Ġmet al
roduct ive
in ations
ĠD i
Ġmind s
Ġunexpect ed
duc ation
ĠGord on
z ing
ct ic
Ġpl ain
Ġso il
Ġexc lusive
Ġgen etically
appro pri
ĠHit ler
1 6
Ġto mb
Ġg ig
Ġover t
Ġref using
ĠJon athan
Ġscrut iny
p o
r um
ad er
ĠB ell
Ġun its
ang le
Ġrealiz ed
itzer land
Ġexpan sion
R o
ot a
ĠS oph
ĠN ag
Ġend ors
ĠBo ard
m edi
z an
Ġl ift
Ġachieve ments
Ġden y
Ġh arsh
Ġd il
With in
Ġton nes
M ax
ĠR oc
ud es
Ġsub ur
Wh ilst
Ġunderstand s
Ġsear ches
m illion
p ower
Ġy ard
rat ors
Ġsecond s
Ġdist ant
r ical
ĠS ah
our se
Ġtw elve
Ġfund ed
Ġph r
Ġconv incing
Ġunanim ous
Ġton ight
nth ia
Ġp ace
ul pt
ra wn
Ġpre text
ian e
Ġpoint ing
Ġcomple tion
Ġassess ments
Ġfrequ ent
Ġprocure ment
n at
Ġal leg
Ġint ensive
ĠK aren
att ered
Ġcirc le
Ġst ret
ĠS aint
qu er
od ge
ag s
Ġclass es
Ġ201 3
Ġassass ination
Ġmix ed
Ġavo iding
Ġf ill
ut s
Ġprov en
Ġart ific
Ġvig il
w ife
ĠD oc
ĠJ ay
ash i
Ġbenef icial
ĠJohn son
Ġpriv acy
Ġburn ed
Ġunha ppy
Ġp ose
Ġj un
com p
Ġdi agn
Ġir regular
Ġtroub led
ĠMaced onia
ar ious
ĠR alph
ten ance
Ġextre m
Ġm a
av a
Ġ199 3
ĠDemoc ratic
s he
he sion
Ġd ust
el ong
Ġorgan ise
Ġ199 2
Ġair ports
ĠZ imbabwe
Ġg ross
id al
ĠS outhern
th ly
ind a
Ġconv entions
Ġexpect ing
Ġrout es
ophob ia
Real izing
S V
Ġsh ops
Ġevery day
Ġsince rely
Ġflow ers
Ġavo ided
Ġh oney
um ber
ĠJ os
du le
Ġsp o
Ġrel atives
Ġins ane
Ġdemonst ration
mar ket
Ġcommand er
Ġt aught
ĠM old
ĠM umb
ĠG aza
Ġhand ling
0 6
r ays
Ġd angers
st uffs
ut o
ĠC ass
Ġcom edy
ĠH or
ĠLe o
Ġenl arged
Ġphot ographer
Ġmanufact uring
Ġup coming
io x
Ġenjoy s
Ġequival ent
ĠM aur
ell ow
Ġdem ographic
oh a
Ġaccess ible
Ġemer ge
I P
M e
or ient
Ġh ung
Ġst airs
Ġst rand
ps on
oo ks
ĠM aster
qu al
Ġinform ing
Ġesc al
ĠPl ot
ĠJul ia
c ling
ic ip
Ġform ed
Ġregul ated
Ġcongrat ulations
Ġmess ages
Ġrefuge e
Ġint oler
Ġpre ca
anc ies
Ġgu est
Ġfar ms
R et
ĠM and
ĠI G
Ġab uses
Ġrecomm ended
it ored
ich ol
Ġim bal
ĠN ar
Ġbr ide
Ġredu nd
Ġconsequ ently
Ġbank rupt
. ,
M art
Ġw are
ĠC ard
ee k
iss a
Ġbi ological
Ġsed uce
Ġdevast ated
Ġm el
Ġaffect ion
ĠDirect or
Ġblood y
ĠRoy al
ĠAlb ania
F ort
z ed
Ġh te
Ġsh ark
Ġdri ft
Ġinqu iry
Ġh orses
Ġdis arm
Ġhom eless
Ġinnoc ence
ĠH a
After wards
reg ulation
ĠJac ob
Ã ¨
Ġs ings
Ġn ose
Ġon line
Ġlo ving
Ġte h
Ġcommun icate
Ġconsc ience
ne x
ĠV el
Ġpotential ly
ĠShe riff
Ġpolitic ian
Ġre ception
ĠM et
Ġr ans
Ġch amber
Ġun ions
ish op
o is
er ving
Ġc ens
Ġp iano
ol ph
um i
Ġelev ator
ar ked
ĠP ink
ĠI M
Th ings
Ġmiss ed
Ġfi ance
Ġsoft ware
l aration
Ġt ear
Ġens uing
C S
R us
f ast
Ġinst antly
Ġdecl arations
Ġclim bs
ĠSund ay
as m
ĠA cc
Ġtre m
ĠPalest ine
Ġkidna pping
ĠStep hen
al ie
ĠA fter
Ġsh ore
Ġatt ach
Ġsc ulpt
Ġmain tenance
A lex
Ġd iox
Ġhe ll
ĠC ross
ild ren
Ġpret ending
Ġer u
Ġbelong ing
ĠMarg aret
Ġf urn
Ġpar ad
Ġele ph
Ġendeav our
Ġcompat ible
Ġlone ly
Ġp ed
Ġp ushed
Ġbe ll
Ġen raged
Ġsol ved
Ġinvestig ations
ĠFinn ish
Ġearthqu ake
h olm
Ġl ists
ĠS ally
ĠB at
ell ed
Ġunder lying
lin ing
Ġsuspect ed
rag on
M ary
Ġd uel
Ġcons ervation
Ġsum mon
o og
ic ity
ct ure
Ġpl us
Ġref usal
Ġmon itored
ĠSw itzerland
Ġeval uate
Ġremo ving
Ġhaz ard
Ġdos si
ĠH ug
Ġdisc overy
Ġdom in
Ġdisp utes
Ġsimpl ify
Ġbird s
ĠStan ley
Ġr ises
ĠG ang
ĠD rew
Ġdec ade
Ġret ired
arm a
Ġdeb ts
Ġcur se
Ġincorpor ate
on ic
Ġb ull
Ġsh oes
ĠB ond
ĠJ en
ap ed
over s
ĠBl air
Ġcart oon
Ġinev itable
ĠDec laration
ĠMumb ai
ra ught
Ġstri king
Ġlog ical
H O
ĠP att
ĠA p
um ble
ĠR ick
ĠH ell
Ġloc k
Ġ201 2
Ġinspect ion
B ugs
t r
Ġw ars
Ġw rest
ĠW ith
Ġact ed
Ġens hr
Ġsim ultane
Ġstat ute
Ġcle arer
Ġinc ap
Ġdest ination
Ġselect ed
S u
Ġc os
ra ke
Ġim ages
Ġman if
Ġacc us
Ġdet ention
ĠAr jun
Ġsche dule
Ġsett led
Ġir respon
p ed
Ġin ex
ĠL ake
Ġhapp iness
ĠSh ar
Ġpat rol
ĠAb b
Ġdiscipl ine
M ichael
l imin
Ġf ile
so ever
Ġev ac
Ġtw ist
ĠY u
Ġconsist ently
ĠNorm an
Med iterranean
i y
Ġha v
Ġint r
Ġsex ually
bro ken
Ġshar p
P eter
in ter
is y
Ġcont ra
ian n
Ġcould n
Ġmay or
Ġrespect ing
ĠInd ians
Ġansw ered
Ġcongrat ulating
ĠEm ma
lor ia
Ġdisgu ised
ĠMosc ow
ar ians
ant ha
Ġimport ed
Ġvot ers
lo ved
Ġflow s
Ġwithdraw al
Ġscream ing
b ate
er ts
se m
us ive
Ġmarry ing
Ġpubl isher
ĠD u
In c
ĠCh an
Ġconst rain
Ġvill ain
Ġdefin ing
bre ak
aksh mi
ĠPac ific
m aker
t le
Ġwe bs
ch ing
ant a
ĠR ec
Ġad j
Ġapp laud
Ġprof ound
Ġnorm ally
ĠLa ure
Ġgar age
h ist
n ational
n amed
ic ating
pp ers
ĠD ean
Ġwhat soever
ĠO t
Ġinter ventions
Ġadv ises
Un able
Ġdescrib e
Ġb reed
ur u
ĠC atherine
Ġun equ
Ġjust ification
ĠV ish
rac ula
ĠPet itions
ĠCol omb
Ġepis ode
at ri
erm ost
Ġprov iders
ĠII I
Ġh ook
ic ian
ĠM other
ie ves
Ġkn ocking
Ġclim b
Ġenthus i
Ob viously
4 0
w a
li ve
ack s
Ġrail ways
Ġjurisd iction
he nd
em ic
ĠB ruce
ĠG irl
Ġunder cover
Ġser ial
Ġstorm s
Ġmir ac
Ġs am
Ġf aster
ĠP in
Ġqu it
Ġloc ate
chn ya
Ġtri umph
ĠB us
ĠK o
Ġneighbour hood
l ace
ound s
Ġtechn iques
Ġdoll ar
Ġunw illing
ĠWil son
Ġpra ise
ĠEM U
Ġinad vert
Ġthe rap
Ġk il
ĠK az
ip her
Ġfe as
Ġsur f
Ġtext ile
Ġaccord ingly
ĠMart ha
Ġarrange ment
w orth
ĠD al
Ġobject ions
Ġcontrib uting
Ġcivil ians
St ill
b ek
p es
at ab
ĠS ab
ĠA L
Ġse lection
Ġple ads
Ġinj ury
Ġharmon ised
Ġfre ight
he im
Ġdisc l
ĠCl ark
ĠJew s
I F
om er
ĠI ce
ist ence
Ġcl ock
Ġess ence
rimin al
S pe
ard ed
Ġloc ks
Ġrat ify
Ġunexpect edly
ĠLie utenant
b b
Ġf ighter
ce ler
ug en
Ġperform s
ien na
Ġobser vers
Qu estion
ĠColle ge
Ġt all
ch i
ist ry
Ġhand ed
Ġhope fully
Ġemer ged
Ġth roat
ĠC itizens
ay ing
Ġatt ended
Ġass urance
Ġre hab
um m
ĠD is
Ġman agers
Ġro ots
Ġwhere ver
Ġany body
Ġsystem atic
Ġfra g
Ġt aunt
ig an
ok o
Ġinf ant
Ġpract ically
Ġart ists
ĠM erc
ast y
men se
ĠInd ones
Ġenjoy ing
Ġgold en
Ġimper ial
Ġliter ally
ĠEll en
Ġunsuccess ful
See ing
2 2
is en
Ġn aked
ĠA IDS
ous es
Ġwould n
Ġper ce
Ġcatast ro
i ov
Ġnot ion
ĠSt one
Ġdis rupt
Ġun just
ene g
wh ich
Ġcy cle
199 9
Ġj ack
ĠH ay
ĠK yle
Ġte aches
sc ar
20 13
Ġcell s
d iscrimin
ĠI van
un ny
Ġdis par
ĠChe chnya
Ġmig rants
0 8
s ight
Ġthe ft
Ġd ub
ant ically
ist ance
ĠH u
Ġadd ing
Ġexper iments
Ġpass age
af e
ĠSing le
ĠChair man
Ġpursu ant
w ill
ĠI nt
Ġamb ig
Ġsch ol
m itted
it ably
ĠM ore
Ġim mense
Ġreg ain
ob e
Ġwish ing
Ġdead ly
Ch arlie
Ġclos ure
Ġign ores
Ġauthor isation
Ġut ter
ĠA lp
Ġsh ipping
ĠJ uan
Ġimp etus
Ġsoc io
Ġsupp li
Ġrenew ed
Ġsong s
Ġstake holders
Ġkidn aps
st ep
ot ion
ĠS el
ĠN ord
iz ar
Ġtra ined
Ġserv ants
Ġori ent
ĠYou ng
z es
igh ters
Ġsm art
Ġfoc using
Ġtang ible
Ġup hold
ov al
Ġclar ification
Ġlay ing
Ġentreprene urs
E EC
Ġre verse
Ġar rog
Ġar ticles
ĠV icky
Ġcreat ive
Ġto ll
op ing
Ġr amp
Ġpl ural
Ġcons ervative
Ġmot ions
Ġaddress es
Ġconsult ed
Ġboard ing
Ġdefe ats
Ġtort ured
Ġawa iting
Ġb id
or ic
ĠA ri
ĠR uth
Ġadult s
P re
Ġb arn
ĠChrist ine
Ġkn ock
Ġmission s
Ġremind ed
v o
ow ed
un s
Ġpre limin
Ġatt rib
Ġro t
Ġsince re
Ġgen etic
Ġdism ant
Ġresear chers
ed ing
ĠM ul
Ġch asing
Ġac celer
Ġ3 6
Ġmot el
Ġexplo it
Ġmer ch
Ġacknowled ged
h ard
ĠD allas
Ġdemand ed
Ġhun ger
Ġintim id
an na
ĠC ind
Ġprot agon
Ġbetray ed
ĠIG C
w art
ol ves
em et
Ġcou ples
Ġapprec iation
) :
Ġst ole
ak u
ĠR oth
Ġdis h
sel ess
Ġche ating
Ġintegr ate
Ġgang sters
Ġvo ices
Ġremark able
Ġx en
ĠC amb
ĠR oss
Ġsp ons
Ġcor n
Ġrecover s
Ġgrat itude
Geor ge
ut ical
Ġdet on
Ġnewsp apers
Ġdu o
I B
Ġst up
Ġun st
Ġro ot
ĠDe ath
Ġmiss es
Ġcross ing
bo ok
Ġtempor arily
Ġhat red
ĠDor othy
ĠJess ica
Ġbatt les
Ġzomb ies
Ġmotorcy cle
Ġfict ional
m un
as ures
Ġinter ference
ats on
ĠJo ey
P lease
he red
en ess
ĠT uppence
com es
Ġwa its
Ġsl aves
ĠChrist ians
ole on
Ġ7 5
ĠEm peror
ĠFrank ie
Other wise
Ġenvis aged
Ġprelimin ary
I nt
f ront
p ass
in ct
Ġh oc
le te
if eration
con nect
ress ing
Ġfulf illed
Ġregist ration
Ġw ire
Ġin sec
Ġh o
ra ig
Ġen ables
Ġab ilities
ab s
ĠN avy
ip er
Ġexp enses
Ġpost s
Ġdam aging
ĠVal ley
Ġinher it
p a
ĠM useum
Ġext ract
Ġconv icted
Ġcomprom ises
ĠKar l
ĠMill ennium
Ġisol ation
Ġtick ets
Ġtension s
M c
Ġf uels
Ġcon vey
ĠS ky
ab outs
Ġcont ents
ĠCh i
ĠO LAF
Ġobs ervations
ĠLaw rence
Ġspect ac
P r
g ues
j an
u ating
Ġbe loved
ch a
em ed
op al
Ġout lined
ll a
Ġpre fere
Ġcontin ually
Ġgot ten
Ġemb race
ĠVirgin ia
Ġw ond
ĠE ducation
Ġsub mar
Ġrespon ses
Ġsuc c
por ary
Ġpurs ues
ĠBro ther
Ġengine er
Ġowners hip
ĠLew is
Ġrit ual
Ġtrem end
N ick
on na
ĠS om
ĠD iv
Ġreg imes
Ġ3 7
Ġprevent ive
Ġdeliver ing
Ġhomose xual
Ġde eper
ĠL ily
Ġdism ay
Ġrif le
Ġnerv ous
H arry
n et
Ġin g
al k
ic its
ace utical
Ġinterview s
Ġfro zen
keep ing
Ġphilosoph y
C ould
it an
Ġp ushing
Ġin appropri
ĠC ole
ĠS id
Ġun ilateral
Ġown s
Ġbo ards
Ġbre ach
Ġproduct ive
Reg arding
ĠStat ute
Ġstumb les
Ġs ixt
Ġc up
ĠB uck
ck er
Ġexcept ions
Ġpun ished
Ġdrag on
Ġveter an
Ġinadvert ently
Ġs la
Ġc ats
Ġc rack
Ġg est
Ġv ague
oc ial
Ġinc ur
Ġrequ iring
Ġwat ched
Ġceleb ration
Ġlif elong
ĠRock y
D ue
ĠP orky
Ġtra ins
M ad
Ġf led
ĠL yn
ann on
Ġrul ed
Ġs ib
Ġth in
le e
Ġl ays
ĠS now
Ġcustom er
Ġautom atically
Sim ilarly
ĠInvest ment
b its
Ġw ing
Ġw olf
ĠSt oog
Ġdictators hip
j am
Ġb ot
Ġout ermost
Ġpos es
Ġcohe rence
Ġphys ically
ĠGl obal
N S
Ġre aff
ter y
ge on
Ġcl oud
Ġven ge
Ġw ished
ĠI C
Ġex it
ĠB u
Ġad verse
ub b
ĠV in
ĠV ienna
Ġbr anch
Ġcent ers
Ġsto pping
Ġhaunt ed
Ġcompos ition
ĠStoog es
M uch
Ġj u
Ġbo ats
Ġsl aughter
Ġjud ges
ro se
Ġy ield
Ġresol ving
Ġlabor atory
Ġchamp ion
R A
ĠS ri
Ġch ances
ĠH annah
Ġrele ases
ator ium
Ġaut umn
ĠChar lot
ĠRog er
Ġt ant
Ġwh is
ĠB rand
Ġind ication
Ġsuggest ing
ĠTunis ia
, '
S m
k har
Ġb ars
id y
ĠD iana
ĠF el
ĠF reedom
Ġar ises
ĠW ed
ĠAd minist
Ġrestrict ive
Ġbomb s
Ġdece ased
ur ation
ĠS ul
Ġbr ill
Ġstat istical
Ġtour ists
Ġinfrastruct ures
Ġunlike ly
n st
Ġb izar
ĠS n
Ġsil ver
Ġteen ager
Ġfif ty
Ġ197 0
Ġunivers ities
Ġinstruct ions
Ġpresum ably
ĠLeban on
iann ual
R ather
ol n
ak h
ob ile
Ġleg s
Ġquestion ing
Ġident ical
T ur
ĠS in
um es
ĠJ ill
Ġaw ait
gg ie
Ġfl u
Ġacqu ired
ĠOb ject
Ġcompon ent
Ġtransf ers
Ġelig ible
ĠKrish na
J o
Ġp ity
Ġg ard
Ġatt ends
Ġass ert
Ġsubstantial ly
Ġconsolid ation
Ġswe et
Ġsli ps
ĠCharlot te
z illa
us se
Ġshe d
Ġover d
All ow
Ġscen ario
ĠAsh ton
Ġcas ino
f oot
s u
Ġth ieves
Ġst om
ĠR el
ĠR ab
Ġres erves
Ġmy th
Ġsur gery
de bate
Ġilleg ally
Ġru ins
ation ally
ri ving
ĠCh ance
Ġfund ament
ĠCon c
Ġpsych ological
Ġwood en
ĠDef ence
p ical
Ġt one
er ion
Ġag gressive
Ġr uth
Ġprogress ive
Ġsatisf y
Ġcult iv
Ġdistin ct
Fort unately
L ou
b i
Ġg ru
Ġfinancial ly
Ġut il
on i
ra ined
ĠK id
Ġdec or
Ġprogram ming
iro t
C ol
P ar
m ir
ĠM arty
Ġde ploy
Ġdes ired
Ġsy m
Ġest r
Ġbene ath
Ġsepar ation
Ġrefere nces
Ġneck lace
Ġabstain ed
Ġaccur ate
Ġendors ed
i est
ĠS i
Ġprodu ces
Ġbl ast
Ġsystem atically
Ġ4 5
olid arity
Ġment ally
Ġhe ir
ĠF ort
Ġra nd
ĠAl ban
be ing
Ġgrad ual
Ġcounc il
Ġerr ors
Ġc ries
Ġc raw
Ġin ability
Ġdef icits
Ġtransport ation
Ġpost pon
Ġbomb ing
Ġconsist ency
Ġtack led
ĠX ia
Ġliqu id
ĠVik ram
N G
m akers
es ar
et e
ast ian
Ġdeli vers
Ġvic ious
ĠPoo ja
P ri
Ġt une
ĠM ig
ĠL ove
Ġcomp r
Ġmag ical
Ġtransform ed
d ens
ĠL ang
Ġar bit
Ġcrit erion
ĠHar old
Ġeuro s
Ġunanim ity
Ġprostit ution
u ment
as u
Ġal liance
ak o
ĠL in
Ġpain ful
Ġacqu ire
ĠQu estion
Ġengine ering
Ġrab bit
d es
ath a
bo at
Ġflight s
Ġtoler ance
ĠRa gh
ĠLab our
Ġg reed
un ning
ĠJ ar
Ġbas es
ĠMar c
200 3
ĠKat ie
Ġcoun sel
H U
w rit
Ġre vel
Ġan nex
ĠT w
ĠN et
Ġimp lies
Ġfra gment
Ġtransform ation
ĠDet ective
C ertain
C ont
Ġb ail
Ġl ure
ot ing
el ia
ĠJ r
Ġsur vey
ĠMay a
bo x
Ġobtain ing
Ġsad ly
Ġinspect or
Ġpharm aceutical
st yle
ĠM oon
ere k
Ġcomm itting
Ġte a
ĠAr ch
Ġgener ous
Ġtransport ed
Ġexam ining
Ġz ero
Ġreb els
Ġexplicit ly
oy le
Ġsubject ed
ĠMc K
ĠAlex ander
ĠAnt h
Ġexpos ure
Ġreplace ment
Ġware house
m are
os y
ounc ed
Ġwhere abouts
Ġadapt ation
ĠVinc ent
L o
ent ric
ad el
ess ions
est abl
ĠJ ag
Ġwhole heart
ĠCo hesion
Ġvir gin
Ġf ab
Ġe ar
ĠN ina
anc a
Ġfurther more
Ġwar rant
Ġwin ner
Ġargu ing
ĠMal ta
Ġprem ature
ĠStock holm
Ġal ert
ĠR ub
ĠD ark
ĠN ichol
ĠW or
friend ly
Ġaward ed
Ġo t
ar atory
ĠC ode
ĠD og
ows ki
Ġenterpr ise
Ġdepend ence
ĠPri ya
Ġcorrespon ding
Ġstring ent
Ġelabor ate
ĠC orn
Ġshe ll
rib ed
Ġfun ny
Ġshot gun
Ġst amp
ĠG loria
ĠN ed
Ġbri ght
Ġofficial ly
Ġwarn ed
bur gh
Ġbe er
ĠC ase
est ed
Ġab used
ĠSt ev
Ġsc ript
Ġsuper ior
Ġwithd rawn
Ġthorough ly
Ġmonop ol
R ich
om ic
Ġl ord
ĠF a
ĠK it
Ġsign als
Ġimm unity
ĠRah ul
J an
ĠSt and
Ġform ally
ij ing
Ġflee ing
Ġdisappoint ment
Amend ment
Ġt aste
ĠM ort
Ġde pl
ĠF u
Ġdifferent ly
Ġhor rified
Ġadapt ed
auth or
Ġhazard ous
s k
Ġk icks
Ġcom ic
Ġcover age
ĠCl ub
ĠCy nthia
Ġdisapp ro
Ġep id
Ġgri ef
Ġannounce ment
K now
Ġa ston
as i
Ġe cc
ĠM eg
Ġsh y
Ġrep ression
ĠLe ague
Ġrad iation
Ġfeed ing
Ġpill ars
Ġfrust ration
ias m
Ġsmugg ling
c ern
Ġh ij
sid er
Ġadequ ately
Ġtransform s
Ġaspir ations
m at
Ġsk ill
ĠSte ven
Ġlog ic
ĠDo ctor
es ter
ĠC oll
ĠE ur
Ġour s
Ġprep aratory
Ġtop ics
Ġreview ed
Ġaut o
Ġoverwhel ming
p one
u er
Ġin put
Ġd rew
im ony
Ġ3 3
Ġoper a
Ġlist ed
Ġtouc hed
ĠTai wan
Ġc rown
Ġc yn
ĠC riminal
Ġcar n
ov ina
arm ed
ĠAr m
ĠMc G
Ġdu pl
Ġartific ial
6 0
H ence
s a
on ed
os a
ain ted
Ġtra ps
Ġmother s
ĠMan agement
Ġparagraph s
Ġenthus iasm
ĠTem ple
Nat urally
Ġrecy cling
9 5
W ould
Ġw ard
it udes
Ġh itting
us c
Ġch ose
Ġun pre
Ġsol ving
Ġiniti ated
Ġvol can
Ġwitness ing
Ġhy d
Ġphot os
v als
Ġe arm
Ġas sembly
ĠP ad
ĠF at
Ġgr asp
ĠJack ie
ĠSer geant
Ġadjust ment
Ġdistur bed
ĠFed eration
P l
Ġto urn
ĠR E
Ġres ume
ĠN ot
Ġra ces
Ġprom inent
ĠRaj u
ur rent
Ġno ble
Ġfe ud
Ġdistrib uted
Ġincent ive
Ġdesp air
Ġbizar re
Ġh ood
Ġd ual
ĠA unt
ĠA jay
Ġres ur
ĠF our
Ġun res
Ġdisc oura
Ġabs ent
Ġtest ed
he rent
Ġm ines
au er
Ġcont empl
gr ade
Ġdes k
Ġwind ows
Ã¶ m
Ġcoin s
Ġscreen ing
Ġrig orous
Ã³ n
2 7
g i
re quis
Ġd atab
Ġout law
Ġover se
inc oln
ĠTh or
Ġident ifies
Ġpost pone
Ġchann els
str Ã¶m
Ġ ly
Ġm un
Ġal ley
ch air
ĠB ert
In side
av ed
te gr
Ġmin ing
Ġold est
Ġcapt ures
Ġsens it
ĠRoman ian
ĠWed nes
w est
Ġf ame
ing ers
ĠK ath
Ġro se
Ġrespon ding
Ġfore cast
Ġsw it
i ries
Ġn iece
ĠR un
Ġpl enty
ĠN ig
Ġrec overed
Ġtreat s
Ġpress ing
Ġage ing
Through out
Ġmonop oly
ĠD racula
Ġwor ries
lo oking
Ġconclud ing
spe ople
ĠJam ie
Ġtourn ament
D F
Ġo we
Ġg olf
Ġr ating
Ġab usive
ĠH ard
ab il
Ġexp ose
rain ing
Ġchamp ions
Ġb ike
Ġf are
Ġse ats
nder ing
Ġpublic ation
Ġarrest s
Ġsell s
Ġke ys
Ġsafeguard ing
Ġru in
C omp
Ġl iv
pe red
ĠS eth
Ġpre requis
ĠSy ria
Ġtroub les
Ġfright ened
Ġw ool
Ġb old
an as
Ġsu ms
ĠB omb
Ġdiff er
Ġdeal ers
Ġgener ate
athe tic
Ġhoriz ont
Ġinappropri ate
c up
Ġal lies
Ġv ice
Ġcons pir
ign ed
Ġbl ocked
Ġensure d
Ġdi ary
Ġghost s
Ġdelic ate
Ġpreca ution
Ġb orne
Ġprev ents
Ġflow er
Ġpossess ed
Ġhal t
Ġlib rary
Ġautonom y
Ġneut ral
Ġlandsc ape
H en
b uilding
y ll
Ġc ock
Ġh t
ĠJ oh
Ġar gues
ĠW y
Ġtw ins
Ġvis as
Ġinev itably
Ġcompon ents
Ne ither
Ġphr ase
ĠG all
Ġgo ons
ĠO h
Ġest imate
ĠGra ham
Ġvent ure
Ġdiamond s
d on
re aching
Ġs ou
Ġo st
it ated
Ġv it
Ġor g
ĠD oha
Ġwork place
Ġ3 2
ĠAn and
Ġpress ures
Ġcollect ed
Ġdelay ed
Ġdecent ral
Ġprop ag
ĠOlymp ic
onym ous
U E
o om
ĠC au
ĠE ston
Ġpart ially
Ġtr unk
si ans
ink i
ik h
Ġval ley
Ġdon or
Ġident ification
ibb ean
Ġconstrain ts
ĠAnth ony
L uc
or ge
id den
ĠN i
Ġro omm
Ġgu ided
Ġdi verse
Ġobstac le
Ġa pe
Ġre per
Ġde ar
ĠComp any
Ġsupervis ory
ĠAlger ia
he tic
Ġpre f
Ġadd s
Ġmurder ing
Ġru ined
Ġdeser ted
ĠFl ore
d ef
u i
z er
Ġl ion
ut ers
ĠS hel
the l
Ġconnect ions
S us
l ad
ĠI T
ĠSt u
ĠK ent
Ġwind s
Ġpregn ancy
Ġsli p
ĠSad dam
Ġsimultane ously
Ġrand om
N A
k ward
Ġcon form
ra it
Ġnot orious
ig o
ĠK n
Ġsc are
Ġtown speople
Ġexc ited
Ġremo ves
ĠMold ova
w oman
en ous
pe re
ess a
and ra
ĠD ragon
Ġass ures
Ġdecl ines
ĠAnd re
Ġdefin itive
ĠCarl os
Ġchann el
usse in
P at
p ress
t es
Ġde af
Ġun ite
ĠK umar
ĠV ol
Ġbreak down
ĠSp ike
gu ard
ĠMatt hew
Ġdevast ating
M ike
S ar
h as
y am
am y
Ġk ick
enc er
Ġdist raught
ĠEl mer
Ġrac ist
Ġimpress ive
Ġweakness es
Ġecc entric
ĠR icky
ĠD eep
aw s
Ġbl ames
Ġmin im
Ġenl ist
Ġconsult ations
Ġconscious ness
Ġbio f
Ġirrespon sible
au x
Ġ4 00
SC E
Ġegg s
m n
z eg
re me
Ġf ond
ĠR at
pt on
Ġpos ed
Ġass ured
Ġorgan ic
ĠBe ijing
Ġpret end
M on
b ell
b astian
at ures
Ġb ury
Ġl ingu
Ġen abled
Ġmain stream
Ġident ifying
oo f
Ġdeterm ining
Ġsumm ary
ĠWednes day
v or
Ġg ro
ĠM ass
ĠW ater
ĠY outh
Ġdep ressed
ĠGu ard
Ġcolon ial
m us
Ġb ud
ic he
ĠA tt
ĠL or
Ġmon sters
Ġsuspic ions
Ġtox ic
Ġstom ach
c ific
ĠP ack
Ġaw kward
Ġsupp orters
Ġexpect s
Ġmiss ile
Ġdiv ide
Ġdemocrat ically
ĠC E
ĠF ound
ob b
ĠCh uck
ond e
Ġdeleg ations
Ġsafegu ards
ĠKar an
Ġairl ine
ĠAnton io
Ġch ronic
Th anks
oy d
Ġmid st
Ġadvent ures
Ġphotograph s
v ote
re hend
Ġf ee
Ġp up
Ġp rag
Ġreun ite
Ġimper ative
Ġlength y
Ġgall ery
ĠMit chell
Ġasp iring
Ġeru pt
Ġp ages
ut ors
end y
ov en
Ġide ological
ĠWe b
Ġshot s
Ġcompl aint
Ġstab bed
Ġpir ates
R ay
ent h
Ġre vers
Ġv ain
Ġhand led
Ġsal ary
Ġassum ing
Ġburn s
Ġgather ing
F ar
I mp
Ġb ust
ĠS andy
ĠW atson
Ġcontin uation
arch y
Ġban ana
Ġacadem ic
Ġf reed
ad ian
ĠM em
ĠE arl
ĠA id
ĠL uk
ĠF ox
ph ic
Ġquestion ed
Ġsent ences
ĠCar ibbean
Ġsustain ed
Ġassess ing
Ġrob bers
ĠJul ius
ĠCong o
Ġarchitect ure
mind ed
ĠHot el
Ġing red
D is
E A
m ade
Ġm ood
Ġdis abilities
ĠW ild
Ġbl ocks
Ġrecomm ends
Ġquar ters
t ical
em s
ant h
ĠN and
Ġind ig
Ġfil es
Ġanalys es
Ġdin er
Ġvolunt eers
Ġperman ently
ĠVictor ia
Ġmargin al
Ġinfringe ment
I O
d ate
ol der
ĠM oh
un o
cess ions
ĠO per
Ġyoung est
Ġhang s
Ġteen agers
ĠEgypt ian
Ġlaugh ing
Ġorphan age
Ġhorizont al
T aking
at ers
Ġbur dens
Ġdesc ription
Ġpul ling
ĠLib ya
Ġrans om
Ġsubmar ine
zeg ovina
ĠB rend
ĠK ab
Ġsec rets
Ġclean ing
Ġunderw orld
Ġwand ers
Ġexped ition
Ġrehab ilit
Ġestr anged
ĠM as
ĠI nc
ant her
ĠO SCE
Ġrem emb
Ġestabl ishes
Ġple asant
Ġcomb ine
Ġcla uses
Ġspir its
Ġir res
Ġcounter part
R am
k el
Ġt ens
ĠC raig
if iable
ĠH ussein
Ġpos ing
Ġhost ile
Ġstress es
Ġconduct ing
Ġves sel
in is
Ġw ives
ic ism
ress ive
ĠSh aron
Ġpartnership s
Ġpersu aded
Ġt ip
Ġwe igh
ĠH IV
rat t
Ġprof ile
ĠAg ent
Ġhero in
ĠPri ze
ĠFis ch
Ġvamp ires
aret te
Ġregist ered
Ġw ip
Ġd irty
ĠR ita
Ġj ury
Ġsp aces
Ġgen oc
Ġtun a
ĠScott ish
ĠCub an
ĠDou g
Ġfundament ally
ri k
Ġ4 8
roll ed
Ġmodern isation
Ab ove
ĠGal ile
3 4
Ġo x
Ġn av
In it
ĠV e
ĠFrank lin
Ġsn ake
che st
Ġdisadvant aged
Rus sia
Ġenshr ined
discrimin ation
ĠE IB
res a
Ġsu e
nt il
ĠG ot
ĠG ill
ĠF al
ish ment
Ġatt ain
Ġrem oval
Ġca fe
Ġnar rator
Ġcam er
Ġconsolid ate
j ali
ur ious
Ġpro ving
Ġan ch
Ġsh ocking
ĠT ak
Ġens ures
Ġcompet ing
ĠAr ctic
Ġcost ume
Ġavail ability
) )
v ate
ĠS up
em on
ĠF ern
Ġinvest ing
Ġsaf er
ĠPe ace
ĠWood y
Ġresum ed
iov is
Ġsh ield
ĠJ e
ĠN ob
Ġcl erk
Ġro cks
olog ically
Ġobs ession
Ġdistur bing
Ġfest ival
g ments
Ġf ans
Ġl ad
am ble
Ġde port
ĠI N
ĠG uine
Ġback s
ĠCon st
Ġspec ulation
Ġclose t
Ġfood s
employ ed
Ġwarn ings
Ġrecover ing
Ġreper cus
ac erb
Ġtri ps
Ġmis le
ĠMay or
Ġconcept s
ĠIran ian
ht m
Ġbenefici aries
Ġf rees
ow ing
Ġcan cell
Ġthere after
ag a
Ġstr ang
ik er
Ġ199 1
Ġ196 0
Ġflashback s
Ġpersec ution
ĠObject ive
A f
c i
ĠM all
ul z
est ock
Ġr ings
ĠL t
Ġhigh way
Ġvis ions
Ġlot s
Ġimmig rant
Ġ15 0
Ġir rit
Ġprompt ing
Ġdivor ced
Ġhel pless
R E
is er
ag an
Ġus er
Ġintern ationally
Ġgovern or
ĠBl ake
Ġbra ve
Ġquant ity
ĠAL DE
M att
on der
or g
ĠM E
Ġcon cessions
Ġback ed
Ġagree ing
200 4
Ġhun ter
Ġindirect ly
I C
R ob
S ure
T w
U S
as er
ĠS ix
ĠS pring
th is
ĠCh ad
Ġsec uring
ĠAr gent
Ġnight mare
ĠAnd erson
Ġstri p
Ġspl end
Ġquiet ly
ĠLiber als
ĠGM Os
iovis ual
Ġex acerb
Ġse w
Ġj umping
Ġab rupt
Ġpl astic
ĠW ong
Ġpar king
Ġdon ors
Ġgun point
Ġemb ark
Ġsusp ension
estic ides
Ġbasket ball
Ġirregular ities
Ġtremend ous
B C
F O
v ation
ur ai
ĠH ank
Ġem pire
Ġdem ol
Ġallow ances
Ġsimpl ified
Ġanx ious
B et
U p
Ġf ence
ĠJ oy
ĠO d
Ġconv ict
ĠSam antha
Ġencourage ment
Ġpet ition
Ġmedic inal
Ġreaff irm
Ġrepercus sions
U lt
m id
Ġh rs
Ġhe ight
ra vel
un al
ĠB ad
Ġen act
ĠN ight
Ġrec k
Ġsp r
Ġca ut
rac ies
Ġemb ry
ĠCl ay
Ġcompar able
Ġclin ic
Ġruth less
m od
Ġs cept
Ġf iring
oc al
ĠK rist
Ġinter cept
Ġdesc end
Ġcritic isms
Ġpassion ate
ĠTam pere
Ġpsychiat rist
h ot
Ġb ills
Ġvill ages
ĠEm pire
Ġassoc iate
Ġhum il
ĠPatt en
3 9
H el
L O
Ġat e
ĠD ecision
Ġj oke
ĠF ord
Ġcomp are
ik es
Ġdep ending
erv atives
Ġtor ment
Ġexempt ion
Ġprofession als
emet ery
Ġa uction
Ġc age
Ġb om
ic able
ĠM am
ĠG us
Ġwork force
ĠAr men
emoc ratic
Ġgain ing
Ġdetect ives
Ġinequ alities
D anny
v ard
Ġw reck
Ġp y
Ġl end
ĠP os
ĠH un
ap ing
aj i
Ġsoon er
Ġbar gain
Ġoppos ing
Ġcollect ing
Ġmach ines
Ġprefer red
Ġoppon ents
ĠSloven ia
ĠHels inki
u ber
Ġf ierce
Ġe ase
Ġmin i
Ġcomplex ity
Ġradio active
Ġspread ing
Ġdemocrat isation
ĠRev olution
ĠCamb od
u is
re r
ar ia
Ġd imin
im m
Ġag ing
ud i
ĠL et
ĠL ight
Ġconf ined
Ġret ro
Ġsign ature
ĠTh ird
sw ald
fin ancing
athe red
Ġcig arette
Ġdossi er
! "
Ġ Ã
il er
ast ically
Ġfin ishes
Ġacc um
Ġcur ious
Ġintegr al
ĠGu y
ĠSy d
Ġanc est
ĠSol ana
Ġliv estock
Ġt ong
Ġsp in
Ġdev ote
Ġclass ic
Ġdisp ro
ĠBro k
Ġmid night
ĠSen ate
Ġbreat h
ĠNic ole
ĠOff icer
Ġstup id
R a
Ġh ates
ĠA ra
ĠK u
Ġpr on
Ġcar go
ruct ive
Ġur ged
Ġperm its
Ġceleb rating
Ġmer it
Ġmisunder standing
ĠKenn edy
ĠFound ation
c ol
es b
Ġsh out
Ġres ent
Ġunder go
Ġview ed
Ġhot els
Sh ould
Ġembar go
Ġin cons
ĠG ulf
Ġar row
Ġsp ies
Ġpr in
Ġshow er
Ġguard ian
Ġaven ge
i ol
Ġs oph
Ġd read
ĠD im
Ġte eth
ĠSh an
Ġoper ator
Ġlim iting
ĠJud ge
C R
Ġw aves
ĠG UE
Ġpr ud
eg gy
Ġconcent rated
lyn n
Ġdistract ed
Ġvoc ational
Ġre ign
ĠC orpor
ĠT own
ĠL al
Ġfather s
Ġexist ed
ari at
Ġcomfort able
Ġtransl ation
Ġpaint ings
ĠNap oleon
M al
P ol
S ch
in itiative
ain ts
are st
Ġcomm od
ilit ary
Ġland lord
Ġpat ri
Ġlack s
Ġsacrif ices
Ġthr one
Ġna ive
U ntil
Ġp uzz
we ety
ĠO scar
Ġprotect ive
uck er
app y
Ġfoot ing
Ġfulf illing
Ġlaunch ing
Ġzomb ie
NG L
osy stem
in ity
ak is
ĠSh in
ĠTh ank
att an
Ġfood stuffs
Ġcapt ive
200 5
Ġhost ages
Ġforest ry
Ġhide out
Ġconvention al
Jim my
Ġdiox ide
Ġmanif est
ĠFisch ler
g t
Ġl ament
ĠM ars
ire r
Ġcontin uous
Ġbre ad
ĠAm anda
Ġdict ator
Ġcas ual
Ġhun ters
ĠJun ior
Ġdow nt
orient ed
Know ing
ion ed
ĠC ot
ĠB ird
ack ed
Ġwere w
ĠInd epend
Ġaim ing
eral d
ĠSoc iety
ĠWilliam s
ĠCount y
Ġmerc ury
Ġconfident ial
Ġstrand ed
d oor
j oin
il ation
Ġpro te
ra pped
ĠD ist
Ġch icken
ĠH on
Ġinvest ed
Ġrecogn ises
Ġsens es
Ġspirit ual
ĠAb by
ĠPo irot
ĠRad ha
Ġdispar ities
Init ially
Ġb atter
ĠG riff
Ġfe es
Ġviol ently
ĠRo ber
jam in
Ġwholeheart edly
Ġm afia
Ġth ick
Ġal b
ĠG ary
ĠT racy
ĠL incoln
ag g
Ġins pir
Ġenc ount
ĠBud dy
he ugen
or ously
Ġin land
Ġd uck
Ġse ize
Ġcont empt
Ġpre cond
Ġhor rif
ĠLi berties
Ġassign ment
Ġec osystem
ĠPre m
Ġconstitu ency
Ġsib lings
Ġgenoc ide
l ene
ar am
Ġgu itar
uff y
Ġcoord in
Ġflood s
Ġflag s
ĠCau cas
Ġe cho
ut her
ĠG rant
Ġout break
Ġcor rid
Ġdead lines
Ġign oring
Ġelimin ating
Ġlingu istic
Ġencount ered
or rect
Ġin ner
ult an
urn s
Ġind ul
Ġind iff
Ġtrans mission
any a
Ġviol ated
k h
in ery
Ġw agon
Ġf les
ru p
ell er
Ġmor atorium
Ġhard er
Ġlow est
de pth
Ġcharacter ised
Ġexplos ive
Ġdisg race
Ġodd s
ĠTy ler
A dd
A part
Ġth rust
Ġg ifts
Ġpro l
ĠE s
ĠP ed
ear l
ach i
Ġconf ine
Ġtri als
ĠBar ry
Ġamb ul
Ġpoor ly
Ġseek ers
rid ge
Ġhero es
ĠLou ise
ĠFlor ida
Ġorient ation
Ult imately
Ġm ate
Ġg ases
ur day
ĠP ierre
Ġpl ate
Ġcontrib utes
Ġdepart s
Ġcro p
ĠKurd ish
ri pp
ĠM od
ĠB all
Ġcomp lied
Ġrespect ively
Ġmeaning ful
Ġprem ium
2 8
r im
v ous
he el
ar aj
ect or
ĠJ a
ĠH is
Ġac id
pl ay
Ġdev ices
Ġassess ed
heart ed
Ġwebs ite
Ġxen ophobia
ot ics
Ġat h
ach t
ok ay
Ġ9 5
Ġrestaur ants
Ġloyal ty
Ġbes ide
Ġemotion ally
Ġunpre ced
w ord
er ie
Ġc able
Ġy ells
ĠT odd
Ġsw all
Ġkiss ing
Ġbox ing
Ġdrag s
Ġtrend s
Ġw ww
Ġl ucky
ust ain
ĠD erek
Ġoper ates
ai ro
ann es
Ġele ven
ĠMon ica
Ġpubl ish
Ġclar ified
ĠLat via
Ġautom atic
B ill
Ġt ire
Ġm our
if ted
ĠT I
Ġcol ony
rit ical
Ġenl ists
Ġreun ion
l ims
u ana
he ther
on er
Ġp esticides
Ġg athered
ĠT a
Ġpre st
Ġreal ities
Ġsw eep
ĠPh ill
Every thing
M ic
S K
l u
y er
Ġf ert
ĠS ue
Ġinst ability
Ġtrans pl
Ġcompan ion
Ġdemonst rating
Ġwonder ing
Ġcatch ing
Ġpolicem en
Ġschol ars
Ġwh ch
Ġst ro
ac io
Ġent rust
Ġmon aster
Ġdirect ions
Ġadm ission
Ġpromot es
Ġobs c
Ġbroad ly
Ġund erest
ĠDemoc rat
Ġuns atisf
Ġclub s
Ġalarm ing
Ġcert ific
Ġaccompany ing
Ġlegend ary
Ġspectac ular
ĠGalile o
c les
i verse
ou n
Ġm all
Ġe ars
ĠG er
Ġch ocol
ass y
Ġener gies
ĠHar ris
Ġmult iannual
Ġtend ency
John ny
Ġimprison ment
Ġreinfor ced
f ound
u ates
st ar
Ġatt itudes
Ġloc als
Ġcommun ist
Ġinspect ions
Ġdispl ays
Ġadvoc ates
ĠMir anda
Ġeleph ant
Ġunpreced ented
Ġb icy
Ġcon vert
ĠS onia
ĠS olidarity
pl ed
ell o
Ġspec ified
Ġcomple ting
Ġmaintain s
Ar ticle
7 0
F I
Ġre ar
il ia
ur ities
ĠF ilm
Ġli king
Ġinter fere
ĠY e
Ġrespond ed
Ġforg ive
ĠUk rain
Ġmort ality
isp ens
Ġincom es
Ġorg ans
A c
Ġa qu
le th
Ġbe aches
ul ative
ĠP and
Ġtra cking
Ġdes ires
Ġsecond ary
Ġindic ating
Ġske pt
Ġswift ly
2 1
Ġe ve
Ġag ed
ĠH art
pl ane
Ġdispl aced
ĠSoph ie
d ent
z ie
on te
Ġin mates
Ġas set
Ġal ly
un ned
Ġen v
now nst
Ġdiscuss es
umb ling
Ġtotal itarian
ĠEx ec
Ġfulf ill
Ġda wn
Ġcoff in
Ġinterven es
O L
Y ears
Ġ nd
Ġin se
Ġh omet
Ġra cial
Ġcar ing
Ġche cking
Ġbreak fast
Ġmention ing
Ġsum mar
Ġrig id
Ġoppon ent
Ġunst able
Ġhomet own
v ic
Ġm ild
ic ter
Ġint ending
Ġout rage
ident ally
ll or
sh ot
ici ary
Ġreb el
f ur
r ine
t i
em porary
Ġher d
Ġch ains
Ġstr icter
row ing
Ġcor ps
Ġdemonst rations
ĠEl li
Ġsepar ately
Ġfacilit ating
Ġfat ally
Ġexplan ations
ĠJud y
Ġporn ography
d aughter
is sible
Ġl ag
ĠD ie
ĠU nder
ag le
Ġev olution
Ġrem it
ib an
Ġbre ast
ĠSat urday
Ġfor ty
id encies
ĠW ind
Ġgener ated
rodu ction
ĠIs lands
Ġtravel ling
Ġhy ster
Ġfort un
Ġexplos ives
Ġtouc hes
aph ne
Ġprivat isation
i op
m ath
ĠR ound
Ġreform ed
Ġheart s
ĠB ol
Ġcl an
we ight
the re
Ġtreat ing
Ġinvestig ates
Ġheart broken
200 8
Ġexplo ited
Ġdark ness
Ġimag ination
ĠNe ighb
Ġbroadcast ing
Ġridic ulous
Ġbrill iant
Ġf ighters
st at
ĠA y
ĠB aby
ĠT urn
ĠJ in
ĠAm ar
Ġeduc ated
You ng
Ġamb ushed
Ch ar
Ġcoord inating
ĠCl iff
Ġdro pping
Ġgrad uate
Ġhall uc
Ġth wart
Ġind ispens
Ġent ail
ĠSh ankar
Ġmem or
Ġuncon t
Ġsymbol ic
ĠAustral ian
olit ical
T S
Ġp ond
Ġab st
are tt
Ġph ones
Ġaud iovisual
ĠCla ud
ĠCast le
o ir
Ġc emetery
Ġd are
ĠM itch
ac c
oc ation
og en
ass ador
ec k
Ġtest imony
200 9
Ġharmon ise
ĠSan ter
Ġpoore r
Ġneglect ed
Ġcharm ing
Ġsurpl us
ĠFlore nce
ĠA then
ĠR ain
ĠG on
Ġam id
ĠW ayne
Ġent ails
Ġsocial ist
Ġpop ul
ĠRus sians
Ġstri ve
Ġcritic ised
ĠAnne x
Ġdram atically
Ġstim ulate
ĠHind u
Ġfrag ile
W al
Ġf et
Ġp ic
Ġst unt
ĠE co
ay an
Ġen gin
ĠD iane
ber ry
ĠL oren
au g
Ġpre de
Ġcar riers
ĠY am
ĠIn n
Ġ5 5
ann i
Ġrecall s
Don ald
ĠCost a
B ased
J ake
ĠP am
ĠH ague
Ġtra um
Ġrem inis
Ġret al
Ġca f
Ġdef ended
Ġsw ing
Ġshort age
ĠJust in
Ġbond s
Ġdisadvant age
Ġwis dom
Ġmassac re
? '
is ible
Ġhe m
Ġcon g
ĠB ost
ĠD ad
ĠH ait
Ġoff ences
Ġcr ushed
Ġkill ers
Ġchallen ging
Ġcamp ing
Ġtro t
ĠTim or
nat ural
Ġprede cess
st age
ĠE S
ĠY an
Ġaff irm
Ġur ging
Ġcourage ous
2 9
he ld
Ġg ym
Ġex ert
ĠL ud
Ġun int
Ġover night
Ġrem edy
Ġconf ession
Ġconf isc
Ġstud ied
Ġche cked
lo ok
Ġgar b
ĠGover nor
Ġfrank ly
Ġpropag anda
v ised
Ġh ills
ĠA st
ĠH end
Ġqu its
ĠCo oper
Ġhit ch
Ġsort s
Ġspeed ing
ĠVal ent
Ġc ake
ra ham
ĠL ucky
lic k
Ġafter math
Ġkill ings
Ġext rad
ĠPost al
Ġsplend id
Ġengin es
ĠM id
ĠK ane
ĠV ar
ov ation
Ġpath s
Ġwidow ed
Ġcoc aine
ĠColl ins
he nt
it ary
es c
ĠE va
ĠL ife
Ġcl ues
Ġdirect ors
pr ints
Ġintegr ating
Ġexclud e
ĠIndust rial
Ġtrigg er
A nt
ad ium
ĠM iles
ĠF am
ĠW ork
Ġsk i
ĠSch ulz
Ġadjust ments
Ġabol ished
ĠPark er
Ġcontrad iction
Ġast ron
Ġindispens able
D R
Ġo wing
Ġco at
Ġcol umn
Ġfl our
Ġ3 4
ape l
Ġ6 5
ĠMed ic
Ġanticip ated
Ġwond ers
Ġambul ance
Ġs essions
ri p
Ġwe ars
ĠS idd
op y
ĠA le
Ġid ol
Four thly
Ġlux ury
Ġfab ric
Ġa ce
en stein
Ġre appe
ĠP ot
ĠD ennis
ĠSt ud
Ġra ft
Ġsub ord
Ġequ ipped
ĠSe bastian
Ġgovern ed
Ġpil ots
Ġ198 9
ĠCan adian
ĠVer heugen
ĠSup reme
C he
E st
h op
Ġd airy
le ton
Ġre cession
ĠC ro
ere nt
form ed
Ġret ail
Ġ4 4
ĠWill ie
Ġmyster iously
rehen sible
Ġbi ote
ĠLuc as
Ġcin ema
f r
Ġbe ast
li p
ĠV ince
Ġca ution
Ġcre am
yl an
ĠUS D
Ġemb ra
ĠEv ans
Hen ry
Ġr het
ĠK itty
ens on
ĠCh ap
Ġ19 50
Ġappe aring
ĠMan h
ĠGod zilla
Ġforg iveness
Ġscar ce
ĠSqu are
Ġprecaution ary
d rop
f its
Ġl esb
ĠB ry
ĠL ola
Ġpublic ity
Ġdist ress
Ġiniti ate
ĠCy pri
ĠNe il
ĠMus lims
ĠNaz is
Ġfeas ible
p ing
Ġm il
Ġst ead
ĠT ina
Ġtr am
ĠN athan
ose vic
Ġcl own
Ġapp alling
Ġreal ised
ount s
Ġadd iction
Ġintern et
Ġ4 2
Ġamb ush
Ġreject ing
Ġargu ed
Ġmusic ian
Con cern
Ġproc laim
Ġmagn ific
Ġportray ed
om i
ĠL adies
Ġun com
Ġlike wise
Ġiss uing
ener ation
Ġinter ior
ys is
Ġproblem atic
Ġpan el
Ġelimin ated
Ġoptim istic
Ġfant asy
Ġinterpre ted
ĠGab riel
Ret urning
9 0
k ar
w as
Ġh ttp
ion e
ĠM ug
ant ing
ĠFr ances
Ġcle ver
Ġball oon
ĠTra vis
ĠIndones ia
Ġmonopol ies
8 0
b ecause
i ors
Ġp or
an ie
Ġre ct
ĠM ath
Ġdis ability
Ġac ute
pl ing
Ġatt ic
Ġadop ts
Ġprogress es
Ġassist ed
Ġgang s
Ġaud itors
Ġcru ise
Ġconsist ing
back s
Ġcry stal
Ġsales man
ĠSyl via
Ġrememb ered
as per
ad h
ĠG host
Ġun rest
Ġun seen
Ġrest oring
Ġpres erved
ĠSp encer
Ġpositive ly
ĠRo x
Ġcompetit ors
ĠNat alie
Ġunsuccess fully
Ġtranspos ition
Ġenfor ced
Ġirres pective
G l
m aster
Ġre he
ĠC urt
and o
Ġassist ing
Ġfair y
ĠAsh ok
Ġacquis ition
ĠCarm en
s ed
Ġal ike
ĠP ir
ud a
ĠU r
Ġaccount able
rog en
Ġinsult s
Ġpreced ent
Ġentertain ment
ĠAlf red
D ev
F e
b ad
w ind
Ġf erry
ad ays
ĠI V
ĠW ars
hed ral
Ġmis er
uel a
ĠPaul a
ĠJac ques
ĠGold en
Ġcann on
it ology
Ġf ingers
Ġin con
Ġd ent
Ġpart ial
uk a
Ġeat en
ĠHol mes
p erson
is ations
ment ioned
Ġk icked
Ġchallen ged
Ġeng aging
Ġobs erv
ĠDav is
Ġearn s
Ġconce al
ĠJess ie
Ġincomp at
ĠBaron ess
B illy
i ri
m oon
r ons
Ġb ored
our nal
As h
Ġca res
Ġfr amed
Ġprotection ism
Ġadm ir
Ġcap abilities
Ġbar rier
Ġrepl acing
Ġoccasion ally
ĠMichel le
ĠEston ia
Ġbiof uels
ĠSyd ney
3 5
M in
g age
ĠP rest
ĠR io
ĠG un
ĠD aw
Ġun sc
our ge
Ġbl ess
ĠâĢ Ŀ
io let
Ġche aper
Ġport rait
ĠCo ast
Ġlif ted
ĠOrgan ization
Ġsuppli ers
ĠBomb ay
Ġindig enous
an es
ĠC av
od ox
ĠF ab
Ġel ite
Ġsurpr ises
Ġdin osaur
Ġauthor ised
Ġwarm ing
Ġapolog ize
Ġswe ethe
Ġabduct ed
eneg ro
0 7
m ovie
w ed
Ã º
Ġa we
Ġc ott
Ġcon qu
ul u
ĠN ora
ens ing
Ġinst ances
Ġpres erving
Ġsac red
jun ction
ĠIce land
Ġsla very
Ġprerequis ite
ĠExec utive
c od
it ives
Ġd ile
Ġbe lt
Ġg re
Ġat roc
ĠV ic
Ġsec ured
ĠDe b
Ġfound ing
Ġtop ical
ĠBe ach
wor king
ĠManh attan
T ommy
f und
ĠI b
ant i
ĠB attle
ĠD ale
ĠD oyle
ĠK inn
ern ess
uk o
Ġsix th
Ġjealous y
Ġsensit ivity
Ġt ill
Ġst ere
ĠE nd
ust y
ĠT ro
per ate
rib ly
Ġspecial ist
Ġunc lear
Ġinsist ing
Ġsem i
Ġmisunder stand
2 6
Ġc ot
Ġin human
Ġe ats
ĠB Ã¶
Ġcl oning
Ġrep lied
ene z
ps y
ĠZ h
Ġban ning
20 10
Ġpain ted
ĠCol umb
Ġsal aries
Ġdepart ments
Ġcow ard
ĠCa esar
Ġincred ible
Ġdecre ase
ĠColomb ia
Ġb unch
Ġto ut
Ġl od
ĠC all
ĠP ig
ĠP ope
ok u
Ġsub sc
Ġsm ile
Ġmin imal
Ġdemoc racies
Ġsector al
Ġassist ants
Ġinj ust
Ġcondem ning
Ġlic ence
ĠGo als
Ġassoci ates
f ish
ues day
Ġexpl ode
Ġfl ames
Ġtal ented
Ġauth ors
Ġcho osing
Ġgrand son
Ġfort ress
Ġpet ty
Ġhonest y
Qu ite
Ġbag s
Ġsurviv or
Ġpostpon ed
Ġearm arked
V D
t or
Ġt s
Ġb ay
Ġh i
Ġhe d
ĠC le
ĠC ab
ĠB ra
Ġun ch
Ġthem es
Ġrec ital
Ġcivil isation
Ġemphas ises
Ġdom inated
Ġinsist ence
Ġharass ment
Ġpipe line
Ġkil omet
f ig
o i
o ft
Ġ vers
Ġor chest
Ġab ort
Ġun ified
Ġcour ses
Ġadv ise
Ġcamp us
Ġaud ition
ĠAd ams
Ġ201 5
ij uana
Ġz ones
Ġpun ches
Ġreact ions
Ġinspir ation
ustain able
Ġse al
ĠB ri
th ird
Ġli ed
Ġport al
Ġrail road
Ġquant itative
ĠDa isy
Yes terday
Ġaccus ations
Ġoverse as
S ad
W omen
Ġp ills
Ġbe e
ĠC anc
Ġcon junction
Ġv oy
Ġpass port
Ġbuild s
Ġbal con
Ġsk illed
Ġexpress ly
Ġjud iciary
Ġwait ress
Ġabol ish
Ġsymp athetic
Ġwarri ors
Tur key
ĠDist rict
L T
R ed
il ess
Ġl amp
ĠB ishop
ry ing
Ġinc orrect
Ġmon k
Ġinf lic
Ġdep icts
Ġsw amp
Ġbar rel
Ġemphas ize
Ġsto res
ĠMil osevic
Ġdismiss es
Ġcontinu ity
Ġdile m
N P
i ac
et ition
um my
Ġr ally
ĠF lynn
ĠK an
ket t
Ġappro ving
Ġearn ed
ĠDel hi
Ġtrail er
AL E
ĠAdminist ration
Ġchocol ate
arett es
ĠEco fin
S ix
o ons
r ors
t te
Ġt ub
Ġt ables
in os
er on
Ġde eds
ĠT ob
ĠL ing
Ġli a
Ġun le
ĠN am
og y
Ġmar king
ĠSh iva
la ims
Ġhear ings
Ġassum ption
Ġlaugh s
Any one
ĠCarol ine
Ġanaly se
Ġinstall ations
ĠRun ner
Ġfare well
B es
b us
Ġt iger
ĠP y
ig ration
ĠN elson
Ġreg rets
Ġgl im
ĠRus sell
Ġter rified
Ġacqu aint
ĠCaucas us
M B
Ġy ellow
us a
ĠB i
od ing
Ġcount ing
Ġinf o
ĠChrist opher
Ġhor rible
Ġla wn
Ġalt ogether
ĠIng leth
Ġprejud ice
re ction
it ter
Ġm ast
ĠC her
Ġst air
ill on
ĠR et
Ġj et
Ġcan cel
ne g
Ġpers ist
Ġmeas ured
ret ion
Ġfl irt
ple te
Ġthird ly
Ġhypoc ris
Ġintoler able
Ġgest ure
Ġconspir acy
M ark
s ki
Ã ł
Ġt ender
Ġle ague
oc a
Ġdis in
Ġman kind
we et
Ġbl ocking
Ġdep ression
Ġadminist rations
Ġreb uild
Ġmer its
ĠBern ard
ĠIM F
ĠBost on
f old
ĠC ec
ir k
ĠS ister
Ġcom itology
ĠL en
velop ed
Ġob ey
Ġcar riage
Ġbeh ave
Ġcle ared
Ġment or
Ġblow ing
Ġbelief s
ĠNor way
Ġrecru its
Ġfurn iture
Ġv ault
Ġcou p
Ġtr ash
Ġleg acy
ric ia
Ġimm inent
Ġform ing
Ġcirc ulation
ĠBen jamin
Ġlimit ations
Ġprag matic
) ;
V ice
o a
r us
v ol
Ġt ense
Ġp unch
ul sion
ĠD aphne
ĠL il
Ġcomp uters
Ġfilm ing
oe uv
Ġaband ons
ĠCor b
Ġbill ions
Ġveget ables
Ġhung ry
Ġvenge ance
Ġabrupt ly
Ġfles h
2 4
N ear
l oyd
om a
our hood
ĠW ang
Ġadd ict
Ġdep uty
Ġsupp ose
ĠAn jali
Ġclass ification
Ġrequest ing
vent h
ĠCent er
Ġpopular ity
Ġconsolid ated
Ġhousehold s
Ġspect rum
Ġcig arettes
Ġsym pt
ĠIngleth orp
a is
d ed
al istic
Ġd ock
il ton
Ġde emed
ĠT it
ĠO cean
Ġfail ures
Ġdr astic
ĠRe view
head ed
Ġheav en
ĠJul iet
ĠHam as
rish nan
spe ed
Again st
ĠChance llor
i ences
end ers
ĠA rea
ĠG wen
Ġafter ward
ĠV enez
ĠIn st
Ġpat ents
Ġign or
Ġinspect ors
ĠAll en
Ġadvert ise
ĠVen ice
Out side
Ġconven ience
z ens
Ġt art
re m
Ġb other
av ier
Ġco ex
Ġdef ends
Ġprof itable
Ġeng ages
Ġparliament arians
Ġport ion
Ġapprec iated
Ġblow n
ĠTe chn
Ġelimin ation
Ġbound aries
ĠSerb ian
Ġtoler ate
Ġprivile ged
ipher al
ĠNord ic
Ġdispro portion
) ]
a unch
p arent
he e
Ġin herent
Ġu seless
ant om
ĠJ ere
ap ore
Ġpre ference
ank a
Ġelect rical
ĠPro cess
Ġclos est
ij i
Ġcritic ise
Ġenh ancing
htm l
n u
Ġs ights
ar ms
Ġare na
ĠF if
Ġapp rehend
Ġbl ade
Ġobject ion
Ġbul lets
ĠBo ok
Ġemot ions
Ġliter ature
Ġhench man
ĠGuine a
G u
J ud
p ath
y les
Ġc ord
Ġc ripp
Ġp ile
ic ious
Ġint imate
Ġcomp osed
Ġinter medi
na i
Ġdecl aring
Ġindepend ently
Ġcondemn ation
Ġvigil ant
Ġhypocris y
F red
W hether
e lect
Ġb er
Ġpro long
ans as
ĠN ep
Ġcomp ound
ĠCh a
Ġrep roductive
Ġbro thel
Ġlove ly
Ġreview s
gl as
rell a
Ġmotiv ated
Ġperce ived
w orld
Ġs ar
Ġto oth
ĠM ann
Ġas semb
ĠP ut
ĠR ol
ĠG ran
lud ed
ĠMar co
Ġpres ervation
Ġban anas
ĠJan et
Ġsuit case
Ġdeliber ations
Ġexpand ing
Ġalt ar
ĠEP A
elie ving
ĠCind y
Ġinherit ance
L a
ol ine
ĠR ena
ĠG or
ĠT weety
ĠL ance
Ġpl un
ere nces
Ġun h
Ġaw ful
Ġsm iles
Ġmod erate
Ġrepe ating
ĠPhil ipp
Ġdynam ite
Ġmultinational s
Ġarrog ant
j in
u o
u pon
Ġto ile
Ġpro port
Ġint ri
ie val
Ġdec omm
Ġback drop
ah an
Ġbr id
ix on
Ġregul ating
Ġrestrict ion
ĠMad h
Ġderog ation
Ġingred ients
M o
Ġt ons
Ġt ends
Ġd ances
am ous
ĠT uesday
ĠD G
ĠNew s
Ġsk ull
Ġmoment um
Ġresol ute
Ġremind ing
Ġoccur ring
Ġprior it
Ġquant ities
Ġreli ability
Ġlic ences
ĠEri ka
Ġmas ked
rak ash
j e
r anging
al in
ist oc
ĠD rake
ack er
Ġdra gged
Ġmot ives
Ġsubstant ive
Ġfaith ful
Ġcul min
Ġchap ters
Ġprivile ge
Ġmistaken ly
Ste ve
Ġalleg ations
Ġtong ue
ĠNeighb ourhood
p iece
at ches
am bers
ĠS ang
Ġsu pr
ant on
Ġse gment
ĠD h
ĠCh ile
Ġactiv ists
ĠBr itt
ĠWal ker
Ġmax im
ĠVer ts
ĠBalk an
ĠAc adem
Ġinequ ality
Ġtariff s
Ġprotagon ist
Ġd rought
ur g
ĠB ull
ĠF o
og ues
ĠCh amp
ne ys
Ġappe als
ĠZ e
Ġfle ets
Ġexc iting
Ġdam ages
Ġfeat uring
Ġforb idden
Ġow es
2 3
b ow
d or
Ġb ite
st orm
Ġpro phe
ĠR an
ĠJ ai
th al
ĠH orn
Ġsupport ive
Ġsuccess es
Ġchar ter
ĠSw iss
Ġceleb r
Ġprec ious
Ġreass ure
C NS
Ġf oss
Ġd well
Ġg aps
Ġst ir
rom e
Ġcom r
ect s
Ġman oeuv
ĠW endy
Ġev ol
ne ath
Ġform ation
Ġrecogn ising
Ġwal ked
Ġdev ise
Ġcross es
Ġdefin ite
Ġineff ective
Rich ard
L eg
v able
er ce
Ġm it
Ġm ud
ul ously
em en
Ġres erved
Ġunder lined
ĠBr uno
EC D
Ġcell ar
T ime
Ġg y
Ġwh ist
ĠP op
Ġoff ensive
Ġcar rier
Ġprotect s
work ers
ĠAm b
Ġweak ened
Ġreun ites
ĠCF SP
Ġunequ iv
G ood
P hil
l ause
t ail
os ity
Ġsh ifts
Ġcont emporary
Ġimp erson
Ġcr ashing
Ġref und
Ġbus h
Ġunderstand able
Ġste pped
Ġlink ing
Ġworth while
Ġhyp not
Ġresort s
ĠWall ace
Ġwheel chair
Ġincap able
L i
d ri
ad ers
Ġwe ird
ĠP eggy
act s
Ġdem ons
Ġmot ive
let t
ĠRich ie
Ġdiplom acy
Ġrevolution ary
ĠNik ki
Ġunsatisf actory
Ġo live
Ġl un
ate ur
ĠG ro
ag ar
urn ed
Ġfin ishing
Ġsy nd
Ġ6 00
Ġhosp itals
ĠDan ube
ĠOr der
raw l
ani el
Ġsimpl ifying
Ġcopy right
ĠPers pective
eterm ination
Ro bert
Ġutter ly
Ġmonaster y
; #
Ġb ites
Ġp ending
ut ory
Ġha ul
ĠP ow
Ġbut ter
ĠK ash
Ġra rely
Ġhand c
Ġmin ors
Ġadm in
Ġpar ach
Ġwr ath
Ch ina
ĠCl ar
ĠBro ad
ĠMont i
Ġaccompl ished
Ġdismiss ed
Ġacknowled ges
Ġhumil iated
C la
i ya
p ers
p ost
t ar
Ġf t
ist ically
ĠR em
Ġr ude
th rough
Ġpr isons
lud ing
An n
Ġattract s
Ġadvoc ated
Ġfiance e
Ġcott age
N othing
h ave
Ġre de
ĠE un
li van
ĠF ay
ov ak
ĠSh iv
Ġvar i
Ġdest iny
An na
Ġparticip ated
Ġself ish
Ġquar rel
Ġburst s
Ġparad ox
Ġwerew olf
Ġmagnific ent
Ġw et
ĠC ody
ĠM ason
ĠI mp
ĠB our
Ġunder pin
lud e
ĠPet ers
Accord ingly
Ġwarri or
Ġmun icip
Ġroomm ate
Sar ah
Ġsupr an
P erson
z i
ro ots
as a
ĠM ich
ill usion
ac ities
Ġse ized
ĠB ah
ĠB unny
Ġr ice
ĠG ib
ĠSt r
Ġadv ised
Ġ3 8
Ġcost ly
Ġpat ron
ĠWh it
ici encies
Ġrap es
Ġsubsid y
Ġversion s
Ġash amed
ĠNig eria
4 5
b el
Ġc ad
Ġb ol
Ġan onymous
ust oms
ĠD omin
Ġdis sem
hes s
Ġinf at
Ġmet eor
az y
ins ky
ĠSp ace
Ġappropri ately
Ġinflu enced
Ġhum ili
Ġinsist ed
Ġaccompl ish
Ġplural ism
) ).
j ana
Ġt ilt
at ters
Ġl or
Ġg room
op oul
Ġch ur
Ġar istoc
ĠO k
rib ution
Ġhar bor
Ġabandon ing
ĠSuper man
I M
t op
Ġn ons
Ġal ign
ĠP erry
ĠG h
ĠL ogan
ast ing
vel ope
ĠO ther
Al ice
Ġlive li
lo ad
ĠAnd rea
Ġinstruct s
Ġprohib ited
Ġgarb age
b ound
Ġe leg
id get
ter ror
con i
Ġar isen
ĠO ut
ĠMar ian
ither to
istic ated
Ġfear ing
Ġdefin itions
Ġver d
ĠDon na
Ġcul p
Ġnarrow ly
Ġtact ics
ĠMade ira
Ġdecomm ission
R oy
re z
Ġs ink
Ġb one
Ġha bits
ĠSt ella
Ġdra in
ĠFr onte
Ġ4 7
mon th
ĠAll ison
Ġvirt ual
Ġtransl ated
Ġexhaust ed
Ġgreet ed
Ġlesb ian
ĠFronte x
f ar
Ġst er
Ġst icks
Ġun iverse
Ġra cing
Ġdiff ering
Ġdet ained
ond a
Ġve to
Ġstay ed
Ġhom eland
ĠFor um
ĠMont enegro
ĠMur phy
Ġflo ating
ou lt
Ġg ren
ĠM een
ĠI ron
em an
Ġdo zens
ĠG opal
ĠF il
Ġback wards
ail and
iss ance
ĠSh ir
sp ace
Ġcompan ions
ĠMel issa
ĠDev il
AC H
ĠEr nest
Lo oking
al id
Ġh orn
le ans
Ġre join
ut ives
id o
ĠM ach
if ting
Ġne o
Ġimp lied
ob s
ĠO swald
Ġvis ibility
Ġ3 9
Ġgra v
Ġpat ience
Ġmis ery
Ġband its
Ġplant ed
Ġretrie ves
Ġunderm ining
Ġexpand ed
Ġcert ification
Ġdatab ase
H uman
R C
n ames
Ġn est
Ġwh olly
Ġse ed
ĠComm unities
ĠT iger
ĠF est
ĠK atherine
Ġrec ourse
ite ment
Ġinv isible
Ġprov ince
less ness
ek en
ĠRe bec
Ġcivil ization
Ġmechan ic
ĠJul ian
Ġreun ification
Ġspot ted
min ute
Ġdisplay ed
ĠFre der
Ġsummon ed
ĠConc iliation
ĠCase y
Ġrehabilit ation
g il
Ġg ag
Ġg low
ĠA aron
ĠD om
Ġad ul
fore st
Ġinv iting
Ġpers istent
Ġshoot out
Ġdeterm ines
Con f
ĠTe chnology
Ġprosec ution
ĠSon ny
J ean
f olk
Ġex pelled
Ġcom a
ĠR ap
Ġen velope
Ġwor n
ĠF ro
Ġimp ending
Ġunder neath
ĠV ill
Ġdown stairs
ĠSe attle
ĠHe ather
200 7
Ġmut ually
ĠRes olution
Ġobser ves
Ġliber ty
Ġmacro economic
Ġsabot age
Ġpic nic
Bes ides
E li
Ġb unk
am med
Ġu mb
ith a
ĠM ol
ĠN ow
Ġend less
Ġpar ade
Ch ris
ĠEuro stat
ĠAb d
Ġdimension s
Ġpurch asing
ĠGar c
Ġunderw ater
Ġoptim ism
Ġincred ibly
Ġjun ior
Ġjack et
ĠAlban ian
ĠUkrain ian
Ġsupran ational
Ġm ice
ot he
ut ty
ĠS A
Ġne at
Ġsh attered
est ein
ĠB har
iz er
Ġtrans national
ĠSh aw
Ġz oo
Ġincident ally
ĠSing apore
ĠCons ervative
Ġexempt ions
Ġcoal ition
Ġinfilt rate
Certain ly
B ro
h is
n ik
u ilt
is k
Ġmar ijuana
Ġloc ations
ĠIn itiative
Ġtext iles
Ġsleep s
Ġdisappoint ing
Ġbetray al
Ġimbal ances
ĠHait i
Ġare n
ĠR eed
Ġab und
ĠJ ama
ĠN ad
Ġreg ains
oy s
ĠV erm
Ġrev ive
lig ence
Ġreason ably
Ġnat ives
Ġpack aging
ĠGu ant
Ġrenew al
Ġmach inery
Ġassass ins
Ġpoison ed
ĠChen nai
ĠCambod ia
y ards
or us
Ġsu pre
ĠG ames
ĠT op
ag in
Ġatt aches
low er
Ġsub stitute
Ġtrans action
Ġrest rain
Ġcap acities
for ward
ĠWh o
Ġtest ify
iling ual
Ġeth ics
Ġapolog ise
Ġlic ense
ĠSil ver
Ġhoney moon
ĠKinn ock
S ur
re asing
ar nt
ut ter
ĠR u
Ġri ot
Ġte at
ĠO tt
Ġbl onde
ĠPro ject
Ġkind ly
omp ass
Ġpain ter
Ġlif ting
Ġconstruct ed
Ġcompens ate
Ġroll ing
CO D
ĠHall ow
Ġdrown ing
Ġdetriment al
Ġdump ed
Ġcounterfe iting
Ġtherap y
writ er
J es
i pt
p at
Ġm ol
as se
ort s
art et
ack ing
Ġsub stit
up s
Ġste pping
Un like
Ġrecon sider
ĠRepublic an
Ġqual itative
ĠMo ore
Ġjewel ry
Ġcens ure
ratt ini
h ya
Ġhe ist
Ġhe ated
Ġst all
end ar
Ġle aps
ĠG ray
Ġout line
ĠN O
Ġrep ay
Ġins ight
Ġelect orate
Ġsupp lied
Be h
Ġweak en
T ony
Ġp ump
ri en
ĠP enny
os ur
us p
Ġex ile
ĠJ i
Ġun amb
Ġdisc retion
ĠOr leans
Ġdom ain
Ġang el
Ġpoll ut
Comm unity
Ġderog ations
Ġrehe ars
Ġincompat ible
A g
D ec
Ġs ample
ed a
ic ular
ot al
ur ances
ĠP enn
Ġk ne
ĠT wo
ĠD ol
we g
ĠMar ine
Ġ4 3
lin t
Ġstruct ured
Ġter rif
Ġexec utives
ĠBe at
Ġtim ing
ĠVer on
Ġmerc y
ĠKe ith
Sc ott
Ġupd ate
pow ered
hard t
ĠBrend a
Ġmisle ading
Ġe co
et ime
Ġst ub
ld er
Ġle ap
ĠJ u
ind er
ĠF air
ĠK enny
Ġmed ieval
Ġdesign ated
Ġ25 0
ĠAt l
Ġexcess ively
Ġautom obile
Ġprosec utor
Ġnurs es
ĠNichol as
Ġde regulation
ĠP ur
ĠA SE
Ġex empl
Ġle ather
Ġle cture
ĠT el
ig ious
Ġtr ay
Ġte ens
ĠTh ailand
Ġtechn ically
Ġserious ness
Ġpo le
ĠZ ack
Ġclean er
Ġconver sion
Ġpir ate
Ġspo iled
Ġenthusi astic
ĠDie go
Ġrhet oric
c all
at om
et ers
ĠI an
ĠA C
Ġle arnt
oc cup
Ġdisc rep
At t
Ġexc ise
Ġsuper market
ĠMal ays
Ġpension ers
hand ed
Ġlaun ches
ĠSat an
Ġsettle ments
ĠBudd hist
Ġbab ies
ĠGon z
es que
ĠM u
ob oda
Ġspe ar
Ġsp okes
Ġper ception
ount y
ĠAr n
Ġmillion aire
ĠHar vey
ĠPal acio
ĠLa eken
Ġpet itions
Ġobser ving
Ġdistingu ish
ĠConf ed
Ġgard ens
Sure ly
M embers
f ly
h our
Ġm os
Ġm ile
Ġl air
Ġde gr
Ġr ank
ĠT AC
Ġj unk
ĠF le
ĠK el
In tern
Ġoff ence
Ġrel ent
Ġident ities
ĠPal ace
ĠMad ame
Ġconver ted
ĠRon nie
ĠHaw ai
Ġcontam ination
Ġepid emic
Ġcaut ious
b es
ic ians
Ġl uc
ĠP ic
ĠR ou
ĠR anj
ĠT ower
Ġcomm em
Ġrep orters
Ġnational ity
Ġdep ict
Ġcrit ics
Ġunc over
Ġrob bed
Be ing
Ġcro cod
Ġdomin ant
ĠStu art
, "
B al
W or
d etermination
s ky
Ġf olk
st ick
ad ows
ill o
ac o
ĠR h
ĠL ion
Ġfe ared
Ġsy n
Ġclass mate
Ġavoid s
Re port
Ġdeterior ation
Ġunres olved
Ġsweethe art
Ġbalcon y
C al
G F
d b
h n
Ġ #
Ġt anks
an ing
ar u
ĠM afia
Ġy acht
ĠG ay
Ġra v
Ġrec re
ĠV era
Ġinst ant
Ġmon ks
Ġfollow ers
work er
Ġide ology
Ġpeace fully
Ġjud gments
Ġconvers ations
ĠLo is
Ġham mer
Ġpupp et
ĠTal iban
Ġannoy ed
Ġinsec urity
Ġsoph isticated
R el
c ott
v ance
Ġt ab
Ġa le
Ġw ield
Ġp ink
am ma
ĠM ak
Ġcl o
ars on
Ġjud ged
Ġaut hent
ĠBen ny
Ġpurch ases
ĠJer sey
Ġdistur b
Ġseduc es
s ome
er red
ĠM ohan
Ġst raw
ĠD iam
ĠL loyd
orm an
hen ko
ater nity
ĠTh ree
Ġple as
Ġsal t
Ġpick ing
Ġcry pt
Ġflood ing
Ġconstitu ents
ĠGlobal isation
Ġdilem ma
in burgh
ver ted
and em
ial s
ĠT ang
ĠSt ew
ĠF itz
Ġam use
Ġrec ur
red it
Ġinter connect
Ġrest oration
Ġche ese
az ar
ĠAn ita
Ġorigin s
Ġcapital ist
ĠShe khar
just ment
Ġdesper ation
Ġdisgu ises
Ġpossess es
Ġsymp ath
ĠTurn er
h ole
at oes
Ġp itch
ĠC ry
ĠC up
ĠE L
ay ed
Ġsh oe
ĠR ef
Ġpl ots
Ġlo aded
rib es
Ġsur geon
Ġfore see
Ġgentle man
ey er
head s
ĠCl ara
Ġwrong ly
ĠMor ris
Ġtro pical
Ġpubl ishing
ĠSch mid
Amend ments
Ġpled ge
6 6
F if
Ġ =
Ġw ings
Ġb out
Ġf u
Ġf ost
ĠC ow
ĠD ylan
ĠO ECD
Ġquestion able
rol iferation
Ġorgan ising
Ġmiss iles
Ġfront iers
Ġclim bing
bal anced
ĠFred dy
Ġsin ister
Ġdisreg ard
Ġambig uous
ĠFreedom s
ĠRel ations
l oe
t own
u ity
Ġe arning
ĠD NA
ag i
anc hes
Ġmar ch
Ġchar ity
Ġreform ing
An ne
Ġminister ial
ĠDar fur
ĠDou glas
Ġcontradict ory
le ments
Ġre organ
gh orn
ra j
Ġdec k
Ġfilm ed
Ġchar ging
Ġread ily
ury a
Ġlight ning
Ġclass mates
Ġdesign er
Ġarm or
Ġcod es
Ġremember ing
Ġsn iper
Ġbul ly
Ġexception ally
Ġsoul s
ĠBrad ley
Ġcontinu ously
C C
O h
P o
Ġ )
Ġt abling
ou ch
Ġm ock
im ated
ĠE mer
her s
ac cession
ĠR andy
pt ions
ĠL ar
Ġli p
iz ard
Ġsc rap
Ġconf ides
Ġbl amed
Ġview er
Ġfree zing
ann el
ames h
Ġhar vest
ĠEx p
bur se
Ġinher ited
Ġmobil ise
Ġfasc inating
Ġdistort ions
ĠBarn ier
Ġcooper ative
Ġmerch ant
Ġchur ches
n els
Ġh ol
om ena
Ġsh irt
li ances
ĠB ear
um bs
our ing
Ġcl ash
Ġco oking
Ġem peror
Ġprocess ed
Ġsim ilarly
Ġinstit ute
Ġimm ort
Ġless er
Ġdest ructive
Ġpar an
Ġstrong est
Ġbur gl
Ġdress ing
Ġgod s
ĠBas que
E v
S yl
m outh
r il
Ġ ÂłÂł
an ket
ing e
Ġd uly
om as
st ruct
ĠA x
ĠR oh
ĠW illy
ens en
ĠCh in
Ġpr ank
Ġwel coming
Ġsl aps
Ġpost ed
ĠMed ia
Ġadapt ing
Ġprosper ous
ĠSloven ian
ĠEth iop
F ive
R em
V ery
p ent
er ies
Ġm ute
qu et
ĠB enn
ĠB uzz
Ġag es
ĠH oly
Ġapp rent
Ġland ed
Ġsav age
ĠBr idge
Ġill usion
ilater ally
Ġpsych ic
Ed die
ĠEth an
Ġsubur ban
ĠNep al
S l
g ly
Ġp od
ĠC ru
ĠC airo
ch ange
ĠR af
Ġpre y
Ġfl ame
ĠDe ad
Ġconsum ed
Ġclass ical
Ġant agon
Ġrob ust
ĠSm all
Ġtrace ability
Ġdepri ved
Ġdish on
re al
Ġl ust
ac on
Ġrem ed
ĠCon nie
Ġallow ance
Ġopp ression
Ġple a
ĠLe h
ĠFin ance
Ġdescrib ing
Ġpet rol
pro t
Ġalt ered
Ġholid ays
Ġnurs ing
Ġtempt ation
Ġamaz ing
ĠMarsh all
Ġcyn ical
Ġbicy cle
ĠFest ival
4 8
C urrent
M a
d ess
h ad
Ġre now
im i
ĠF ield
ĠK l
orm er
Ġcount less
ĠW at
ounc es
Ġmy st
Ġbo ot
ex am
Ġste ady
Ġvol at
St an
Ġsal oon
Ġinflu ential
Ġforget ting
Ġceleb rated
Ġvolunt eer
ĠRay mond
Ġvirt ue
Ġretain ed
Ġalle v
Ġscandal ous
heim er
Ġchampions hip
Ġcamer as
Ġlad der
Ġskept ical
ĠAcadem y
Ġfoss il
3 7
T im
a wn
b urn
Ġst rain
ĠI l
Ġdo zen
Ġimp over
Ġinter f
Ġrev ise
arth ik
Ġant ibi
str ong
ĠLes lie
ĠCorpor ation
A G
A dam
B elieving
b one
c at
g ically
i ance
n ame
Ġt it
Ġb itten
Ġh ier
Ġh itherto
ĠA j
Ġwho ever
Ġ1 20
Ġoff set
Ġdec ap
Ġco financing
oy a
ĠV iv
ĠO ur
Ġform ulated
Ġgra ce
atch ing
ĠZ ach
Ġart istic
Ġcop ies
iam i
Ġpil gr
ĠRob inson
Ġexpos es
ĠThom pson
Ġrival ry
Ġcooper ating
Ġstere oty
R S
g arian
Ġc ree
Ġf og
ou nder
et ha
ĠC ustoms
est one
ĠT roy
Ġdis illusion
Ġun cond
Ġsp ar
Ġsp ray
Ġrep ublic
Ġbody guard
Ġentire ty
Ġpen et
Ġdress es
Ġphen omena
olk estein
erb ai
ĠFer re
it ical
as ury
ĠC oy
Ġsu its
op es
Ġout comes
iz a
Ġsc out
land er
ĠAr k
Ġsuper natural
Ġcru c
ask a
Ġsusp end
Ã© s
Ġcatastro phe
C aptain
Ġd re
Ġl av
ĠC os
ĠC hern
Ġst adium
Ġan gered
ĠT ucker
Ġres ists
au ff
ĠV as
Ġenc ompass
Ġformer ly
Ġclass ified
reg ional
Ġder ived
Ġprompt s
Ġmobil isation
Ġdisarm ament
ĠRebec ca
J eff
Ġc ub
Ġin du
al on
ĠS ong
ĠI z
Ġsh ack
est e
Ġlo ad
Ġexpl oring
Ġbu ff
Ġsol ar
ression al
ĠIre ne
Ġsport ing
ĠCommun ication
Ġgri p
Ġfruit ful
Ġprohib ition
Ġsumm ons
ĠTre vor
Ġstabil isation
ĠHans on
Ġgig antic
ĠRab bit
ĠMig uel
Ġuncom fort
5 00
ing o
ĠW u
ĠV i
Ġsy nt
Ġnight s
Ġcreat ivity
ĠEl ena
ĠMug abe
B A
L ittle
ĠP un
Ġsh outs
ĠG and
Ġad here
ang el
Ġref rain
Ġbl anket
Ġdr um
ĠSc ar
Ġdev il
uff le
oll ar
rec y
Ġplant ation
Ġdeliber ate
Ġcow boy
May be
Ġincomp et
Ġprostit utes
ĠRE ACH
4 6
7 1
f rom
Ġt att
on ou
Ġw ines
es ome
Ġf ever
ic ates
Ġg al
Ġst unned
em ann
Ġen qu
Ġpl ag
Ġun l
ĠK athy
ĠW ade
ound ing
Ġrep ro
Ġview point
Ġdeal ings
orth y
ĠIs a
Ġharm ony
Un less
ĠReg ions
ĠBul garian
Ġfeat ured
Ġunderm ined
Ġliqu or
ĠHug hes
Ġpref ers
B ur
a ired
v ania
Ġs ul
Ġs ket
Ġc ra
Ġg ear
Ġg onna
ĠN an
Ġri vers
ĠO wen
Ġconf erences
Ġhuman e
Ġcur tain
Ġinf ection
Ġair plane
Ġlive ly
Ġinvestig ated
Ġred ist
Ġharmon ization
Ġannounc ing
ĠWal es
Ġexplan atory
ĠDep uty
Ġinterrupt s
Ġupd ated
Mart in
ĠSul livan
ĠJoh annes
Tw enty
ĠHun ter
ĠPed ro
Ġcot ton
N obody
O ff
T en
T urning
f ilm
Ġw rec
Ġcl ue
Ġmat ches
Ġplan es
ins ula
Ġweak er
Ġprec arious
Ġrelie ved
ĠAthen s
C a
r ise
he res
Ġs au
it ri
le z
os ure
Ġex or
rat ory
Ġmain land
Ġevent ual
ĠIs ab
Is rael
ras mus
Ġsymbol s
Ġexperiment al
Ġtaunt s
Ġdub ious
Ġrevel ation
Ġmainstream ing
ĠCurt is
t im
Ġc rac
Ġto ug
Ġp light
Ġp ier
ĠR ow
ĠT ol
Ġres id
ĠL ast
ĠN on
ĠW itch
Ġterm in
Ġann ually
Ġansw ering
Ġmater nity
Ġfort unately
Ar t
Ġdiss atisf
N one
c row
ĠC el
ĠA ut
Ġcom ed
ap es
Ġinc lusive
Ġfact o
Ġaid ed
rodu cing
ĠSw oboda
ĠAd rin
Ġhang ed
ĠHen ri
Ġtun nels
ĠTim my
Ġpurch ased
Ġadvis ory
Ġinfringe ments
Ġcounterfe it
ĠBus iness
Ġinjust ice
Ġliveli hood
A ct
w al
Ġh ards
Ġh oly
ĠS W
li a
ity a
ĠR ey
Ġor n
ĠK un
Ġcar pet
Ġgu iding
Ġcor ners
Ġvo iced
Ġorganis ms
Ġinnov ations
Ġsubm ission
ĠPo et
Ġincomp rehensible
Ġfant as
Ġagg ression
Ġarbit rary
Ġpup ils
ĠCot onou
Ġtranspl ant
Ġvoy age
3 8
D ave
G AO
b ird
v ious
is an
ul us
Ġat omic
ĠL akshmi
Th inking
Ġunder way
act or
ĠO f
ĠDirect orate
Ġrestrict ing
ĠFrank enstein
Des perate
Ġdefend ers
ĠMe gan
ĠSen ator
ĠWor king
ĠHallow een
) (
G ar
T E
c olm
d epend
g ood
et ta
ĠC are
ĠP earl
Ġby e
Ġse af
ĠL ane
Ġun ravel
Ġgu err
Ġ19 30
ĠMar ion
Ġinf ect
ĠFr ont
Ġvill ains
Ġlist ens
Ġcat hedral
Ġaccompan ies
Ġmanufacture r
ĠDa wn
Ġtrick ed
Ġreloc ation
uber cul
Ġculp rit
9 2
d is
e pt
t itle
Ġt idy
Ġs ge
er d
Ġc um
ĠE c
ill es
ĠB utch
Ġste am
ĠCar la
ator ies
Ġden ying
Ġdro ve
Ġexplo res
Ġsacrif iced
Ġpattern s
Ġstub born
ubercul osis
7 5
L ook
d est
Ġs ir
Ġd un
ĠC ash
Ġst ored
Ġpro active
Ġde le
Ġsh ake
Ġex agger
ĠB ible
ĠD ri
th an
Ġli berties
ap na
Ġfact ories
Ġcap s
Ġdiv isions
ĠWar ren
Ġtrou pe
ĠStep han
Ġreinfor cing
Ġerad icate
M S
it ate
or ado
ot ted
ĠS r
Ġle v
iv ities
ĠH erman
ign ific
ord s
Ġinter oper
Ġremain der
Ġperform ances
ĠRe ggie
Ġart if
Ġindic ations
Ġbul k
Ġsun set
Ġwild erness
ĠCla ude
ĠAz erbai
Ġwand ering
Ġprefere nces
G o
K ate
f irst
i ably
Ġb ribe
ĠE nter
Ġsu ited
ĠB ou
ĠR ail
ig ger
Ġshe et
av in
Ġcr ude
ĠAr un
Ġmod e
Ġprofess ions
Ġnar rative
Ġincorpor ating
Ġpred icted
Ġgather s
Ġdisag reement
Ġpig s
Ġcann ib
girl friend
Ġsevent h
Ġretal iation
e u
r m
Ġb ru
Ġb ounty
Ġof t
ĠP itt
ac ent
ĠT ess
ĠT aj
Ġun named
Ġev ade
pect ing
Ġsa iling
gin s
As s
Ġsur rend
Ġterm inal
Ġjour neys
ĠFore st
aksh i
Ġpa wn
ĠConf ederal
Ġhav oc
ĠMerc osur
Ġalb um
Ġunamb ig
s ided
u ij
Ġ ic
Ġd irt
ĠM ong
ĠB aker
ĠJ ournal
ĠW ell
ĠW ile
Ġimp at
Ġover th
Ġind o
Ġsub way
Ġris en
Ġbar bar
Ġrom antically
Ġstraight forward
Ġsmooth ly
ĠRober ts
names e
0 9
i ator
al o
Ġhe al
ĠM iami
ĠG oth
ĠT i
ĠD em
ĠD VD
ig ate
ĠF oster
Ġmod es
Ġcompl ains
Ġspir al
Ġmill ennium
Ġattend ance
Ġtransf erring
ĠCur ly
Fe eling
E T
V ijay
g roup
al us
st ad
ĠM oe
ĠS ultan
os hi
ĠH and
ĠH unt
Ġlo ot
Ġinst alled
arth y
ma res
ĠMon ster
Ġunre alistic
Ġcoinc idence
stan bul
ĠJere my
ĠMalays ia
om on
ĠC ale
ĠS IS
Ġsh ocks
ĠG ul
ĠSt ation
Ġam ateur
ish i
Ġcount s
Ġapp ar
Ġpop ulated
Ġconfron ting
Ġbench mar
Concern ing
s ay
at on
Ġc ater
Ġp ard
Ġle ak
Ġcomp assion
ĠK er
xt on
Ġaid s
Ġstat utory
yl vania
ĠHe aven
ades h
Ġexec ute
Ġult ra
rid den
Mar ie
ĠViet namese
ĠWin ter
Ġcomplement ary
ĠDun can
Ġcarn ival
T ake
m ails
s hip
Ġn ad
Ġhe ct
Ġne uro
ĠL uther
Ġout put
ĠCh ild
Wh ich
inc ome
Ġrele asing
ĠSe venth
ĠWh ile
Ġtele ph
Ġrob ots
Ġalloc ate
Ġattend ant
Ġmagic ian
lean or
ĠSah ara
ĠArgent ina
Ġtoile t
Ġt ennis
Ġs inks
Ġd orm
il ogue
Ġsh orter
Ġbut ler
ĠL ow
ĠH ou
ens ed
Ġlo oph
ang a
Ġconf using
ount ing
Ġclear ing
Ġsec recy
ank y
olog ists
Ġimpro per
ĠPol ly
Ġill icit
ĠCol in
ĠAnt i
Tr ans
Ġwip ed
Af ric
Ġhorrif ic
ĠCorb ett
C om
D an
D el
i ates
m ap
s ch
as an
ĠC D
ĠM ess
ĠP il
Ġr ust
ĠG an
ĠN Y
Ġeconomic s
Ġshow down
Ġrest s
Ġimpro ves
ĠSh ah
Ġpass ive
Ġapplic ants
Ġimpact s
de veloped
ĠEd inburgh
Ġconsult ing
Ġoccas ional
ĠHer zegovina
Ġvalid ity
Ġautonom ous
C arl
Ġw ipe
Ġf ug
ĠC ore
Ġu gly
Ġen rich
Ġar c
Ġri vals
ib e
Ġeuro zone
Ġexcell ence
Ġconfirm ation
ĠPat ricia
Ġforg ives
ĠFranc o
Ġmort ally
Ġembarrass ing
Ġrend ez
Ġdistingu ished
c in
t ra
ĠC re
ĠL om
Ġpl ague
ob by
Ġwhere upon
ĠV eer
ĠV iolet
Ġes p
Ġcour ty
Ġnight mares
Ġform ulate
Ġmod ification
Ġdep icted
ĠBar ney
Ġexam ines
ĠAnd ers
Ġfront ier
Ġreview ing
ĠCl are
Ġcontact ed
Ġfisher y
Ġpoison ing
Ġprote in
v ie
Ġf aints
ĠS ark
Ġex otic
Ġout look
Ġcons p
ov an
Ġinter action
err al
ark er
Ġge ared
ĠCor ps
orne ys
uster ity
ĠBab u
Ġimbal ance
Ġforecast s
ĠBroad way
f at
Ġh orm
ri ages
ĠU C
ever ly
Ġpr int
Ġpr icing
Ġtra uma
ood y
ĠAr ticles
Ġgl ob
Ġtechn ique
Ġche ated
ier ra
idd ing
Ġcirc les
yn n
ari os
Ġeld est
Ġillust rates
Ġveget able
Ġcos m
Ġatroc ities
Ġuncomfort able
f ol
g ia
r ina
ot ive
ra ud
ĠP ie
Ġnot ing
ĠH at
ĠF on
ĠN ev
ĠK i
Ġcount y
Ġsc rat
amp ed
omet ric
Ġsign atures
ĠDe x
Ġoper ated
Ġdest ined
Ġinvestig ator
Ġdesign s
ĠCo ok
ĠBro ok
Ġunw itting
Ġglass es
Ġveter inary
Ġperpet rators
Ġsle pt
ĠEri k
t rack
w ick
z ona
Ġp oker
ĠS iv
ch ildren
ĠA ld
ĠO z
Ġgood will
Ġbr ick
Ġcompl iment
ĠCo x
Ġhighlight ing
ĠBur ke
Ġjew els
Ġcontrovers y
Ġredund ant
Ġdismant ling
Ġdeploy ed
Ġdisproportion ate
D id
l ance
Ġw arden
Ġl ung
Ġg or
nt ial
ĠB and
Ġcomp lying
Ġcomm issioner
ition ally
Ġbl ank
Ġdet ain
Ġname http
Ġvi ability
ops is
Ġeval uating
Ġcommand ing
Ġdeg rees
Ġvac u
Ġarch ae
Ġroll s
Ġillust rate
Ġbes ides
g on
h ill
Ġo ar
Ġo zone
Ġbe gg
Ġbe gging
ut ure
gh ter
ĠI stanbul
Ġtr an
ĠK r
In vest
ĠW es
ĠCh ow
Ġhand ful
ient ific
Ġ4 9
ĠAd justment
let te
Ġver ge
Ġcle ans
Ġtaxpay er
ĠLuk as
ĠAzerbai jan
4 9
l arge
Ġa usterity
an ne
ĠC row
Ġde ception
Ġr anks
Ġr ushed
ĠG ate
ĠD uck
ĠF ire
per ial
ub a
Ġsc an
ĠV ick
Ġext ends
Ġfr antically
iss y
oot er
Ġdest abil
Ġdraft sman
cl ock
Ġsn aps
Ġoccup ying
Ġreferendum s
ĠKir k
ĠSur aj
Ġincur red
F l
M ag
S al
as im
ct s
ĠB olkestein
Ġout er
Ġover coming
Ġgu ise
Ġenc l
Ġbal let
ĠSam uel
zz a
Ġinterview ed
Other s
ĠSand ra
ĠSa udi
Ġentreprene ur
Ġdisgust ed
Ġcounterpart s
A h
H AR
P S
Ġt ips
Ġf li
Ġf ist
ou ri
ic idal
ol in
Ġwe al
Ġan k
ac ious
ĠComm ander
ĠT rib
th ink
con f
Ġinv ention
Ġtra ces
Ġmo le
ĠAd rian
Ġ8 00
ĠSoc rates
idel ity
ĠLi u
Ġgrad uation
Ġtrib es
Ġjudge ment
Ġrecip ients
Somet imes
Ġvolcan o
Ġresur rect
Ġscholars hip
Ġrendez vous
5 5
E ast
J ane
M ac
l ist
m ans
he ster
ĠL ill
th odox
ĠF ig
Ġass ail
Ġmon key
Ġcond itional
ĠTh orn
Ġadm itting
Ġdi et
Ġcommer ce
Ġbelong ings
ĠDor is
aval ry
Ġtap es
Ġexerc ising
Ġpoet ry
Ġredund ancies
Ġmirac le
ĠAri zona
ĠChap ter
C y
D ou
S w
f ive
g us
Ġs ie
or an
ĠM ot
li ver
Ġimp unity
Ġpos se
Ġass ent
tain e
ount ain
Ġmat ure
Ġview ers
Ġfl aw
ĠMin istry
Ġrele vance
Ġmanufact ured
Ġgamb ler
Ġplat oon
Ġanx iety
Ġbreed ing
ĠRub y
Ġembra ces
" .
6 8
N R
o j
Ġt ide
an en
ro id
Ġn ail
ĠP anther
Ġr am
ĠD ream
Ġatt orneys
ob yl
Ġgr ade
Ġindivid ually
Ġstri ving
Ġoppos es
int erest
Ġemerg ence
Ġspread s
Ġcorpor ations
Ġbow ling
Ġeleg ant
L arry
S er
a ft
p it
Ġthe ore
at re
ur b
ĠP oint
ĠR w
ĠF err
Ġover sight
Ġintern ally
Ġloc ally
ug ene
Ġtrad ers
Ġreflect ing
Ġrat io
Ġauthor itarian
ĠBer g
ĠBec ky
ĠTibet an
Ġrub ber
Ġdepos it
Ġrecruit ment
Ġgreed y
Ġrenow ned
M iss
c r
or able
ur able
ĠC irc
ĠP as
Ġnot able
pp i
Ġser geant
Ġtra itor
Ġacc ent
Ġsm ashes
Ġsuccess or
Ġfree ing
Ġfunction al
ĠCla us
ĠSak har
ĠMaur ice
ĠPin oc
Ġvit ally
Ġadmir ation
Ġdecommission ing
S an
Ġ Å
Ġo or
Ġf its
Ġf illing
Ġh oles
ĠA na
ĠR ex
ĠR ico
Ġj an
ab b
Ġdis like
ear ning
Ġimp artial
Ġind ign
und i
Ġcar ved
Ġbo oth
Ġdisappe aring
Ġdecor ated
Ġbiote chnology
V an
Ġf ru
ĠM P
Ġst umble
ĠR ao
Ġch ag
Ġab ide
ĠH erc
Ġpre amble
row s
Ġide als
Ġmurder ous
Ġshare holders
ĠIsrael is
Ġstar ring
Ġ% .
Ġbox es
Ġsubm itting
Ġtrib al
Ġinstruct or
Ġnut r
Ġtradition ally
Ġalleged ly
ĠCF P
Ġcontam inated
Ġbankrupt cy
n ar
z heimer
Ġb og
Ġd uration
ĠC ad
ĠC athy
us ions
Ġass urances
Ġgl o
Ġelect ron
Ġmilit ar
Ġden ounce
Ġeval uated
Ġpresum ed
ĠVeron ica
3 3
H igh
R ight
en na
or ig
Ġher s
ru gged
ok i
Ġover l
Ġsm itten
Ġbu g
Ġair space
Ġdocument ation
Ġrat ings
Ġdiscrimin atory
Ġoccup ational
Ġquot ed
ĠAsh ley
Ġshr ine
Ġhypoc ritical
Ġlau nd
Ġlau ndering
Ġcultiv ation
Ġswit ches
ĠVenez uela
Ġintri gu
at ra
Ġp ounds
ĠB uch
Ġres ervation
Ġout raged
ĠH iro
Ġdis order
nc ies
Ġpre dom
Ġover ly
ty pe
Ġinter c
Un bek
Ġcat aly
Ġ8 5
Ġcompl ications
Ġdin ing
ĠSer bs
Ġsan ction
Ġphys ician
Ġcomplain ing
Ġresum es
ĠFel ix
Ġverd ict
oult ry
b illion
r d
Ġe g
Ġun ple
Ġcl one
Ġro oft
Ġinv ented
Ġsub s
ism an
Ġfl ashes
Ġpur se
Ġobs ess
ĠHar rison
Ġsimpl er
Ġprem ises
Ġrig our
Ġpreced ence
Ġfool ish
ĠOl lie
Ġextrad ition
ĠChern obyl
P ublic
Ġs inking
Ġb achel
Ġg ates
id i
Ġst aring
ĠE rasmus
ĠA ven
ĠB rig
iv able
ĠT en
ĠH appy
Ġun av
ĠCh un
ĠCh annel
Ġinv ade
Ġind ef
Ġcare ers
Ġpo em
Ġ4 1
Ġemphas ising
Ġsal mon
Ġinflu x
Ġdepend ency
Ġreluct ance
Ġreact or
Ġresign ation
Ġrough ly
ĠHug o
Ġcatastro phic
ĠSix th
fr ame
Ġadmin ister
Person ally
T ra
at ched
ent on
ot es
Ġv ib
ĠG ard
ĠK ey
Ġpe ak
ord e
Ġap ology
wh o
Ġpossess ions
ĠTam il
ĠTed dy
Ġasc ertain
P al
f unction
o ine
p y
p her
he ast
ant ine
Ġad n
ĠK ish
hen burg
ĠV is
ĠO m
own ers
Ġbl at
Ġbro wn
Ġbre aches
Ġrece ipt
Ġbenef ited
Ġbur nt
Ġbul lies
bor ne
Ġwors hip
Ġstret ch
Ġhoc key
Ġstro ke
Ġamuse ment
4 7
B o
J ames
c ard
d ale
Ġb ait
Ġf ades
Ġv end
ĠL ist
ĠH oney
ĠSt aff
ag ne
ĠW heel
Ġsc ores
ild a
Ġmon ument
Wh atever
arn er
ĠMar ines
Ġdist ortion
Ġredu ces
Ġactiv ist
mes e
Ġpot ion
enn ie
Ġ7 00
ĠEl aine
Ġtro op
Ġfeed s
Ġded ication
Ġvig orously
Ġunre ason
Ġparam ount
ĠSom alia
6 5
Q ue
m ad
ak rishnan
ĠH ood
Ġpl a
Ġam mun
iz za
ip h
Ġunder going
Ġunder lines
ors hip
Ġpass ports
ĠMon a
Ġcorrect ed
Ġhum iliation
Ġsan ct
Ar thur
Ġtim ber
Ġcurre ncies
Ġtransl ate
ĠFran z
ĠElli ot
Ġfortun ate
B r
T y
V al
a ith
Ġf iction
Ġp est
ĠP i
Ġun he
Ġfa irer
ĠCouncil s
Ġinv entions
Ġcr ashed
Ġche f
den ed
ĠZ eal
Ġexc itement
vis ory
Ġacqu ainted
Ġtrust ed
Ġmig rant
ĠAnn ual
Ġlie utenant
Ġorganiz ational
Ġunw anted
ĠEv il
Ġinstall ation
eterm ined
Ġprefere ntial
ĠNet work
Ġbom ber
o en
o zy
Ġw ai
Ġb ans
ed uc
ĠS weet
Ġde ple
ch io
ĠB re
Ġint act
ĠT rent
Ġover r
Al most
Ġstrengthen s
app ing
Ġaud its
Ġproceed ing
Ġreven ues
Ġbelong ed
ĠRed ing
ĠBur g
Ġorph ans
Ġexceed ed
Ġembarrass ed
ĠME DA
ignific ant
Ġglob ally
E uro
w ich
re b
ir teen
ĠP O
ĠT oby
ĠF rattini
Ġshould ers
av ana
lic t
Ġacc use
Ġbl oss
Ġsm ell
Ġgr im
Ġcare t
ĠMon te
Ġdeep ening
ĠPl ay
ĠBur mese
Ġrecru ited
Bob by
Ġpsychiat ric
ĠCamp bell
rup ulous
Ġsympt oms
Ġmanoeuv re
Ġvacu um
D C
D affy
M aj
Ġa usp
Ġf end
se x
ĠC art
ĠP rakash
ĠD in
Ġun ification
ĠN ass
Ġinst inct
Ġloc ates
Ġreason ing
ott i
Ġsuper v
ĠNo ah
Ġund es
Ġcapital ism
ĠTe resa
Ġhur ry
ĠSun ny
Ġbow l
Ġcalc ulated
Ġtemper ature
ĠBrand on
Ġcourty ard
8 9
f illed
o op
Ġc her
ic ia
ag u
ĠK la
pos ed
Ġpoint less
Ġadv ancing
Ġlegisl ature
ĠAl zheimer
ĠCar rie
reg ation
Ġearli est
Ġspeed y
EP A
Ġreact ors
Ġbath ing
ĠNat ura
En raged
ĠGot henburg
ĠCoy ote
Ġf ancy
al an
al ysis
Ġh iring
Ġd ive
Ġn un
ĠC old
ĠS ach
ul atory
ĠP ia
ĠP rab
ĠI ll
Ġsh ady
est ions
qu in
ĠD ig
Ġcan ce
ag en
ĠCh ir
Ġhouse keeper
Ġcap ability
Ġviol ate
Ġpar ole
Ġsuper iors
Ġ9 9
ĠPakistan i
war f
Ġsurprising ly
i ver
it ates
ĠE qual
Ġan th
art ing
ĠB ed
um ing
Ġen light
per t
ont ane
Ġemph atically
ĠAnd r
ĠCol orado
Ġgrand daughter
Ġhit man
ĠMed ina
Ġstab bing
Ġcommand s
Ġsumm its
Ġdisadvant ages
Ġexerc ised
Ġresemb les
oca ust
H ave
Ġb rawl
Ġp oultry
ro pol
ĠP M
ĠT oday
ĠCh loe
ick er
ative ly
ah t
Ġsit uated
Ġhand ing
Ġread iness
Ġport rays
Ġund en
ĠBe ast
Ġtim id
Ġearn ings
Ġsafeguard ed
Ġdanc ers
ĠGover n
ĠBor is
Ġamaz ed
Ġsurpl uses
Ġju ven
Ġinteroper ability
ĠSakhar ov
H as
N ational
O N
Ġt uberculosis
Ġb ids
pe are
ĠU g
Ġdis li
Ġinc rimin
ress es
Ġsp ontane
old ing
Ġequ ity
itor ing
Ġsex y
akes peare
Ġfair ness
Ġfix ing
nam o
Ġtent h
Ġelig ibility
Ġaccommod ate
Ġdread ful
Ġacquaint ance
Ġimpat ient
B rit
D et
J ess
b est
nd ez
ĠS ay
ac ulture
Ġse eds
Ġbut t
ĠR hod
Ġdo omed
ĠG ov
ĠG erald
ĠU EN
Ġfin es
ord ers
Ġtra pping
ric ks
ĠAm ber
Ġbur ial
Ġport fol
Ġspeed s
Ġscen arios
Ġafford able
Ġcorpor ation
cont in
Ġdrown ed
Ġexhib ition
ĠGil bert
Ġpredecess or
ĠExp and
4 4
D or
M el
R ef
S ec
h al
r itten
en aries
Ġall er
Ġch at
ĠSt alin
Ġyour s
Ġfree ze
Ġvill a
Ġaud itor
ĠRob bie
Ġded uc
Ġhesit ant
Ġdepl ore
ĠHard y
Pol ice
Ġprest igious
Ġcorps es
Ãº n
ĠJohannes burg
7 7
d og
m ist
at in
Ġs lic
an ium
Ġre im
Ġl ures
Ġl odge
Ġde ployment
ul ent
Ġj azz
ĠJ ee
ab a
ĠK ansas
uc king
Ġsoc cer
Ġelect roc
sw eek
Ġwal let
Ġforeign ers
ĠCl ass
ĠBel le
ĠLu is
ĠCons ervatives
Ġsem in
Ġdiagn osis
Ġentrepreneurs hip
Ġmisunderstand ings
ĠRoh it
Ġammun ition
s cept
Ġt ag
Ġm alf
as ive
Ġon wards
Ġst eep
ill as
Ġex its
Ġr use
Ġpe cul
sel t
Ġconc erted
Ġrep airs
ss en
leg isl
Ġconflic ting
ĠMan uel
ĠEl lie
Ġremind er
Ġlif etime
Ar riving
Ġround s
Ġparal y
Ġaccompl ice
Ġcorner stone
ĠHels ing
Ġped est
Char les
S ocial
Ġs orrow
Ġp atch
Ġd umps
im o
Ġse aled
ĠH ector
ĠU z
ĠK au
Ġstr angers
ĠCon nor
Ġgener ating
ĠSh ow
ĠTh under
Ġvar ied
Ġ5 1
Ġgun fight
osp ital
rug s
Ġsl aught
Ġtem ples
Ġdies el
Ġassum ptions
ĠSan jana
ĠEC HO
ĠRich ards
Ġcrowd ed
Ġenvis age
ĠBrother s
Ġgren ade
Ġumb rella
9 3
l on
Ġf ol
Ġp ants
ot te
ĠS ection
ĠS ierra
ĠB ren
ĠD ee
Ġwas ted
orm al
Ġinc ar
Ġnow adays
Ġsy ner
Ġadd itives
Ġrep ressive
Ġvis itor
ond o
Ġpres idencies
Ġsw ears
Ġaffect ions
Ġtre acher
Ġrelig ions
Ġdig ging
Ġintens ify
ĠBec k
Ġsam urai
Ġcorn ered
Ġindiff erent
Ġmiser able
Ġcoex istence
Ġjan itor
am o
ĠE D
end ix
ĠG am
Ġwas hed
ĠF eng
ĠCh ip
Ġaw ake
Ġinf amous
ey ed
Ġtri angle
Ġwa ited
Ġresol ves
Ġmethod ology
ĠPh antom
Ġrul er
Ġfo am
Ġparam eters
Ġscept ical
ĠLoren zo
Ġastron aut
E M
J ac
P A
a ud
Ġf oul
Ġe rect
ĠC res
ol an
ĠM ing
Ġde ed
port ant
ĠG in
th y
ĠH off
Ġun know
ĠPres s
Ġcl ashes
ens ity
ounc ing
Ġper ipheral
Ġmon st
Ġloc ker
ĠEd gar
Ġharmon ising
ĠMad ison
Ġcondem ns
ĠTe le
Ġassass inate
Ġdivers ification
ĠRagh u
Ġgrav ity
J apan
b et
v ency
Ġb umps
Ġh ipp
Ġst roll
Ġsh aft
ĠR iley
Ġr ats
alth y
Ġgl obe
Ġform at
Ġsuccess ive
Ġstep father
Ġdr astically
ĠIs abel
Ġwa iter
Ġhonest ly
Ġcalm ly
Ġawa its
Ġtoss es
ĠLyn n
Ġnav igation
Ġdisin tegr
Ġnons ense
Ġcrocod ile
ĠStew art
E D
J ason
L ee
S ir
k ov
Ġo d
Ġp and
Ġm asters
Ġre neg
st ed
ĠS ai
ul ling
ĠI LO
ĠB rah
Ġbut ton
Ġr anging
ud ge
ĠW ally
Ġacc using
Ġfore front
Ġcomb ining
Ġship ment
Ġcollect ively
Ġcal endar
Ġmig ratory
ĠDev i
Ġpray er
ĠEur atom
Ġspaces hip
Ġprecond ition
HAR E
ad i
Ġv ine
ĠB everly
ie re
ĠT H
ost al
ĠK ap
ru ck
og o
Ġsub du
Ġcur ios
Ġparent al
Ġcapt uring
Ġresc uing
Ġexec utions
ĠHam ilton
Ġmerc enaries
ĠWall strÃ¶m
Ġerad ication
Ġsculpt ure
ĠZeal and
6 2
G od
m ers
at ical
Ġm ixt
ro o
ri am
Ġle af
ĠR Ã¼
Ġch apel
ag gy
ĠN ative
ĠIn f
Ġtal es
ĠPr inc
Ġtarget ing
Ġwid ower
Ġhes itation
Ġproportion ality
ĠStar r
Ġmotiv ation
Spe cific
Ġpollut ants
stad t
O D
o qu
ĠC lear
ĠC rist
ĠE leanor
od ed
ĠR ot
Ġup side
Ġsc ares
Ġsp ider
After ward
ĠSh yam
Ġadm ire
Ġlot tery
Ġgun shot
Ġrob bing
ĠSl ate
ĠIndian a
ĠFred die
Ġdiss u
Ġantic s
Ġrent s
Ġrecip ient
Ġtowns folk
pow ers
Ang el
Ġunple asant
p ot
p arty
Ġh ust
Ġn an
il ated
ĠP HARE
ĠG ret
ab out
ĠCh ang
Ġem ig
ĠO x
Ġend ure
Ġdem ise
Ġtrans c
Ġcol ors
Ġnational ism
ĠSh adow
Ġmult ilingual
Ġmis chie
Ġpan ics
Ġinstruct ed
Ġcateg or
ĠBab a
ĠBat man
Ġchag rin
h ma
Ã §
Ġt in
Ġp imp
ĠE DF
ay ya
op ath
Ġint ra
Ġdis pose
Ġli able
ĠN ell
ĠCh o
Ġback ward
ĠO p
Ġfil ed
Ġtal ents
Ġconv ent
Ġbenef iting
sh ore
Ġtravel ed
Ġclass room
Ġver ify
ĠEuro just
Ġ198 8
Ġreact s
Ġexpos ing
Ġadvoc ating
Ġrum ors
ĠGriff in
Ġprol iferation
Ġslaught ered
E s
W ald
b ly
f ood
z io
is se
Ġf ox
Ġp ave
Ġre jo
ĠE very
Ġr hy
ĠG y
ĠH erm
ĠH ass
ĠF ried
reat ed
own ed
Ġprov in
Ġpar ks
Ġce ment
Ġcollect s
ĠMa e
Ġreconc iled
ĠGl en
ĠFis her
Will iam
cont rol
ĠCr us
Ġsixt y
Ġecosystem s
ĠHawai i
burse ment
ĠBrook lyn
M or
V ictor
Ġcon gest
ĠS aw
Ġha w
ĠP rag
ĠD imension
tain ing
te ch
ail ing
Ġsec urities
Ġdef iciencies
Ġhope ful
Ġstep mother
Ġperform ers
iet h
ĠHar i
uff ed
che t
ĠPat ty
Ġcolor ful
Ġreciproc ity
Ġtatt oo
c ross
g iving
Ġc ited
Ġth rew
Ġre op
ĠE ugene
Ġal ibi
Ġsh aken
ĠB et
um ers
ist ory
ĠF anny
Ġover view
Ġsc am
Ġproject ed
Ġcho ir
ĠUS S
ĠMal ay
Ġband it
bour ne
Ġeight y
Ġcomfort s
ĠCarol ina
Ġhesit ate
Ġpocket s
Ġconvict ions
Ä į
Ġp ent
Ġn aval
ab ad
Ġup held
Ġli ps
Ġcomp lies
ĠK night
Ġsec luded
ĠThe ss
Ġur l
Ġdon ation
Ġdon ations
Ġdev ised
ĠWh y
Ġcross ed
Ġcrew s
Ġmad ness
ye on
bro ther
ĠRos a
ĠBarn es
ĠJosh ua
ĠCE O
ĠCry stal
ĠEthiop ia
Ġpredom in
Unbek nownst
L aur
u z
it ra
Ġc ows
Ġc aves
Ġl ugg
ur ate
Ġimp ly
Ġrec laim
Ġrem orse
ĠSh annon
ĠSh akespeare
Ġbreak through
Ġglobal ised
Ġbal ances
Ġpack ages
Ġcover t
Ġsal v
Ġmechan ical
Ġsett ling
Ġcourt es
Ġindustrial ised
Ġneighbor ing
Ġtransform ing
rey er
Ġresident ial
ĠSal v
Ġprefer able
Ġrevol ver
ĠCO M
mo il
roduct s
ĠRog ers
ĠPhilip pe
Ġcontradict ions
Somet hing
Ġaqu aculture
Ġexempl ary
Ġallev iate
1 00
D aniel
R avi
S y
Ġ ).
Ġt um
Ġt ires
Ġl akes
Ġwh ale
Ġcom pelled
ie g
so far
ĠH ad
ire n
Ġmar vel
ace y
Ġsm iling
Ġcap ita
Ġgra in
Ġbrief case
Ġmodern ise
Ġfem in
Ġsad istic
Ġtraged ies
ĠIm perial
Ġnick named
Ġincom plete
ĠArmen ia
fund ed
Ġproport ions
ĠKash mir
F inding
R uij
g or
n ig
Ġh atch
Ġpro x
Ġcon quer
ĠB ean
Ġor ange
Ġqu o
Ġget away
ub ble
ĠO omen
Ġprot oty
rit z
Ġbr on
ĠY og
Ch and
Ġant id
ĠEl sa
Ġgrant ees
Ġred ress
ĠDemoc racy
Ġmusic ians
Ġliberal ization
ĠSan jay
Ġexplo iting
Ġreact ed
Ã¡ namo
ĠEve lyn
Ġoverwhel med
ĠClaud ia
ĠPhilipp ines
ĠPoet tering
7 6
E ric
P ete
S outh
d ia
ri x
gh ai
ort on
ĠA ce
ĠL ena
ĠL anka
ab et
Ġpre rog
Ġri ps
Ġdisc ount
ĠSh ane
Ġrepl aces
Ġqual ify
Ġvig orous
Ġillness es
Ġconven ient
Ã¨ s
Ġwrest ling
usc ript
gi ene
ĠNob el
Ġshout ing
Ġcommod ity
Ġreappe ars
ĠCypri ot
M ur
b ot
k ers
Ġt iss
Ġc iv
Ġp enn
Ġh ike
Ġd im
Ġsh adows
ĠL ama
Ġup gr
ĠW oo
Ġrec apt
ject ed
gin a
Ġreal m
Ġdra gging
Ġlegisl ate
Ġaccident al
Ġbar on
Ġgen ius
Ġdiv iding
ĠMal colm
ĠSum mer
Ġbox er
Ġepis odes
Ġtranspos ed
Ġhav ens
Ġpy ram
Ġthwart ed
Ġscarce ly
Ġcelebr ity
7 8
K ar
g one
h usband
z el
Ġa fore
Ġh uh
ĠM om
ĠM ai
Ġas hes
qu estion
Ġcont ing
Ġman uscript
ĠK on
Ġinc oming
Ġsc ourge
ĠO ri
Ġaw akes
Ġsec ular
Ġcur b
Ġdist rust
ĠRo om
Ġenorm ously
Ġmort gage
Ġpir acy
Ġreward ed
Ġoverlo ok
Ġric hest
ĠMaur it
Ġhomosexual ity
ĠXia o
Ġerupt s
ĠPut in
Ruij ten
J ay
R ep
b ene
w alk
Ġl ending
im on
pe ople
Ġst ones
ĠS ac
ĠS ax
ra pe
op ular
un ami
ĠT oul
ĠF isc
ap id
ob o
ĠV on
Ġinter act
Ġspec ify
ĠAb raham
ĠRepublic ans
Ġobser ver
bor g
ĠSand hya
ĠOli via
Ġawak ened
Ġharass ed
Ġantibi otics
B ond
K ing
Ġa rous
Ġf ren
ĠC ape
ĠE quality
ak y
ĠA re
ĠB ase
Ġab du
Ġli ghter
Ġtr ucks
In ter
Ġdec lining
ĠO bs
Ġsuccess ion
ĠHar bour
Ġnet s
ring ton
joy ed
ini que
ĠTe am
Ġep ilogue
ĠMe h
ĠMil o
Ġcabin et
ĠGi ov
ĠStev ens
Ġdiscoura ge
Ġhed ge
Ġglim pse
Ġinfat uated
t age
re ne
Ġw ax
ĠC ed
Ġj okes
ĠN ash
ĠO ver
ov ies
Ġbl oc
Ġorder ing
Ġmat hem
arent ly
ĠPro v
ĠSp ider
Ġstat ues
Ġtele gram
ĠShe ila
Ġhum or
Ġconcent rating
Ġeight een
Ġrac ket
ĠBh ai
ĠLeon ardo
Ġanticip ate
Ġrend ered
Ġjun cture
ĠInst ru
E ight
h ift
Ġm elt
ro d
le ine
ĠP ower
Ġdo ct
Ġch ip
Ġtr ump
Ġsc rew
ĠY ang
Ġgl am
Ġur anium
Ġhusband s
sc reen
Ġweak ening
Ġdefe ating
Ġcro oks
Ġproc laims
Ġcalc ulation
Ġaccur acy
Ġadj our
Sus an
ĠEL DR
large ment
pher d
5 8
E qu
s chool
t aking
Ġw ry
Ġre kind
Ġg ul
se a
ĠC ree
ri um
ĠM ouse
end ish
ĠA lic
li er
Ġag ro
ĠT at
Ġri ots
Ġmeas uring
Ġvis ibly
ĠPro sec
ĠAn u
Ġnar c
Ġkidna ppers
ĠEnvironment al
Ġadjust ed
ĠPlan et
Ġperpet rated
sight ed
Ġdownt own
parent s
Ġcance led
Ġpecul iar
Ġcurios ity
4 1
M ah
S L
s ub
ĠC ord
ĠP erc
ĠG rey
Ġso ap
Th omas
Ġover run
ather s
ick ers
old en
Ġmakes hift
Ġ4 6
ugg ed
Ġexport ing
ĠNat asha
Ġfright ening
Ġretreat s
Ġlobby ing
ĠRen o
II I
ĠSha olin
Ġsou p
Ġausp ices
K im
b ig
u ously
Ġt am
Ġd agger
Ġn ude
ie v
ĠL on
ĠU l
Ġun in
Ġconsum e
ij k
Ġcontract ing
Ġforget s
Ġguard ed
ĠSim pson
Ġtend encies
ĠJoan na
Ġtempt ed
ĠLaure n
step s
ĠPos selt
Ġkilomet res
ĠStephan ie
ĠSark ozy
ĠFon taine
3 6
V arious
Ġn uns
Ġfor c
ĠT oy
ĠD il
Ġwork able
ĠO mar
ĠO MB
Ġbl ur
Ġpract icing
Ġexpect ation
ĠPr as
ĠBal d
Ġaltern ate
Ġuns ure
Ġimag ined
Ġtrial ogue
Ġcy ber
Ġswe pt
ĠLaur ie
pell ing
ĠIm m
Ġble eding
Ġstip ulates
elli ous
Ġignor ance
Ġcomr ades
F aced
in en
in arily
er ting
ou st
Ġl ured
Ġcon du
ĠG ender
Ġwas hing
ĠL an
ĠSt ark
ree ments
Ġimp ul
Ġrev ived
Ġcrit ically
To o
Ġcat al
St ate
Ġcontract ual
Ġep ic
Ġfisher man
ĠMel anie
Ġgri ps
Ġorphan ed
ĠVir gil
ĠRon ald
Ġaccur ately
Ġlobby ists
Ġtur moil
Ġinvent or
ĠFam ily
Ġbrid ges
Ġuncond itional
Ġafore mentioned
J ose
S il
f elt
w on
ĠM oses
ĠS O
ĠS ou
ĠP ass
ard e
Ġpe er
Ġro de
Ġover see
Ġsub t
Ġinter l
ĠZ oe
ĠHar per
Ġamb assador
ump y
ris k
Ġden ial
Ġsett lers
mar ried
Ġreb ell
Ġnar rates
Ġbott les
ĠHol land
ĠJeff rey
ĠBang l
ĠDex ter
ĠThess alon
N eed
T V
p roductive
s an
Ġw ander
Ġs i
le en
as w
et ting
ĠM err
ĠB ron
ĠT in
Ġdis fig
Ġtr uce
ĠUn it
ĠK oh
Ġinc umb
Ġper se
Ġleg ality
Ġexp ulsion
oot s
Ġemploy s
rac ing
Ġforce fully
Ġcand y
ĠAb u
Ġhy giene
Ġconfirm ing
Ġsexual ity
Ġstandard isation
Ġmer ger
roso ft
Ġbefriend ed
Ġinterrog ation
Ġbon o
Ġinex pl
ĠInt el
Ġsucc umbs
Ġgru esome
Ġconfidential ity
Ġrefund s
A k
G B
g io
n ings
Ġf als
Ġbe w
ĠS ic
ĠS gt
ul k
Ġch auff
Ġcl er
Ġright ful
Ġfe ast
Ġgrow ers
Ġsol itary
gu in
Ġsecret ariat
Ġty ing
be at
ĠGe eta
Ġstri pped
Ġstress ing
ĠMad eline
Ġprovision al
Comm ission
Ġsun light
Ġconce aled
emb owski
Ġstim ulating
Ġprotocol s
Ġske leton
ĠHaw k
Ġbab ys
Bet ween
Ġcorrid ors
V ik
b ury
p m
s men
z embowski
Ġin mate
ri ans
ĠS oo
res pect
ĠA ch
Ġsh am
um in
ĠR ip
ĠD uc
Ġad oles
ĠSt ef
ĠF lint
ĠV lad
ĠCon rad
Ġdemoc rats
Ġsw ims
Ġappeal ing
ateg ory
ĠAlger ian
Ġeager ly
Ġseduc ed
nest y
aku za
ĠCanc Ãºn
ĠGuant Ã¡namo
Intern ational
Ġdisillusion ed
T re
w right
Ġnot icing
end it
ud o
ĠK ur
Ġatt ent
Ġmar ble
Ġsc re
ick et
Ġdef ensive
Ġpost er
ĠWe ek
Ġarm ies
Ġbank er
Ġoblig atory
Ġprospect ive
ĠJud ith
Ġevident ly
Ġjeopard ise
App arently
Ġdiagn osed
Ġextrem ist
ĠOh io
Ġentrust ed
ĠLukas henko
Ġcaret aker
D irect
E nergy
l al
Ġw re
Ġb ones
le ader
st s
Ġe b
ĠE F
ill ery
Ġnot ification
ĠD est
ĠU lt
reat ing
ĠK arthik
ĠW oman
Ġpe as
Ġsp ared
act ic
Ġdef ines
Ġrev ital
Ġtreat ments
Ġspecial ists
ivers al
Ġill iter
Ġtor ped
Ġhost s
Ġge op
ĠMil an
Ġid i
Ġvent ures
Ġfinger prints
Ġagg rav
ĠRand all
Ġhind er
Luc y
Sad ly
ĠPenn s
ĠArn old
K at
r ange
is si
Ġto urs
Ġin sofar
Ġbe an
ĠE R
ĠE lect
el ope
art her
est ine
ĠR ama
ĠF let
Ġsp heres
Ġref erral
Ġpri ests
Ġexch anging
Ġstation ed
lim ited
Ġstip ulated
medi ately
ĠHay es
ĠLom Ã©
ĠPrag ue
8 5
m ont
Ġf aint
Ġth ri
Ġd ives
Ġd iving
le in
Ġg rie
ut ches
ĠM ang
ĠS ug
Ġsh ores
ĠT ong
Ġch ick
Ġun ilaterally
ĠN ab
Ġsp ill
Ġlast ly
Ġcur sed
Ġrecogn izing
Ġship building
Ġside k
Ġrad ically
ĠBe au
Ġreb ellious
Ġqual ities
ĠVal erie
Ġprivile ges
Ġsail or
Ġexhib its
Ġpersec uted
ĠLeban ese
Ġvacc ines
Ġdil ig
Ġimperial ist
Ġcloud s
Ġdecentral ised
Hel en
Ġstead ily
Ġunsc rupulous
Ġimpover ished
h ire
r ice
ro b
ĠE ff
ĠE aster
ĠB od
ĠB ox
Ġj eep
ĠF rom
Ġrec alled
ĠCh ange
Ġsp ouses
Ġhand ic
Ġfl av
ĠMar io
Ġener get
ĠAl ison
Ġproper ties
Ġpriv ately
app a
Ġpack ing
Ġplant ing
Ġcro oked
Ġ198 6
oly n
Ġpassion ately
ript ions
Ġassault s
Ġmurdere rs
Ġframe works
ĠTar zan
tr ade
Ġswit ched
ĠJoy ce
Ġhitch h
ĠThessalon iki
ĠPenns ylvania
G D
y gen
Ġw aking
Ġw olves
Ġb uc
as so
Ġwh oles
ĠM ove
ĠS S
ĠS of
ĠP u
em it
Ġsh aped
ĠG ail
Ġshe er
Ġneed ing
Ġcr us
ĠO w
Ġcol our
ĠMar cell
Ġmin ers
Ġgener osity
Ġorgan ize
Ġaccess ibility
ĠSe ville
ann an
Ġfundamental ism
Ġpack ed
ĠRaj esh
Ġsett les
Ġcontain er
Ar jun
ĠSte el
fe ld
Ġprompt ed
Ġcollaps ed
ĠLeon ard
Ġfant astic
zan ne
Ġunjust ified
Ġoutrage ous
Ġlia ison
ĠRef uge
Ġlugg age
c ap
f ires
m ary
r ality
Ġo m
Ġo re
Ġre lying
Ġhe ating
ĠM ain
Ġal erts
ul d
oc ate
ie u
ĠG ates
pl an
og ical
Ġapp ra
Ġnew com
Ġbr anches
ĠY emen
Ġfl uct
Ġph asing
Ġinf idelity
Ġgl ory
Ġlegisl ators
abl o
ĠAg nes
Ġcentral ised
off s
ĠBill ie
Ġabol ishing
Ġunderm ines
ophob ic
ĠSoph ia
Ġincap ac
Ġanch or
ĠFro st
Ġluc rative
Ġsie ge
Ġrebell ion
8 8
H S
h art
l ane
w ig
is al
Ġw ore
Ġe go
ac ies
ĠG ore
Ġen ch
Ġj olt
ĠN ever
ame er
Ġsol o
ey ond
erv ice
Ġlab els
Ġfour teen
raw ford
Ġgrad uates
Ġunf olds
Ġball ot
ĠCast ro
Ġbenefici ary
Ġresemb lance
ĠOt to
ĠShan ghai
ĠRw anda
9 4
B endit
E r
P h
m und
r ising
it ating
Ġb ind
Ġb ung
Ġf ounder
Ġd ys
Ġfor wards
ĠM ission
Ġha ke
us er
Ġbut cher
ĠG ina
ĠG inger
ĠD ell
ĠH ills
ĠH ospital
Ġmar sh
Ġbus es
Ġrev ising
Ġpop s
And y
Ġter ribly
enn es
ĠQu artet
zz y
Ġclar ifying
Mar g
Ġtouch ing
Ġaccompl ices
Ġillust rated
Ġlib r
Ġprevail ing
Jul ie
Ġextrem ists
Ġembry os
Ġunreason able
Ġwai ver
T ed
W est
h ai
y on
ou nter
ĠM end
ĠM ia
ĠE p
ĠB ee
ĠG SP
ĠT ax
Ġpol ar
ĠSt ra
are k
ament s
Ġapp le
Ġgu ides
Ġfr on
Ġfl irts
ĠHe art
Ġaud iting
Ġattract ing
Ġmeaning less
Ġ194 0
ĠCam eron
Ġmargin s
Ġvary ing
Ġdistort ed
ĠNa ples
ĠWy att
D ep
P orky
i qu
Ġa wards
ion a
ent in
ĠM ack
ĠM ovie
Ġde er
if ix
em p
Ġex term
ĠH arm
ag her
ĠN ixon
Ġpe asant
Ġbet rays
ok a
ĠCh ase
ink le
Ġins ol
ze al
Ġcharacter istic
int ensive
Ġmem orial
Ġmer gers
vey ard
ĠPri est
ĠJean ne
ĠMur ray
Ġendeav ours
Ġcompat ibility
ĠBy r
ĠSher man
qual ified
Ġunequ al
Ġramp age
ĠFreder ick
ĠJama ica
ĠTAC IS
Ġsyner gies
3 2
F earing
H ol
at us
Ġth read
Ġth irteen
ĠS port
ess ment
ĠA ry
li beral
ĠK ill
Ġapp lause
Ġno on
Ġper t
ph ur
pr int
Ġexc uses
ĠQu inn
Ġplot ting
ĠMe era
ĠRome o
ĠCount ess
spe aking
Sim on
ĠMi y
Ġoverlo oked
Ġunch anged
Ġhier archy
B ig
K evin
p an
Ġw rist
Ġo mission
ĠC andy
ĠM uk
Ġst ern
ra ble
op i
and i
ĠD J
ft y
ĠMar itime
Ġcond ol
Ġoper ative
Ġsent iment
Ġlow ering
Ġdecl ined
Ġbul ld
Ġboss es
Ġjail ed
ĠNe ha
Ġresign ed
Ġloud ly
ogen ic
ĠHou ston
Ġbachel or
Ġforc ibly
T er
Ġo af
Ġth under
Ġd umb
st op
st ory
im er
ĠC arson
ĠT anya
ĠD olly
ĠH az
Ġsp ying
Ġrel aunch
Ġrep atri
ax ter
rat ap
Ġmod ify
Ġspecific ations
Ġchar ms
ef e
Un known
Ġdial ogues
Ġtyp ically
Ġassign s
pro of
pro fit
boy friend
Ġprohib it
Raj a
ĠLes ter
ĠHy de
Ġsail ors
ĠAlp s
ĠWars aw
Ġrecur ring
7 2
Ġw ra
Ġb oring
Ġf itting
ed es
Ġm ush
Ġn erve
am al
ĠM ist
ĠM urd
Ġnot ified
Ġne arest
Ġsh arks
ĠB rent
ĠF Y
ĠF airy
Ġso ber
Ġqu e
Ġimp lying
Ġfut ile
Ġamend s
ĠSh al
Ġord eal
aut aire
Ġimpos es
Ġver b
ĠPar v
Ġdom ination
ĠAust in
Ġweak est
Ġang ers
Ġsqu ee
ĠAud rey
Ġcrowd s
Ġdictators hips
Ġsucc umb
3 1
R yan
f i
n on
w ould
Ġb uck
Ġd aring
Ġre ver
ĠB anks
ĠH om
ere lla
iz z
Ġfin est
ĠV ern
Ġret ali
Ġlong time
Ġfilm maker
ĠSh ak
Ġequ itable
Ġ5 4
Ġrese tt
Ġperform er
Ġrule making
Ġver ification
ĠChar ley
Ġsurround ings
Ġstrange ly
Ġprem ise
Ġshut tle
ĠMcC arthy
ĠBoy s
ĠMi riam
Ġbreat he
Ġprotagon ists
Ġunh armed
Current ly
Ġunwitting ly
B el
E conomic
I L
M ill
U N
d ad
j ack
Ġw ig
Ġb art
Ġh ated
ĠC e
am as
ĠS or
ĠP ai
Ġk ung
Ġch ast
ĠW HO
Ġper cept
Ġreal isation
Ġgr ades
Ġdist ances
Ġ5 2
Ġcommun autaire
Ġregul ators
Ġrisk y
Ġmis use
ĠAng ola
Ġmob ster
vere nd
Ġgas oline
ĠChe ster
Ġvolunt arily
Ġobst ruct
Ġec st
Ġrevol t
Ġproportion ate
ĠArab ia
Ġintimid ation
Ġresent ment
ĠIndepend ence
ĠPhill ip
forest ation
Ġmonst rous
h of
i ating
t ered
w s
at ics
Ġl ur
ĠD ong
ĠH ig
Ġinc lined
ener y
az i
Ġsupp orter
itor ino
ĠSc ience
sh aped
Ġcongrat ulated
Ġwin ners
Ġemb assy
Ġla ud
ĠPh oen
Ġstar ving
Ġfrequ ency
ĠHam mer
Ġblock ade
Ġliter ary
Ġfasc inated
ĠGab ri
Ġclin ical
oli beral
Part icular
Ġaccommod ation
Ġox ygen
ĠDeb bie
opoul os
c oon
Ġf ills
an an
ĠP C
end ra
Ġch im
Ġtr im
Ġri ft
Ġrem un
Ġinter depend
Ġworld s
ĠSh ort
Ġdist raction
ik ers
uck ily
Ġlim itation
Ġtrad es
Ġemphas ized
ĠDan i
ĠPar ad
Ġpoll s
ĠEC O
Ã¶ r
roc ery
ĠSus ie
Ġcy cl
ÃŃ a
rep resent
Ġseas ide
Ġaer op
Lou is
ĠCorn el
ĠFour th
Ġts unami
ĠUz bek
Ġfol ks
H or
Ġt a
Ġs ins
Ġhe ed
ĠS ome
Ġse vered
ĠH ed
ĠU t
Ġad vers
Ġnew found
Ġwere n
Ġaw ry
Ġrespon sibly
Ġins pire
Ġgr id
to ok
Ġkn ee
ĠBe a
Ġlif ts
Ġnar ration
Ġhero ic
ĠSoviet s
Ġafford ed
Ġfalse ly
cont ract
ĠKir an
ĠMarsh al
Im mediately
ĠKaz akh
Ġacceler ate
Ġcoordin ator
Ġparan oid
Ġtran qu
Ġunav oid
Ġunknow ingly
! '
D ist
Ã ´
Ġp ac
ro ve
Ġg rocery
Ġhe i
ĠS ke
ill ar
ĠP ole
ĠB og
Ġout d
ag ues
ink y
Ġret ention
Ġlast ed
Ġbro ker
ib a
lus coni
Ġgra veyard
ĠBel grade
tt a
Ġinstrument al
Ġsil ently
Ġpoll uting
nes ia
rick en
ĠKenn eth
worth y
Ġincons istent
Ġcertific ates
ĠHend erson
Ġsubord inate
Ġt utor
Ġst icking
ĠS urya
ĠA e
ĠR as
ĠG ale
ĠD yn
ĠL ead
Ġout right
Ġro gue
ĠY es
Ġcommon ly
Ġpo ly
Ġtransport ing
ĠPol l
Ġtravel lers
Ġhistor ically
Ġcere als
Ex per
Ġdrown s
Ġirre ver
Ġneut rality
Ġcertific ate
Ġparach ute
Ġdele ted
C am
G reat
h or
in itely
Ġs ore
Ġto ken
Ġn anny
ve t
Ġfor ge
ĠC arn
ĠS ard
Ġhas t
Ġj ar
ĠL enny
ĠF alls
ĠN av
Ġco y
ob i
ĠCh ak
Ġtrans mitted
Ġfr antic
Ġpow der
ĠDe leg
Ġel ope
Ġprogress ively
Ġactiv ates
sp ir
Ġty coon
Ġunc overs
Ġinj uring
Ġdisch arged
vin ced
ĠTre asury
Ġcruel ty
Ġlav ish
Ġjuven ile
ĠGiov anni
ĠProsec utor
T ze
b ag
c s
r ann
y u
Ġm ish
se ction
ĠI RA
ess im
Ġle thal
ĠD ak
ĠU p
Ġun law
ĠN in
ĠN ate
Ġinto x
ip es
iff any
Ġstart led
ĠAl lied
Ġrealiz ation
Ġanim ated
Ġcontract or
ĠMal m
Ġbi ometric
Ġoccup y
ĠMo z
ĠFirst ly
Ġbreat hing
ĠKen ya
ĠRud y
des ign
ĠFerre ro
Ġoverth row
B at
D rew
d isc
p roliferation
is ers
Ġre nder
ĠB in
ĠD ra
ens ively
Ġtw ists
Ġfam ine
Ġ19 20
gg s
Ġmed ication
Ġmod ifications
ha o
ĠPr ice
Ġindic ator
Ġund ers
Ġhar b
Ġanti que
ĠCal vin
Ġincorpor ation
Ġvide ot
ĠAss istance
Fr ance
Ġboost ing
Ġscrut in
comp liance
ĠJen na
ĠJar zembowski
Ġpostpone ment
Ġdissem ination
aith ful
ĠPras ad
Ġincumb ent
T s
s ize
w hen
w ari
Ġw rapped
Ġn i
Ġne oliberal
ĠW ald
Ġback yard
Ġplay boy
ĠCon an
Ġfac ade
Ġpat rons
ĠBar Ã³n
Ġheart felt
Ġhospital ized
Ġcast s
Ġexplo its
Ġexport ed
ĠVan essa
Ġ197 6
Ġconce ived
ĠAndrew s
Ġshame ful
Ġcommission ed
Ġpled ges
ĠCap ital
Rec ently
osaur us
tr ans
Ġtraum at
Ġundes irable
roo ge
ĠBangl adesh
S on
s l
Ġc hess
Ġre open
ĠC ob
ĠC lean
ow a
ĠA ge
Ġv ivid
ĠB ack
iv ated
ĠD han
ig a
ĠH ope
ĠV itorino
ric s
Ġbo il
ĠAm bro
Ġpeace keeping
Ġple ad
Ġfarm house
Ġground water
ĠWe i
ĠIr is
Ġworks h
Ġanalys ed
Ġang els
Ġalcohol ism
Ġeight h
ĠDay ton
Ġselect ive
Ġupd ating
Ġsupervis or
Ġreminis cent
Ġinflic ted
Wald ner
B etty
d raft
h older
Ġp izza
Ġh ilar
Ġre lies
ch y
Ġr anc
ĠG a
pt ic
ĠH ur
ĠF riend
ĠK om
ach ment
ne z
Ġper f
Ġsm iled
Ġrespect able
ĠAn k
ĠTur ks
eral a
Ġharm less
Ġbri g
ĠCl imate
ĠChe chen
Ġsole mn
Ġmaster mind
ĠGeorg ian
Ġliber ation
Ġshar ply
Ġvacc ination
Ġintoler ance
Inc identally
ĠValent ine
ĠVill age
occup ied
e le
k op
Ġa pt
Ġb race
ĠM ult
ĠE van
ĠS ter
ac le
Ġex ting
un c
ĠT ab
ĠD ante
Ġtheir s
are rs
Ġman ual
Ġover sh
Ġconc o
Ġrec ounts
Ġsp ark
Ġdiff ers
Ġcall er
Ġaw l
ph ia
Ġbl unt
Ġsocial ite
ss on
Ġbu zz
Ġstand point
ĠTh anks
Ġcost umes
Ġsl ap
Ġdoor step
ĠPal mer
ĠEm il
ĠReg ulations
Ġinj ures
ica pped
Ġunf aithful
Ġbul lied
ĠMe i
ĠNick y
Fr anc
Ġcous ins
Ġreiter ated
ĠEst her
Ġric her
establ ish
Ġstair case
Ġexagger ated
Ġbart ender
L uckily
M s
h im
s ocial
Ġt ast
Ġt aps
ic ably
le vant
ir ting
ĠT EN
ud dy
ĠH em
ĠN iger
ĠK ra
av ia
Ġdec ou
Ġno ises
ne eded
erm aid
te ga
Ġfr ames
vironment al
ĠAm az
Ġche at
Ġmet res
Ġtri g
Ġhold ings
aur i
Ġilleg it
DE M
Ġnorm s
Ġceleb rates
Ġretain ing
atter ing
Ġ194 5
Ġmal aria
Ġmanip ulation
Ġcounc ils
Ġmas quer
ĠKurd s
Ġadj acent
Ġhij ack
ĠASE AN
Ġdepict ing
Ġintrigu ed
Ġexting u
W il
st ricken
ct ory
et ing
ĠC in
ri et
ĠM ik
Ġsh aping
ĠD ata
ĠL ink
ke ys
Ġout fit
ĠSt rip
Ġser um
ced es
ĠMon ty
Ġimpos ition
ĠMary land
Ġfo il
Ġtoler ated
with standing
ĠGreg ory
ĠVish nu
Ġoverd ue
ĠLang en
Ġht m
Ġamid st
Ġhumili ating
ĠGonz Ã¡
ĠConfed erate
ĠLeh ne
Ġcondol ences
4 2
b in
Ġc ured
Ġp se
ing le
Ġh ut
Ġat op
Ġex h
Ġse am
ĠB eng
ĠT ao
ĠL ori
Ġup rising
ĠF oot
ĠN ath
ĠW right
Ġmar riages
ouse au
ĠO pport
Ġend orses
Ġtrans mit
Ġhome work
az ed
ĠRe hn
Ġtre asures
Ġhero ine
Ġ198 7
Ġreconc iling
Ġru ining
het to
ĠLam y
Ġexhib it
Ġaccus ation
Ġvirgin ity
Ġincons ist
Maj or
Equ ally
d ec
f alls
g art
o oby
Ġa rose
Ġp iv
ing ing
Ġre int
Ġl onel
Ġl aser
Ġfor ged
ĠP ra
ĠA riel
iv ings
ĠD j
ĠD uring
Ġev asion
Ġover joyed
Ġrel ents
Ġchild care
Ġest e
Ġprotection ist
Ġdr ill
oss ip
An gered
Ġ6 6
par able
ĠEl vis
ĠAng ie
ring ing
Ab out
Ġhoriz on
Res earch
asm ine
Ġsixt een
oof y
ĠIN D
ĠFo ghorn
Ġunambig uous
A F
M aking
R ose
f ashion
h aw
x ed
in ence
at ial
Ġb in
ĠM use
ĠR ue
ĠG oku
ĠD od
ĠL im
ĠL ex
Ġad hered
Ġinv alid
Ġhad n
Ġsc uffle
Ġsp ur
Ġadd icted
ange red
Ġmat urity
Ġgr ay
Ġbusiness men
Ġwar fare
Ġwrit ers
Ġbal ancing
ĠItal ians
set t
Ġpen insula
Ġcast e
ĠJo el
Ġimag ines
Ġhall way
ĠAir port
ĠLouis iana
Ġham per
Ġflo at
aver n
ĠDef ense
Ġpresc ribed
Ġcasual ties
ĠEnter pr
Ġtrig gered
D isc
F A
t ub
Ġc avalry
om ass
Ġl aps
ĠE rit
ul ly
Ġv est
ĠD ora
ig i
ĠH og
Ġli kel
ult s
Ġhouse wife
Ġconv oy
ik anen
Ġ5 7
Ġfavour s
ĠZ or
amb o
Ġdesc ends
Ġpersonal ities
ĠMad hu
Ġstra ined
Ġrelie ve
Ġpled ged
Ġexerc ises
Ġwors ening
adel phia
Ġaston ished
ĠDeep ak
ĠKab ir
Ġdeport ed
Ġreck less
Ġuncont rolled
ĠPrest ige
Syl vester
Ġinterf ering
Ġsurrend ers
sted t
B rian
D emoc
E ff
M us
W ork
b r
f a
p ack
v ar
Ġb ribes
Ġe ternal
Ġwith hold
ĠM asters
Ġst if
Ġsu itor
Ġwill ingly
port ed
ĠR it
ĠD up
ĠK ang
ĠK urt
Ġover head
Ġjust ifies
own er
te acher
ual ity
Ġcol onel
Ġfav oured
Ġchar ism
Ġcommun icating
Ġeng ulf
Ġgrand parents
St ep
ĠMc N
Ġspace craft
Ġ% ,
Ġdoll s
ĠFor ces
Ġlay er
Ġelement ary
Raj u
ĠMoroc can
Ġstabil ise
Bar b
Ġpremium s
ĠIsa ac
Ġteleph ones
Ġrooft op
ĠCres po
6 3
A my
T ar
g ate
k ok
Ġf ountain
Ġh ip
Ġth irst
ro v
Ġg rot
et or
Ġal erted
ĠS ey
ul ators
ter ior
ĠP rom
and an
ous ing
ĠSt orm
Ġfa iries
ip al
Ġinv aded
Ġmat ched
Ġprev al
Ġval ued
Ġmonth ly
Ġroad map
ĠCar lo
Ġmis g
employ ment
Ġund emocratic
ĠLi ikanen
Ġ13 0
Ġrid er
ĠJon as
ĠHol ocaust
Ġexclud ing
Ġcul m
ĠAc cession
ĠLy dia
Co operation
Ġune asy
ĠVel zen
Ġdisappro val
Ġrevers ed
Ġfet ch
ĠGran ny
Ġculmin ating
terror ism
F und
h ir
Ġ +
in ting
Ġg ifted
ur am
ri ger
Ġle is
ist ant
Ġor gy
ĠG NP
ĠT u
Ġch ambers
ĠL iving
ĠF ive
Ġover weight
ĠV il
Ġbefore hand
ric ane
ĠMar ina
Ġhead lines
ĠSc ientific
umb les
Ġindic ative
ĠPl ace
ĠCount ry
Ġrent ed
Ġcalc ulations
Ġextraord inarily
Bl ack
Ġnick name
Ġeleph ants
Ġsidek ick
K en
z h
Ġc ared
Ġb ent
ĠC and
ol as
pe ls
Ġde lete
Ġse izes
ĠR ider
ĠT itle
ĠD ana
ĠJ ung
Ġun question
ĠN y
ĠK or
Ġover board
ĠCh ing
Ġsp an
Ġinf ur
Ġtrain er
gu ards
Ġship yards
ĠBl ood
Ġweek ly
app an
Ġrecomm ending
reg ulated
Ġarr anging
Ġattract ions
ĠAs ha
Ġang le
Ġconcent rations
Ġalloc ating
Ġ198 5
Ġengine ers
rish na
Wal ter
ĠWork ers
Mag gie
Que en
Ġmisg ivings
4 3
A round
T erry
e i
l li
s omet
Ġt ags
in ates
Ġn ob
ĠC ohn
ĠM ons
Ġal ia
Ġv om
and ing
and um
ial ogue
ĠG ros
Ġwor m
Ġup sets
ĠF ace
ĠK iller
Ġdeb ut
Ġhand icapped
Ġachie ves
Ġterm ed
Ġimm une
Ġfoot steps
Ġacqu iring
Ġfre ak
eff ective
ĠAnt oine
ĠSim one
Ġearn est
ĠHel ms
Ġsho vel
ĠFer gus
Ġble ak
Ġacadem y
ĠShar pe
Ġminim ise
Ġcorrid or
Jes se
Ġlooph oles
Ġchauff eur
Ġgeop olitical
ĠGonzÃ¡ lez
Ġlonel iness
6 7
n is
v ial
Ġc ant
Ġm amm
ro it
Ġre inc
im an
ĠP ay
ak k
ĠI S
oc ally
and s
Ġsp ree
Ġind iscrimin
uc co
Ġdet ected
ĠSh o
ĠSc ooby
Ġsuper fl
Ġpack s
Ġdemonst rators
Ġrepe ats
Ġfear ful
Ġhost ility
Ġanalys ing
Ġexpression s
ĠPri vate
add in
aunt ed
Ġsquad ron
Ġoverlo oking
Ġabsor b
Ġintr ud
Ġsuppli er
Ġoverd ose
Ġvolcan ic
Ġbargain ing
Ġbatter ies
Ġcripp led
Ġdre amed
Ġreim bursement
J un
L ong
e ering
i hood
Ġa ide
in eration
an ed
ĠP NR
ĠR ee
ĠG ru
ĠT ara
Ġad am
ĠN air
ĠN uclear
ĠK erala
Ġref riger
Ġstr ay
Ġdirect s
Ġinvest or
Ġsmall est
Ġcomple tes
ĠAm elia
Ġrev is
Ġ9 2
Ġvol umes
Ġcoll ision
Ġred ef
ĠBer lusconi
ĠLou ie
ĠMic rosoft
Ġhunt ed
Fr ust
Over all
fin ancial
ĠChristian ity
Ġflood ed
Ġsmugg lers
Ġassault ed
Ġren ov
Ġnin et
sk irts
Ġcancell ation
ĠWheel er
Ġdisli kes
5 7
F ore
G ab
V ish
g hed
s pring
Ġin ept
ĠC ategory
ĠM eanwhile
ĠP ere
Ġby pass
Ġhas n
Ġle verage
ĠG ow
ig ating
ĠL A
ĠL ars
th i
Ġpl ates
Ġshould n
ĠK um
Ġnew born
Ġtw ent
Ġconf use
ah n
Ġprev ails
Ġdet ection
Ġsomet ime
Ġpower less
Ġkn ight
uk es
Ġemb od
ĠReg ion
ĠEng ine
ĠMag n
Ġglad ly
Ġnovel ist
met ics
Ġvacc ine
ĠMade leine
Ġtear fully
Ġinsec ure
Ġfragment ed
Ġprin ted
Ġlag ging
ĠBry an
Ġresolute ly
Ġwhist le
Ġbunk er
ĠPhoen ix
B rad
C or
M om
O P
Ġt aht
Ġs igh
Ġf rog
Ġd itch
Ġd rugged
Ġn od
Ġhe els
Ġst agn
ĠP ent
est ation
ĠB ug
um ns
ud y
ĠJ ade
Ġun ites
ee per
Ġbr ink
ĠAr chie
Ġ5 8
Ġsw orn
ex istent
ĠSp ir
ĠPol es
ĠBr idget
ĠAfric ans
Ġaud io
ĠAd d
Ġblack mails
de velopment
ĠInter institutional
Ġroll er
ĠAnn an
Ġsor ce
ĠBelarus ian
Ġunex pl
Ġlic ensing
ĠRad io
Ġalarm ed
ĠRos ie
Ġchamp agne
Ġinqu iries
Ġacknowled ging
Ġnom ination
ĠBon ino
Ġborrow ing
Ġtorment ed
Ġprud ent
Ġcong ressional
ĠCav endish
Ġdishon est
Ġcongest ion
Ġlikel ihood
G e
L uke
S ean
t u
t em
Ġ Î
in et
en u
Ġp anther
Ġh ug
il ings
Ġal ias
ĠS lo
ĠR amesh
ĠG ert
so lete
ĠH ud
ĠK end
Ġbl aming
Ġdirect ing
Ġins c
ĠMar vin
Ġmin er
Ġvis ual
ĠAl aska
Ġsw ind
Ġtre k
Ġblack s
ĠSl im
ĠAlex and
Ġconsolid ating
Ġinsult ing
Ġsurve ys
Ġtur bul
Ġpupp y
ĠPen elope
Ġunb ek
Ġash ore
Ġcease fire
ĠOt is
Ġfeas ibility
Ġattrib uted
ĠDiv ision
ĠOper ation
ĠAra fat
Ġmour ning
ĠShir ley
Ġkne es
Ġcruc ifix
Ġplag ued
Ġtoug her
Laur a
Ġsuperfl uous
n ut
u its
Ġa iling
er cial
Ġp ian
Ġd warf
ro be
Ġg au
im ity
Ġne mes
os c
ĠA ny
li ved
ĠH ir
nc hed
Ġob solete
ĠY or
Ġgra ves
sp oken
Ġhy pe
ĠSer ge
Ġintention ally
ĠPhil adelphia
ĠSant i
Ġadjust ing
Ġmerc iless
Ġinsult ed
vi ol
Ġintens ity
ĠBy z
ĠBa gh
sm ith
ĠAtt orney
third s
ĠBenn ett
ĠIsab ella
Ġank le
ĠFlet cher
L isa
c ity
Ġo is
it is
Ġb olt
Ġp ap
Ġin aug
ro es
le tic
Ġhe y
ri gan
ĠM ust
ĠM ick
Ġan gu
op ed
oc aly
and als
ĠF GD
ost lander
ens ibly
Ġcr ushing
uch i
Ġappro ves
arm ing
Ġyour selves
omet er
Ġmet aph
Ġviol ating
ĠAg reements
ĠRe con
Ġcirc uit
ĠHe b
Ġdream ing
Ġund ead
Ġharmon ious
Ġdepart ing
Ġcomment ed
Ġbul lying
Ġtort ures
Ġder ive
Ġencounter ing
Ġdynam ism
spe cific
Le aving
ĠAz ores
Like wise
Ġren ational
Ġregrett ably
ĠBang kok
ĠDal ai
ĠMul der
ĠStand ards
ĠFern ando
Ġbless ing
ĠByr ne
C ount
R om
u j
Ġc ried
Ġp essim
as is
il ian
Ġg ossip
Ġu pt
ĠS no
ak ur
Ġse iz
ĠJ orge
ĠL ulling
Ġcomm ence
Ġimp ot
ĠV arma
Ġmak ers
Ġview ing
inc luding
ĠâĢ Ķ
Ġinf er
ull ah
Ġappear ances
roll s
Ġobtain s
Ġimpl icit
Ġinhab ited
Ġdisplay ing
Ġillust ration
keep ers
Ġrelax ed
Ġabsor bed
Ã¨ re
ĠAcc ounting
ĠVin od
Sm all
Ġbatter y
Ġenv oy
Ġhyster ical
ĠSchmid t
Ġdeduc es
Ġciv ic
L SC
M en
m ay
s ur
Ġa ver
Ġp ressed
ar ges
ro e
Ġl ined
se ctor
Ġas best
Ġst aged
op us
end ent
Ġsh ifting
ĠR ic
ĠG arden
ig ers
Ġcou pled
Ġcan e
ĠH op
ree vy
ĠN em
lement ation
ĠIn stit
Ġrev ival
Ġtri vial
Ġsk ate
Ġvict orious
val uation
ĠBr ady
ĠCourt ney
Ġce ilings
Ġhalf way
ĠOr tega
Ġwound ing
Ġobli ge
Ġdiss ident
ĠDa ily
Ġstim ulus
Ġanticip ation
Ġembarrass ment
ĠFe i
sem ble
Ġconfisc ated
Ġdinosaur s
Ġsupre me
D etermined
L aw
T ER
V is
d in
Ġo ct
Ġo de
Ġb ou
or is
Ġp ound
Ġd ense
ĠC IO
gh old
Ġsh ook
ĠB urn
ĠG oe
Ġout skirts
Ġdis ruption
Ġpre acher
og er
Ġco hes
Ġend anger
ood oo
ĠCon n
Ġmed iation
Ġfore seen
rodu ced
Ġmet h
Ġ5 6
ats y
Ġsl ogan
Ġspecial ised
ĠHar vard
Ġpain ts
Ġdocument ed
Ġinflu ences
ino is
Ġeval uations
Ġwid th
Ġsad ness
ĠSol omon
Ġprofit ability
Ġmagn itude
Ġnin ja
Ġstal king
Ġma ize
ĠRena issance
ĠPitt s
D ay
T P
h arth
r ue
Ġs na
ent er
Ġre think
Ġg ut
ĠM ob
ĠM ail
ĠS z
Ġsu ite
Ġse ated
ĠB hag
ĠR ang
Ġdo se
Ġout lines
ry n
ĠF ly
Ġdis ob
Ġdis ple
ĠK il
ĠW ah
ĠW onder
ine e
ign s
Ġimport ing
Ġprov oc
Ġbl asts
Ġins ert
ĠThe n
Ġconv icts
Ġintrodu ctory
Ġpar lor
Ġkind ness
ĠMon itoring
let es
Ġexch anged
Ġbed s
Ġcand le
eb ted
Ġassass inated
Ġpred ic
Ġinterpret ations
Ġcere mon
Ġdisag rees
ĠEll is
ĠNor weg
Ġcommend able
ĠSudan ese
Ġspons or
Ġepid em
Ġfert il
Ġunderest imate
ĠBÃ¶ ge
Ġterrif ying
Ġfost ering
Ġsynt hetic
ĠMaurit ania
8 3
P ort
R on
e lection
i ary
s uch
s uff
t wo
Ã ±
on ies
Ġc iting
ad ha
ĠP om
ĠP ratap
ĠA ur
Ġag gress
ĠT ill
Ġout door
Ġun im
ĠW a
ord ination
Ġinform ant
Ġmin ions
Ġgener ates
An nie
ĠAd itya
Ġorganis ational
ĠBur undi
pro f
Ġrul ings
Ġsword s
Ġrecall ing
Ġvulner ability
Ġendorse ment
Ġdecis ively
ĠJac qu
ĠEll a
RO M
Ġdistract s
IN I
ĠAbb as
IF E
ĠSin bad
Ġcraw ls
ĠMedic are
Ġevol ve
ĠVerm a
tim ore
ĠDeleg ation
F ather
f icial
g rowing
Ġw aged
ĠC S
el come
Ġv ag
Ġch airs
Ġun fore
ĠW ells
Ġunder took
ĠTh ai
Ġform ulation
use t
ule t
lo ving
reg n
Ġhy per
Her zegovina
Ġpsych otic
Ġguard ing
Ġsad dened
Ġimag inary
ĠCan ary
Ġdig s
Pro t
ĠKir by
ĠLith uan
Cons umers
Ġlux urious
Ġsam ples
ĠRoth ley
Par agraph
ĠInn ovation
Ġmil estone
Ġpor ch
dri ven
Ġpilgr im
Ġartif acts
Dou g
Ġtheore tical
Ġprox imity
Ġhast ily
Ġinfur iated
Frust rated
E ve
l ass
Ã ª
on ly
Ġc er
Ġc ents
Ġp ale
Ġh ose
st ones
Ġst ing
Ġpro pri
ĠS pr
Ġy elling
ain es
Ġle ver
ure en
Ġj am
ĠF rog
ĠK ol
Ġar sen
form ance
Ġover f
Ġsc attered
Ġpolic ing
Ġreal ism
Ġprov ider
Ġmon olog
Ġens ue
Ġask o
ĠBar rot
Ġdev otion
Ġ7 2
Ġpen is
Ġhum ble
Ġbi omass
ĠProt est
Ġbrut ality
Ġobli vious
Ġ196 7
ÃŃ n
Ġrelax ing
Ġevac uation
Ġaston ishing
ĠNi elson
Ġprecond itions
Ġmunicip al
Eli zabeth
Ġrestrain t
Ġunavoid able
Ġillegit imate
8 6
B G
D oc
m aid
p ur
on ian
en os
Ġp ets
ed oph
Ġd ull
id able
ol ini
Ġst ark
Ġde ment
Ġle vy
qu iry
ĠG AT
ĠD C
ĠH ugh
ĠF iona
ĠUn iversal
ĠW ing
ĠCh ildren
ĠV a
Ġacc ede
Ġprov oke
Ġaw aken
Ġgood ness
Ġsuc ked
Ġgener ic
Ġfore head
Ġaccess date
Ġche ek
Ġdemon ic
ĠTr ust
Ġadminist ered
Ġ201 4
Ġarm ored
Ġopt ed
Ġreb uilding
Ġreb uilt
ĠChe ng
Ġextra v
Ã¡ n
Ġmort al
Ġdispos ed
Ġsequ ences
Ġgod dess
Ġtight en
Ġnit rogen
Ġdeterior ating
Ġrecru iting
omed ay
Ġpron ounced
Ġgor illa
ĠVick i
Ġcataly st
Ġmixt ure
Ġasbest os
ĠPitts burgh
A ud
R ev
h ak
r one
u ya
Ġb ubble
Ġto ps
an ity
Ġl ately
Ġor bit
ĠG as
ĠT est
ĠD er
Ġch orus
ere rs
ĠV I
Ġstr angle
aj al
Ġfr aternity
Ġpress es
Un ion
ĠPl at
Ġuns us
boy s
Ġreinforce ment
Ġreciproc al
vo ire
Ġfragment ation
Mic hel
Ġsubsc ribe
Ġsul phur
Ġlaund ry
Ġbew ild
Ġhilar ious
Ġnemes is
D en
J osh
L earning
P D
P olitical
S ah
h ouses
p aid
Ġf ier
Ġg ene
Ġwh ip
Ġv ow
ĠR aw
Ġres ide
ĠL anc
ĠSt a
ĠF lem
ĠW ard
ĠW og
ink er
Ġsc olds
ential s
Ġprincip ally
ĠRe verend
atic an
Ġfire works
Ġ9 6
Ġhost ed
Ġdom inate
Ġdoubt ful
ĠMal ik
Ġuns ustainable
Ġhorse back
ĠMic he
comm ittee
Ġobli ges
Ġsick ness
Ġunderw ear
Ġunp opular
ĠTer rit
ĠDiv ya
ĠArm strong
Ġconform ity
Ġexacerb ated
Ġwreck age
Ġsweep ing
ĠRol and
Ġunequiv ocally
Cla ire
ĠAtl anta
Ġdiscrep ancies
mans hip
ĠIll inois
Ġantid ote
ĠInstru ment
ĠOpport unities
9 1
D eep
m issible
or ia
ed o
Ġn ud
ĠC rawford
ith un
ad get
Ġy ards
Ġch ained
ĠL ore
Ġcl utches
av il
ang s
Ġro oted
Ġinv aders
over ing
Ġcontin ents
Ġbo ots
Ġcompet itor
Ġattack ers
Ġnegoti ators
Ġcap itals
Ġpar ody
unt a
Ġwater fall
Ġquick er
Ġorigin ating
oid s
Ġvide os
Ġrock y
ĠAll an
Ġshut s
Ġ196 8
Ġmerc enary
ĠBas il
ĠOff icial
Ġeditor ial
Ġric hes
ĠLaure l
mir al
ĠPow ell
Ġhandc uffs
ĠDomin ic
Ġauthent ic
Ġhect ares
Ġfug itive
Ġbegg ar
Ġhei ress
Ġleis ure
B as
R achel
V C
b bing
h unt
i i
i ological
t w
Ġt el
Ġt itled
Ġt ube
Ġd olph
Ġn odd
Ġg rey
ĠC M
ĠE E
ĠE qu
ĠS asha
ĠS CR
ĠI d
Ġnot ify
ĠB urns
ĠT R
ĠT all
ĠJ ensen
Ġpl ut
Ġoff shore
Ġsc ary
Ġend uring
Ġdown ward
rib ing
Ġpers ists
Ġsur ge
Ġexpl oding
ĠSh i
Ġsol ace
Ġmor ality
ĠSe ema
Ġhard est
Ġfire place
Ġhor rors
ĠRom ans
Ġart illery
Ġ9 3
ĠBal timore
ĠReg ulatory
Ġrecon nect
Ġopt ional
Ġgirlfriend s
Ġcast ing
Ġrein tegr
law s
Ġvan ishes
Ġcoast line
Ġ197 4
Ġsen ator
Ġslight est
Ġineff icient
Ġprofound ly
Ġdupl ication
Ġunres erved
ĠGall agher
Ġobsc ure
Ġcondu ctor
ĠKazakh stan
P ierre
Ġthe at
re view
es ters
Ġh one
ĠM ats
ra ising
ĠB urt
ĠB axter
ĠG aul
ĠL ep
ĠH omer
Ġun limited
Ġcar cin
Ġsocial ists
Ġnational ist
Ġhead line
Ġform idable
Ġdist ressed
wh ite
leg al
Ġread mission
Ġ6 3
Ġ7 7
Ġobjective ly
umb ered
olly wood
rie ved
Ġextra ction
ĠWal t
ĠAgricult ural
ĠJer ome
laim ed
Ġtank er
Ġescort s
Ġpupp ets
Ġdistinct ive
ĠAlban ians
Ġapprent ice
Ġfantas ies
ĠMalm strÃ¶m
Ġreinc arn
Ġpredic ament
H earing
O R
R alph
W as
g as
j ab
l ay
w itted
Ġs our
Ġb ump
Ġm im
Ġn urt
il o
il ib
Ġha re
ĠB oss
ĠR anger
ĠL ock
ab elle
Ġdis d
Ġthem atic
ĠW arner
Ġpe ers
Ġcol umns
Ġcur tail
light s
Ġvar ies
Ġ5 3
Ġste er
Ġdoc ks
Ġbar ber
Ġadopt ive
Ġrecon struct
Ġund ec
lex ibility
Ġcollect or
idel ine
ĠSte in
Ġvan ished
uit en
wan ath
Ġuncertain ties
Sub sequently
Ġcompr ises
Ġpuzz led
Ġindiff erence
lu ent
Rem ember
Ġanth rop
A A
b ooks
w estern
Å ¡
Ġw art
ou re
Ġl azy
Ġst ig
Ġst iff
ĠS ee
ĠP od
op sy
ant o
ain st
rom pt
ĠR ohan
ĠT able
Ġgo at
ĠJ ed
ĠL ot
ĠF ang
Ġcont end
ĠW ay
Ġapp et
Ġdem ean
Ġsub tle
Ġwar lord
Ġeduc ate
Ġsl ams
ĠCo al
Ġsan ity
off icial
Ġreferend a
ĠDel ors
Ġsupplement ed
Ġcompos er
Ġmagaz ines
ĠOlymp ics
Ġinject ion
ĠJos Ã©
Ġacceler ated
Ġconfine ment
ĠCale b
Ġincrimin ating
ĠMove ment
I voire
K ay
S at
c ost
d ue
l ost
m ut
m ie
u ctions
Ġb en
Ġb ast
Ġh ints
Ġm ermaid
Ġth ug
le vard
Ġbe es
ly ss
Ġg ently
pe c
ĠM uth
ate red
ĠB oo
Ġr ay
ĠL au
Ġun married
ĠN isha
Ġcomp aring
Ġmar ital
oy e
ĠCh allen
ĠV atican
Ġtrans pose
Ġcar rot
Ġrep rim
Ġorder ly
ĠIn quiry
ĠMar low
Ġmin eral
Ġgl ance
Ġspec ulative
ĠAn alysis
Ġmilit ia
Ġamount ing
Ġcomprom ised
ĠAngel o
Le on
Ġlob b
Ġbatt ling
Ġpa edoph
ĠIndones ian
Sm ith
Ġflu id
Ġost ensibly
Ġpuzz le
Ġintermedi ate
ĠRaf ael
ĠGoth ic
ĠGan esh
Brit ish
ĠHass an
Ġpeas ants
Ġremun eration
Ã´ te
A id
T ee
V E
W ar
b rid
p roducing
Ġw ary
ar ial
ent e
ĠS au
ch ant
Ġha ze
ist ing
ĠR s
ĠT iffany
th s
ĠH ale
ĠU rs
pl ot
ll er
In spector
Ġcomm otion
ven ir
Ġ20 50
Ġcivil ised
Ġdev ises
Ġhon oured
Ġdraw ings
Ġlight house
Ġmist rust
Ġsn akes
Ġpun ct
Ġer otic
ran king
Ġdistrib ute
Ġfacilit ation
Ġincorpor ates
Ġcha ired
Ġimpress es
ĠEP P
Ġmanip ulate
ĠMen on
ĠRud olph
Ġevac uate
Ġhyd rogen
iol ence
Ġincon ven
C itizens
d emocratic
f ounded
z l
on ial
Ġo c
Ġl ax
se ek
Ġst akes
ĠP ont
ain a
ĠB abe
ĠR ight
ĠR oll
ĠD own
Ġwas ting
Ġab using
ĠL akes
ĠH as
ind ust
ong o
Ġun born
Ġ1 000
In formation
ach uset
Ġtra cked
ĠO ostlander
Ġper il
pon dent
Ġconf erred
cept ive
Ġhead ings
ĠSh re
wards hip
Ġmis d
ĠPl uto
Ġmount ed
Ġbehav ing
Ġuns afe
Ġbackground s
ĠGal icia
Ġoverhe ard
ĠTunis ian
Ġbel ly
Ġtherap ist
Ġbud dy
Ġarous ed
fashion ed
Ġnodd ed
5 2
f orth
h at
m itt
Ġt urt
he rence
Ġb udd
Ġf aked
Ġp ine
al ore
st ant
ĠC ly
am il
Ġsh ifted
ĠB rett
od ore
iv ia
ĠL az
ĠN eb
Ġreg iment
Ġro d
Ġend angered
Ġaff lic
Ġph ases
Ġcor rection
Ġcare free
Ġann o
sh ire
ĠRe al
Ġbroad c
Ġworks hop
Ġtraff ickers
cer ated
Ġ197 5
ĠOb ama
Ġadvis able
Ġinsp ires
Ġresign s
Ġdiscipl inary
ĠCas per
Ġresum ption
ĠRod ri
Bar roso
Ġearthqu akes
Ġpredict able
ĠDis ney
ĠCind erella
ĠPot ter
Ġsynd icate
Ġlor ry
Ġpard on
ĠPinoc chio
ĠAlic ia
Ġbuc ket
ĠWog au
C r
G A
M olly
U k
h ay
o que
Ġm aze
om y
im ation
ut ic
Ġpro d
Ġsu ng
Ġsu icidal
Ġsh akes
ust omed
ĠB ath
ĠB uiten
ĠR angers
Ġcan s
Ġpl um
Ġdis emb
Ġun ve
Ġam nesia
ĠK GB
ĠW en
ee le
Ġop ium
Ġbl ing
Ġrest ing
Ġfl irting
alf a
the m
Ġviol ates
Ġread ers
ĠLe vel
ĠDav ies
Ġdiscrimin ated
Ġauthor ise
ĠMax im
Ġ198 4
Ġdelay ing
Ġsacrif icing
ĠSad ie
ĠBon nie
Ġcorrespond s
Ġinterven ing
Ġenthusi astically
eneg al
Ġvenge ful
Ġcommod ities
Ġinhuman e
Ġredist ribution
ĠTrib unal
Ġfru its
Ġpyram id
Ġfron ts
Ġcohes ive
achuset ts
H oping
S emit
U nd
b earing
j ee
k n
m and
o os
in ian
Ġthe s
al so
Ġu l
ĠI vy
art ed
est on
un ks
Ġrec ipe
red its
ĠY ash
olog ne
com pet
ek yll
Ġhar p
eff icient
ĠMe chan
Ġpal m
fin ance
Ġprotest ing
Ġthr illed
ĠLam bert
ĠEst e
Ġmanip ulated
Ġsubur bs
Ġcos metics
Ġdeton ate
ĠSn ake
ĠColumb ia
Ġorchest ra
Ġexor c
Ġindign ation
ĠHerc ules
Ġdeple ted
ĠRhod es
ĠPerc y
Ġunbek nownst
B eyond
F ig
O p
d le
f red
f ighter
r ite
u ments
Ã ¯
Ġt avern
in ished
re ctions
Ġp ans
Ġm asks
ut a
Ġas ym
ĠE mb
ĠS ameer
ill i
art ic
Ġle ct
ĠB att
ĠB rew
ĠJ ules
ĠJ avier
ag us
Ġcomp artment
itt i
Ġfin ale
ĠV ia
ĠV andem
Ġexpl oration
Ġ6 2
Ġ6 8
ĠBal i
Ġgrand children
ĠCo ff
Ġcourt room
Ġabandon ment
verse ly
Ġtow ers
Ġbra kes
ĠHer bert
rend t
ĠKam al
ĠHy un
Ġborrow ed
ĠBudd ha
Ġenfor cing
Ġdil apid
ĠCard iff
ĠAra bs
ĠCec il
Ġglow ing
Ġabdu ction
Ġscre ens
ĠUzbek istan
Ġpian ist
Ġdilapid ated
C E
F IN
J enn
M er
N ic
R ock
t ically
Ġc raz
Ġp ause
Ġm aps
as ide
om o
ĠS ever
Ġk ings
ĠR av
ĠD ud
ĠJ y
Ġun used
ĠN umber
ens itive
Ġrec u
Ġback fires
Ġprov oked
ĠMar i
Ġrev ives
Ġpract ition
Ġshort ages
Ġinstru ction
Ġsl ide
Ġaccord ed
ĠGe off
Ġbroad band
sid ers
uf ord
ĠVal enc
Tom orrow
Ġbra ins
ĠRad ical
ĠSun il
ĠWood s
Ġadmitted ly
Ġpresc ription
Ġtwist ed
Ġstrang les
Ġunderest imated
Ġproclaim ed
Ġportfol io
B h
J une
K e
e ast
in qu
Ġb und
Ġre wards
Ġwe ep
Ġde lin
Ġan om
Ġex iled
ist a
ĠT on
ĠT ree
Ġres iding
so o
Ġout cast
Ġoff ended
Ġro aming
Ġro pes
old ed
Ġext r
Ġins ur
Ġstate wide
Ġlegisl ator
ĠSh aggy
Ġmor ally
ĠSw an
Ġbur ies
Ġbattle field
Ġunf inished
Mar cus
Ġcontinent al
Ġ194 4
Ġdeter rent
ĠMount ain
Ġresemb ling
mun ia
Pri or
establ ished
uer to
ĠAle c
Ġadvertise ment
Ġber ates
actor ily
ĠMong ol
Ġassail ant
ĠÅ ł
ĠYog i
Ġoutd ated
Ġdelin qu
5 9
b en
i u
m ons
v ir
he lp
in ator
Ġb act
Ġf usion
ut able
ĠM az
oc ratic
ĠB ella
ĠB uilding
Ġor b
ĠU s
ĠF all
av ian
Ġapp alled
Ġrec ol
Ġsc ru
Ġass ists
ĠY ard
ĠCon nect
ĠZ en
Ġroad side
Ġdoub led
Ġmis fortun
Ġ11 0
Ġwid ening
ĠSu zanne
Ġfo iled
Ġsmugg le
Ġarchitect ural
Ġunnecess arily
Ġintens ified
ĠOs lo
Ġoverwhel m
ĠBa iley
Ġcin em
ĠCass ie
Ġaccum ulated
ĠYan ke
Ġpriorit ise
ĠAmb assador
Ġsalv age
hof stadt
ĠSanti ago
A jay
B er
D G
H ara
P an
Ġa ug
es ity
Ġf erv
Ġd ensity
Ġn ort
st ore
Ġg orge
im db
ĠM imi
ĠE in
ĠP orter
ate au
art i
um sy
ĠComm and
ĠR ig
ĠR ani
ĠG uru
Ġres ents
ary a
con scious
itt ings
ang led
Ġbet s
Ġcar avan
Ġdes cent
empt ion
Ġdri fter
ĠZ ap
pri vate
gu ided
Ġple ading
Ġlist ing
ĠLe one
Ġestablish ments
ev ident
Ġrap ing
Ġcollect ions
Ġtro ika
ĠEC R
Ġoccur rence
Ġreconc iles
Ġautom otive
ĠMcC reevy
Ġsmugg led
Ġhelicop ters
Ġveter ans
Ġdece it
Ġjump ed
Ġcorrespond ence
Ġsevent een
def ense
ĠFal con
Mic key
Ġprolong ed
Ġunequiv ocal
Ġcommem or
ĠViv ian
Ġdetain ees
Ġdoct rine
ĠAnk ara
ĠNorweg ian
F C
g eneral
n ox
p id
he ment
Ġs omeday
Ġf res
Ġf arther
Ġth umb
Ġst ares
Ġpro w
ĠP ok
ĠR ac
ĠF ish
iz ations
Ġra z
Ġexp ires
Ġfr anc
ĠAr c
Ġph ased
ling er
ĠAl ab
Ġaccess ing
Ġel oqu
Ġtri ple
error ism
Ġlab elled
Ġparty ing
Ġsuper ficial
Ġperm itting
ĠAng els
Ġrenew ables
Ġpsych ologist
Ġbath tub
ĠMill ie
Ġcart el
Ġcompar ative
Pro fessor
Ġtail ored
ĠSk ies
ĠWin ston
Ġirre levant
Ġforb ids
Ġextrem ism
ĠSid ney
Ra gh
Ġassemb led
Ġclo ak
ĠPun jab
Ġbarbar ic
Ġblat ant
Ġpand emic
Ġadjour ned
Ġtorped o
Ġirrever sible
ĠBagh dad
5 1
7 4
C oming
H ope
N ar
Ġt abs
he te
it ness
st ated
ĠC Ã´te
Ġst ag
Ġde forestation
ort ed
ĠP iet
us k
ĠB oe
od us
ĠJ ody
ĠU day
Ġcount ed
Ġcl oth
Ġro bs
Ġem be
Ġbo om
ax y
Ġfl out
ĠMar x
Ġstory line
eed s
ĠZ ero
Ġland f
ĠRe ese
Ġve hement
Ġtre ason
Ġemb arks
Ġarr ay
Ġden omin
Ġten ants
Ġsatisf actorily
Ġtro phy
Ġauthor ized
Ġceleb rations
SC O
road s
ĠSecret ariat
Ġmuseum s
ĠMer lin
ĠMer cedes
Ġwise ly
Ġswitch ing
Ġunb elie
Ġthreshold s
Ġreaffirm ed
Ġbom bers
Ġabst ract
ĠFif th
Ġvari ations
Afric a
Specific ally
rape utic
Ġasym met
Ġembe zz
M od
W oody
m ount
n ath
p op
p rom
Ġto es
Ġp ours
Ġh ull
Ġd od
om es
ĠC B
ĠS E
Ġv oodoo
ud ence
ĠD ix
ĠH istory
ap o
itt ered
Ġcl and
Ġbl uff
Wh ite
Ġdef ault
Ġequ ilib
Ġaccount ant
Ġpract ised
Ġsupp lying
Ġpar cel
Ġsl ot
Ġbord ering
Ġfig ured
Ġmult if
ĠCl ouseau
Ġtor ch
Ġmodern ising
Ġband s
Ġpenal ised
ĠBro ck
Ġcro ok
Ġut ility
Ġimag in
Ġder iv
Ġded uct
Ġdict ate
Ġsed uct
Ġhat ches
comm erce
Ġpra ised
Ġsurre al
ĠBang emann
Ġmassac res
ĠSpe edy
Ġdisreg arded
Ġdossi ers
Ġsou venir
Ġenact ed
elect ed
ĠKap oor
Ġdisfig ured
ĠThanks giving
S pecial
d ling
Ġwh im
ĠS enegal
pp ings
Ġse als
ĠB ened
Ġall otted
ĠG em
ĠJ ude
ĠL ad
Ġam put
ily n
Ġmon tage
Ġturn over
Ġunt h
Ġcost ing
Ġpar ked
Ġdead lock
ĠNew ton
Ġsk ating
Ġexc av
ĠQ ing
Ġtele com
Ġ8 6
ĠSam my
reg on
ĠEl is
ĠBe fore
Ġball s
Ġuseful ness
ĠDen ise
Ġbra very
Ġmix ing
ĠEric a
Ne il
Ġfan atic
ĠHill ary
ĠAcc ord
Ġsurf ing
Ġdupl icate
Ġoutlaw s
ĠMass achusetts
ĠKla us
Ġsemin ar
A IDS
F ran
M A
N ik
R en
R ah
V er
x uals
Ġh ive
st ock
ĠC omb
am ation
ĠM und
ch ild
op ers
ĠT itan
ĠJ ekyll
ĠL ara
ident ified
Ġman or
ĠK ings
ach a
Ġcr icket
Ġpropos ition
velop ing
ĠV eter
aj a
Ġrep aired
ters on
ĠY our
Ġsent iments
ĠSc rooge
sh aring
Fin ancial
Ġanim ation
Ġcomprom ising
Ġsepar ating
ĠUN H
ĠRaj iv
Ġpsych opath
ĠRes istance
Ġcomprehen sible
ĠLeg ion
ĠKar as
ĠNe o
ett es
Ġwithdraw ing
udd le
Ġsmugg ler
Ad mitted
En largement
ĠDet roit
ĠOl ga
ĠRy u
Ġdepos its
ĠHor ace
hist oric
Ġprophe cy
Ġgy psy
Wor king
Ġcland estine
C ong
H ad
H ung
J enny
T ow
c ies
l ared
l anges
s im
Ġ iv
Ġc og
Ġp el
Ġh urd
ro ed
ĠS oul
ld on
ld om
oc o
ĠB ot
ĠB ub
ud ging
ĠL ag
ĠL ey
ĠL illy
Ġinc ineration
ĠW ol
Ġra ids
Ġover ha
oint ed
ah a
Ġmak er
Ġins ignificant
Ġpresent ly
ĠIn s
oura bly
Ġcommun icated
Ġshall ow
Ġ6 4
ĠAd visory
umb led
Ġlos ers
Ġpersu ading
ĠGar rett
ĠGo a
ĠOli ve
ĠMer kel
Ġhel met
Somet ime
Ġescal ates
ĠGang a
Su pport
Ġlor ries
Ġseaf arers
Ġreneg oti
Ġprototy pe
H al
i enced
is le
or u
ot ine
Ġhe ter
ĠC N
ĠC ologne
ĠE sc
ul ler
ra ced
ĠP ierce
ĠI RS
ĠA ung
and ran
ĠD ole
ĠH um
ĠK us
ĠW ynn
Ġcl uster
Ġover comes
Ġrec itals
Ġpr anks
Ġbas in
Ġhope less
ins k
Ġspecial ly
ĠBl oom
ets y
Ġ9 8
Ġwind ing
Ġver bal
ĠOr thodox
Ġlos er
Ġcrucial ly
Ġunf ounded
Ġemerg encies
Ġpreced ed
Ġconstitu ent
ĠBas el
Ġvic inity
ĠDes ert
ĠSqu ad
Ġsubur b
Su per
Ġambig uity
ĠMcK enna
Ġath letic
Ġimmort al
ĠAx el
Ġdissatisf ied
ĠNab ucco
Ġunlaw ful
B art
H o
M ont
d as
w all
it ations
Ġh obby
ou pe
ro pe
Ġn asty
il in
Ġl ap
am ind
ver n
el ho
ant y
ĠR usty
ĠD um
ĠJ ong
ĠL abor
ĠK och
itt e
ile en
Ġneed le
Ġoff enders
Ġsc ape
Ġsol ic
Ġsuper b
ĠAd miral
Ġ9 7
ĠBal u
Ġmut ilation
ĠMa o
Ġpersu asion
ĠMiss ouri
ett i
Ġyouth ful
ĠPo oh
CO S
Ġnovel s
ĠBern ie
Ġexhaust ion
Ġgrab bing
Ġprevail ed
Ġinterrog ated
Ġdiscl osure
Ġarrog ance
Ġobserv atory
ĠZe us
ĠAbd ul
ĠAe ge
spir ited
Ġextrav ag
Ġunsus pecting
G reg
I r
K elly
S low
f il
l ady
m al
p al
Ġw its
Ġs ack
Ġg a
im ed
ĠI ts
ĠA T
Ġsh aking
ĠG oofy
Ġch ron
Ġcou ch
ĠK in
Ġsc ra
Ġdisc arded
Ġlong est
Ġap ologies
Ġyoung sters
ĠMar ilyn
Ġorgan izes
ĠSh arma
ĠDe va
ĠAl t
ĠAl munia
Ġcontrib utors
Ġbody guards
Ġcongrat ulates
ĠMal one
Ġdeleg ated
Ġdistrib uting
Ġexer ted
Ġautom ated
Ġprem iere
rack er
Ġbrain w
Ġideal istic
Ġmagn et
Ġadvis ers
ĠSk ip
Ġphilos opher
fight ing
App ro
Ġrit uals
Ġinex per
Ġdisgrace ful
ĠMarian ne
Ġrehears al
Ġforesee able
ĠStef an
Admitted ly
E arly
G r
L ife
M un
o il
p ool
at able
Ġs illy
Ġf ib
ing ton
ing ham
ĠC our
ow l
ĠP ablo
ĠT ae
ĠL IFE
ĠF ac
ĠW anda
ĠV all
pon ge
arm ers
ug al
icult ural
Ġbre asts
ĠBl ade
Ġwit ches
Ġcompl iments
Ġmater nal
Ġuns u
Ġquot es
Ġtrib unal
Ġcoast s
Ġdrag ons
Ġbatt ered
Ġhaunt ing
Ġhesit ates
Ġreinfor ces
ĠSha wn
Ġdescend ants
Ġpron ounce
kh az
Add itionally
ĠPam ela
Ġrect ify
ĠBritt any
Ġincompet ent
ĠNev ada
Ġcleans ing
bene fit
Jose ph
B ern
Ġt ed
Ġt ony
en za
Ġc ute
Ġb idding
Ġf ury
ar ging
Ġth a
Ġd ug
le ys
ad minist
ĠM ans
ĠP ul
her ic
ĠI P
ĠA ires
ĠB one
ĠR ing
Ġr ou
Ġwhe els
Ġdis hes
Ġlo ading
ang o
Ġconc ur
gr ass
Ġind ebted
Ġfact ions
Ġdes ol
ĠY et
Ġadm ires
Ġwater ways
ĠRe agan
Ġfundamental ist
Sh ar
Ġmut ant
Ġapprec iates
Ġfacilit ated
Ġder anged
Mar ia
Ġbound s
Ġstuff ed
Ġaward ing
Ġcollaps ing
ĠHan na
ĠMun na
Ġdecre ased
Tr ade
Ġcompr ising
FO R
Ġobserv ance
dor f
Ġhards hip
Ġmalf unction
Ġgrot esque
Ġbudd ies
E nter
O S
a a
c ation
n olds
p pe
y man
Ġt ut
Ġw icked
Ġb iker
Ġb umbling
Ġh ollow
Ġd ated
Ġn g
Ġbe am
Ġhe aling
ĠC ool
Ġst ash
ĠE le
ra f
ĠP on
ĠP el
ĠP uerto
ate m
oc key
Ġch ips
ig ail
ĠN eg
ĠN aval
Ġri pped
ec ca
Ġins ure
Ġrun away
pr its
Ġmed al
Ġrepresent ations
ĠPro gressive
Ġprogress ing
erv atory
sw orth
Ġgen ital
umb o
Ġten ant
ĠAb khaz
Ġcustom ary
Ġcounter productive
ĠEx per
ram an
Ġwild life
Ġcas ually
ĠHer bie
ĠMy ster
Ġfulfil ment
Ġlit igation
Ġannoy ance
ĠNa omi
Ġcheer ful
Rec ent
Ġbon us
Ġassert ion
Ġcounsel or
Ġdatab ases
Bet ter
Ġprin ting
Ġunint ention
Gl obal
Ġevol ving
Ġvolat ility
Ġguerr illa
ĠUC LAF
Ġincar cerated
ĠSof ia
ĠParad ise
Ġcoy ote
Ġequilib rium
D S
G ener
R I
R est
er ity
it ches
Ġf akes
Ġp unk
Ġin k
Ġm ates
Ġd ome
ĠC ora
ĠM any
ĠS ide
ble ms
ĠR aven
ĠR ennie
ĠG ame
pt e
ĠSt ory
Ġinc iner
Ġri gged
Ġra ging
Ġover powers
Ġsa ils
Ġunder gone
Ġsc andals
Ġind ict
Ġtake over
Ġeconom ists
Ġsm ashing
ential ly
ĠAl though
Ġmod ulation
up in
Ġsw arm
oll ah
Ġden ounced
ousand s
Ġment ality
ĠKar in
Ġfix es
Ġspl its
Ġdict ated
ĠVictor ian
Ġfashion able
Ġcul prits
Ad rin
Ġcalc ulating
Ġflo ors
Ġpupp ies
ĠMount ains
Ġaer ial
ĠAv iation
Ġdepth s
Ġevac uated
Ġliquid ity
Ġward robe
ĠClay ton
Beh rendt
Ġwrec ked
Ġbenchmar ks
Ġunden iable
ĠIntel ligence
ĠAege an
B eth
E ng
O ct
S id
Ġa ka
in f
in ently
Ġthe ories
Ġs aint
Ġp our
Ġp onder
al am
Ġre lic
Ġbe ard
Ġhe n
ĠM ost
ĠE GF
ĠS uk
ĠS kin
ĠG rac
ĠD ow
ĠD ag
Ġch art
Ġch imp
ĠU ma
ĠF an
Ġdis b
ap est
ĠK av
ip le
Ġind ex
Ġpr ays
Ġacc ustomed
Ġass im
Ġmarket place
Ġbo iler
ĠY uri
ĠAr ts
Ġdest it
Ġsw ings
Ġactiv ate
ĠHar riet
ĠPr ison
St ar
Ġsucceed ing
Ġdisp atches
ĠEx pl
Ġstar vation
Ġdeg ener
Every body
Ġembar ked
bre aks
bl ood
Ġescort ed
cut ta
ĠMand elson
ĠWor ks
ĠKent ucky
Ġcancell ed
ĠIndepend ent
Ġcannib al
ĠUg anda
Ġparaly zed
draft sman
Ġrefriger ator
Slow ly
A li
G en
G overnment
G race
N T
N orman
S ol
c ore
g reen
p oll
w er
Ġ zeal
Ġt abl
re qu
Ġb aff
am ily
ĠM ithun
ĠP ike
if iably
Ġhas ty
and in
ĠD y
ber ly
ĠF orm
ĠF ritz
Ġman eu
ĠK is
ĠK arn
Ġjust ifiable
we y
Ġob esity
Ġrem arked
Ġret ires
Ġpay roll
ik k
ĠAm it
Ġtrad em
Ġcircum vent
ĠJul io
Ġbeautiful ly
Ind ia
Ġcere al
Ġhyp othes
Ġretain s
Ġbroadcast s
ĠVen us
Ġjeopard y
Ġstem s
Ġtrigg ers
Ġparad ise
Ġdisrupt ed
Ġtraum atic
Ġculmin ates
ĠBour langes
ĠDiam ond
Need less
design ate
Ġdecou pling
8 1
F F
J am
S eth
a est
Ġc unning
an z
al akshmi
Ġm ule
as ia
st ill
Ġg ulf
ĠM ilitary
ĠS omm
oc ious
ie ur
ĠT ake
ĠD odge
Ġme als
ĠL ung
ĠK ov
Ġev olved
Ġfl ock
ys c
rodu ce
Ġsex es
And rew
Ġtravel ers
Ġbar bed
Ġill usions
Ġbroad en
ĠMan ny
bo ards
ĠGree ks
room s
ĠMor rison
Ġbi ased
Ġwild ly
ĠMont ana
Ġproud ly
ĠVen k
Ġspell s
Ġmaid en
ĠBrazil ian
ĠLiz zie
Ġendeavour ing
Jan uary
ĠPrest on
ĠTit ley
)] .
Ġdegr ad
Art agn
Ġcater ing
issi ppi
Ġresett lement
ĠECO FIN
A ir
E nc
N ord
P ut
S ME
al king
am ount
ĠS EC
Ġde formed
ĠP age
os ion
ĠG w
ĠD uff
ig hed
ĠJ oker
ĠL ay
ĠL ax
ĠL ila
ĠSt acy
ĠPres idencies
ĠK lein
ater nal
ĠO ak
ĠO regon
over n
Ġfact ual
Ġhapp ier
Ġfl aws
ĠAm os
Ġcommun ism
ara oh
Ġmis car
Ġcoll ar
ĠPaul ine
ĠEx press
ari us
ĠBo og
ĠBur ton
Ġchair men
Ġblind ed
ĠWil bur
ĠVen et
ĠMi key
Ġprest ige
Beh ind
ĠGin ny
Ġmultilingual ism
Ġrhy th
ĠFisc her
Ġnarc otics
ĠSpir it
Ġdisd ain
7 3
C ost
D ar
F reedom
P olit
S ha
he y
it iveness
Ġb ore
ion age
ut ies
ĠS U
ĠS em
Ġv oid
ĠB ag
ĠB ene
ĠB uff
od ka
ĠR iv
ĠG ust
ĠT raining
Ġcl ones
ang ling
Ġob nox
Ġent it
ib l
Ġgl oom
ĠZ one
Ġexc ur
ĠRe in
ĠEd ith
Ġhuge ly
Ġcampaign ing
ĠCal cutta
ĠLeg isl
Ġcli ps
nel ly
ĠVer hofstadt
Ġunivers ally
ĠMont real
Ġdiplom ats
Ġcha otic
Ġpreced ing
Ġenvis ages
ĠVik tor
duc ive
Ġgrab bed
ĠDur ga
Ġdepri ve
Ġsevent y
Ġescal ation
ĠCard inal
Ġbot hered
ĠBu enos
ĠMort on
Pl ath
Ġspin ning
Ġath letes
ĠDad dy
Ġremed ies
Ġobsess ive
Ġoversh adow
Artagn an
6 1
G erman
g li
h ika
s hed
z og
Ġm ant
Ġm ocks
Ġm osa
Ġg aze
op a
Ġhas te
ĠB ach
ĠG au
ĠJ ur
ĠL ann
ĠF ung
are z
og ene
Ġco h
Ġimp orters
get t
Ġrel inqu
Ġbr ush
Ġins anity
Ġgun fire
Ġ6 1
Ġban ished
Ġunc overed
ĠOr ange
ĠMor g
ĠMart ine
Ġhy brid
ĠEC SC
ugg ing
Ġfederal ist
ĠMiss issippi
Ġbetray ing
ĠCam ille
Ġhomose xuals
IF T
ĠLin us
ĠFa ith
Ġancest ral
ĠCypri ots
Ġspokes man
Det ective
ĠRÃ¼ big
Ġninet een
B M
B us
H y
T rying
f our
w ait
Ġl in
omm end
Ġr al
Ġen am
Ġ- ,
ĠH avana
Ġup b
Ġcl umsy
ub l
Ġcr ate
ink able
red ict
Ġfam ed
ĠY uk
inc l
Ġorgan izing
Ġinstit utes
ĠTh akur
Ġstrate gically
Ġforward ed
Ġmor gue
Ġmot to
Ġvill ager
urs ed
Ġsche ming
Ġliberal ising
Ġcorrect ive
Ġindustrial ist
ĠGreen land
Ġfraud ulent
Ġfeed back
Ġappoint ments
Ġnation wide
Ġdign ified
Ġhur ried
Ġinterpre ters
Ġplatform s
Inc reasing
Ġcraw l
Ġuncont roll
Ġgre ets
vol ent
Ġapprehend ed
Ġhorm ones
ĠWes ley
ĠGov ind
ĠSic ily
ennes see
Mom ents
K y
L is
N ap
h in
p ublic
v ig
Ġt rench
at hed
Ġp ad
Ġp ouring
Ġm ocking
Ġd wind
ve z
Ġl ent
Ġst unning
ak in
Ġres ides
Ġout post
ĠH ook
Ġun balanced
He art
ink ed
uc ked
Ġsy nergy
Ġlong s
Ġext ensively
Ġschool teacher
Ġiniti ating
ĠZ hao
ĠEm press
Ġdeep en
Ġliberal ised
Ġdiscrimin ate
Ġdisp atched
Con nor
ĠSch r
Ġsil k
Ġfulf ils
Ġconstruct ively
Ġconfess ing
Ġrul ers
ĠGeorg ie
Ġchief ly
ĠDen ver
Ġexhaust ive
Ġresear cher
ĠNar ayan
Ġwebs ites
Ġspr ings
Ġpatri arch
ĠIb iza
Ġtab oo
ĠGand hi
Ġentrepreneur ial
Ġerect ed
Ġprerog atives
Ġgrie ving
ĠVandem eyer
B uck
E ll
L ate
d al
m ember
o z
Ġthe rapeutic
at ar
it ures
Ġc yan
Ġf itted
al ion
Ġm arty
Ġn u
Ġbe ans
Ġg i
ut z
ĠM ord
Ġcon ve
Ġcon ducive
ĠS ek
ĠP ast
Ġan ts
ak ash
ĠI v
ĠI da
Ġv ind
Ġk not
Ġen ig
ĠL S
Ġout n
ĠH il
ĠH aut
Ġun identified
ob il
Ġem p
Ġem power
ont o
Ġcapt ors
Ġtrad ed
Ġarrest ing
Ġhor ribly
Ġce ased
Ġ8 7
Ġmis inter
ĠAng lo
vent ures
Ġconduct s
ĠLat v
ĠHam mond
Ġuniform s
Ġtank ers
Ġdistrict s
ĠPink y
Ġdiscl ose
Ġcontempl ate
ĠShel by
bus iness
Ġburgl ar
amped usa
ĠChir ac
Ġcharism atic
ĠSno opy
Ġscape go
A z
H A
P oint
S ak
j as
Ġm asc
Ġd ons
ri ous
ĠM ina
ĠM oss
ĠE ight
ĠA nc
ĠR ia
Ġr ushing
ĠG ant
ĠT erm
ĠH imal
ĠF un
ĠN eal
ĠW ig
Ġpre ten
arliament ary
Ġapp liances
Ġlo ads
Ġdef ects
Ġattack er
ield ing
Ġris king
gu y
vention al
Ġdev al
Se ptember
ĠCo elho
Ġbank ers
Ġsell er
roll er
Ġstaff ing
Ġtom atoes
ĠGu atem
Ġcounter act
Ġpaper work
Ġresist ing
Ġghost ly
Ġintens ively
Ġnom inated
Ġgall eries
ĠBang alore
Em ily
Em ma
ĠColomb ian
bb els
Ġspons ored
ĠIC T
Ġirrit ated
Matt hew
ĠRox anne
ĠOtt oman
Ġvolat ile
ĠRail way
educ ated
A pril
G erm
K aran
L atin
P urs
R od
W orld
d ecision
p ana
is ive
Ġw ires
Ġs ulf
Ġh ugs
Ġn aming
Ġbe et
Ġg hetto
end as
nt on
Ġv andal
ĠG rad
Ġme g
Ġam ulet
ĠK ee
Ġmar ching
ail a
ract ed
ĠSh il
ension s
ĠSc andin
Ġbar ric
eth nic
Ġmob sters
Ġdoubt less
ĠMor i
ĠDon ovan
Ġauthor isations
Ġeld ers
Ġstandard ised
Ġ197 2
Ġhur ries
Ġnom inal
Ġentertain ing
Ġvoc al
Ġphilosoph ical
ĠBan ner
ĠPhill ips
Phil ip
Ġmos que
Ġtit les
Ġretali ates
6 4
8 4
R eb
U s
Ġt as
Ġa in
at en
Ġc ush
or ical
al t
Ġm ath
Ġl ions
Ġl aughter
Ġg az
Ġcon j
ĠE ven
ĠS ne
Ġsh ipped
Ġint ro
ĠG ur
ĠF ry
Ġso ya
av is
Ġdisc ards
Ġtra ced
ĠV asu
Ġass uring
ric ate
ek ha
Ġland m
Ġhold ers
Ġsk ysc
Ġsl ides
Ġ7 6
Ġ9 00
ĠMan or
Ġrap ist
read ing
ĠChe ung
Ġcomment ary
Ġclim atic
Ġexcess es
Ġnation ally
Ġprefer ably
ĠFl ash
ĠLind say
Ġid yll
Ġiron ic
Ġreloc ations
Ġrub ble
Jon athan
Ġfeeding stuffs
Ġdemol ished
ĠCliff ord
Ġpopul ist
Ġcoward ly
Ġenerget ic
Ġdegrad ation
5 3
A ust
C ent
C rit
F urious
L ady
R os
f alus
i antly
he id
Ġs ittings
Ġo ven
it iously
Ġto ast
Ġp ige
ĠS hen
ĠS eg
op old
ĠB auer
ĠG arth
ĠL ampedusa
ĠH orse
Ġpl ug
Th ousands
ĠK as
Ġcons ort
Ġass erts
red ited
Ġexpl ored
inc ent
Ġcor rections
Ġfinal ised
Ġmor ph
Ġexpect ancy
Ġste wardship
Ch ildren
app u
Ġcru x
Ġmess enger
Ġkn ights
Ġmis con
Ġmis guided
ĠGeor ges
Ġdeep est
ĠSu pport
ĠBro oks
ĠBro oke
Ġguard ians
Ġrid ers
ĠEnglish man
pol itical
ĠNA SA
Ġimper fect
Ġprec ip
Ġpoison ous
Ġreass ures
Ġcig ar
ĠNorm a
Ġlau ghed
Ġyield s
ĠConst ance
Ġmini ature
Cla ude
ĠMach ine
ĠClare nce
Ġelectron ics
Ġrejo ice
Ġpredomin antly
Ġextr ater
Ġraz or
Ġobnox ious
falus sy
0 20
3 00
H on
O ri
S un
U C
V ir
c ases
r ud
Ġre all
ĠC apt
ĠS ell
ĠI owa
ĠT ennessee
ĠF light
ĠF uture
ĠN ico
ĠK w
ĠK of
Ġqu arant
per ing
Ġmon uments
Ġloc king
Ġ5 9
Ġviol in
Ġ6 7
rict ed
Ġdanger ously
uk u
Europe ans
Ġsepar ates
Ġsal ute
ĠFin ch
Ġhar bour
een a
Ġrat ifying
Ġgrad uated
ĠInter pol
Ġsne aking
Ġmir rors
Ġmal t
Ġinsp iring
Ġfasc ist
ĠHy der
ĠMun ich
ĠAh med
Pat rick
ĠNand ini
Ġdeport ation
Ġundergo es
Ġpredecess ors
Ġhitchh iker
Ġtraumat ized
Ġtast es
ĠLithuan ian
B rown
D ef
b as
h s
n ation
p arency
p ocket
w oo
Ġt arn
Ġt earing
he ro
or ah
Ġh arn
ĠC ald
ĠS ince
Ġv ested
Ġag ony
Ġag endas
ĠT ad
ig s
Ġj ugg
ĠH ob
ĠW izard
Ġcl aw
Ġro am
Ġimp regn
Ġdes pondent
Ġclear ance
Ġcor rel
ĠSp anky
arant ee
Ġship w
ott a
Ġled ge
ĠEd mund
Ġmut ilated
Ġcompens ated
Ġmatch ing
Ġsor ority
Ġgrave ly
Ġsequ el
ĠKe i
Ġgeograph ic
Ed ward
Ġshr ink
ĠPac o
Ġdismant led
Ġdeton ates
Ġroomm ates
oun ge
Ġdent ist
ĠMich igan
ĠGovern ments
Ġspontane ous
ĠFY ROM
Ġintox icated
Ġpiv otal
Ġadam ant
ĠHeb rew
Ġunfore seen
ĠSpr ings
Ġtheat rical
5 6
B rien
E ver
L E
L ocal
g eneration
i ority
re nces
Ġw oke
Ġp ion
Ġl ounge
se us
ĠM anche
Ġst ared
Ġan onym
os uke
ĠA ward
ac a
ĠB ru
ĠT od
out heast
so le
Ġpart ition
ere n
ag ging
ag ua
Ġcomp ares
ĠW ise
Ġnew est
tern ally
Ġback up
Ġinst ig
Ġrem n
Ġstr icken
ey e
Ġadm ired
Ġsuff oc
Ġperiod ically
Ġste ering
Ġappropri ation
Ġcho res
ĠBl ok
Ġpost ing
Ġdoor way
Ġdiv ine
Ġdesign ation
eth oven
ĠFin al
ĠMus ic
ĠAz nar
Ġawak ening
Ġfool ed
ĠChand u
ĠBon n
Ġneglect ing
ĠBud apest
Ġunus ually
ĠPers ian
Ġdiver sion
Ġow ed
Part icip
Ġbench mark
Ġdub bed
Ġuphold ing
Jo an
Ġvers us
Ġpert inent
Ġmonolog ue
ĠCly de
Uk raine
5 4
A gricult
G rad
L ord
M arty
P rom
S it
d ays
f u
f av
l ab
m ith
Ġt ending
Ġo at
ent ing
Ġl l
ĠC ort
ĠC ain
ĠM is
ĠM erry
ld a
ĠA th
Ġsh rew
ĠB j
ĠB est
Ġr ug
ĠD re
ind eer
Ġpart isan
Ġus ur
Ġri p
Ġatt ained
Ġoff spring
oy ant
Ġsc orn
ĠThe ato
Ġbo asts
gg er
Ġplan ets
inc reasing
Ġfl im
Ġrespect ful
Ġcor on
rac ks
Ġconsum ing
Ġsupp lements
Ġgovernment al
Ġed ition
ĠSp in
Ġopp ressed
Ġ6 9
akes h
Ġcompl icate
ĠSam son
Ġmission ary
St ud
ĠMal t
ĠQu estions
Ġconstruct ing
ĠCor p
ĠLam falussy
ĠSk ull
Ġrab bits
Ġstabil ising
ĠTem porary
Ġ195 7
Ġannoy ing
oren z
Ġagg reg
Ġinject s
Ġbury ing
Ġbud ding
IO N
ĠArmen ian
Ġfierce ly
Ant on
ĠCore y
ĠCrow ley
Ġchick ens
Ġwholes ale
Ġundec lared
D a
F ree
I re
K aren
M ir
U r
m ical
o oms
r ama
Ġo ve
Ġf el
Ġl ane
Ġfor ums
Ġcon sec
ould er
ĠA man
Ġr ud
ĠT oni
Ġen viron
ĠD ane
ĠD iet
ĠH oll
ĠSt raw
av ani
Ġco ax
form ing
ok ers
Ġdem ag
Ġadd icts
Ġ3 50
oura ge
Ġann ul
Ġcomb ines
sh ine
ĠPol itical
ĠBar rett
Ġcapt ivity
ĠHar bor
Ġexam s
Ġtest ifies
Ġhost ing
Ġsatisf ying
Ġsort ed
Ġcritic ising
Ġreb uffs
Ġunf av
Ġconcent rates
Ġlog istics
gue z
Ġflag rant
Ġpra ises
Ġiron y
Ġadvis or
ĠOs set
Ġven ue
New s
Ġnin th
ĠAlf alfa
Ġvigil ance
ĠStand ard
Ġchronic les
Ġappar atus
Ġesp ionage
Ġcosm etic
ĠMP s
Ġpest icide
Ġangu ish
C ase
l as
l ah
Ġ ip
re ng
is ans
Ġw izard
Ġo mitted
Ġp ione
Ġand roid
Ġh int
ar ter
ro oted
ic ut
ĠM es
ĠM ant
ĠM Ã©
ĠA be
ĠB han
Ġint ake
ĠR ana
all a
ĠT ru
ĠL ater
Ġcan oe
ĠF ant
ĠN ak
Ġam ple
ĠK ou
In sp
ĠCh op
we ed
hes h
Ġpers istence
Ġins in
Ġaff luent
Ġgl ove
Ġdifferent iated
ĠAl addin
Ġperson a
Ġdep ressing
Ġsupp ression
ha el
Ġpast or
ĠInd eed
Ġprevent ative
ush ima
ev o
Ġsal on
Ġworth less
Ġnar rated
ĠSch roed
ran ny
Ġec li
rag a
ĠSal t
ĠGar field
Ġvirt ues
ĠCroat ian
Ġexceed s
Ġreloc ate
ĠLiber ty
ĠTan ner
cha un
ĠColumb us
Ġhi king
ĠMeen akshi
Ġsket ch
Ire land
G ree
H all
W ile
b ach
b ath
g ener
h alf
m u
Ġa ster
an ic
Ġin acc
al ina
Ġd ried
Ġn avy
il ot
Ġon t
ers ed
ist ed
Ġag ri
ĠG et
Ġch al
Ġdis se
Ġdis connect
Ġsp arks
Ġacc ost
Ġclear s
ract ical
na issance
ĠDe bor
ck x
ĠAl v
Ġdr illing
ĠMin nie
ĠSe ven
Ġgun man
ĠCar olyn
Ġty res
Ġapart ments
lo ading
Ġ9 1
Ġdiv ides
Ġmus cle
Ġconnect ing
Ġdesign ing
ĠCl oud
ĠCent ury
Ġopt imum
Ġlif eless
Ġpoll uted
Ġmeasure ment
Ġpresident s
Ġexpend itures
Ġ197 9
Ġprosec ute
Ġprosec uted
ĠNG O
Ġcollabor ate
bre aking
Ġtight ened
Ġmobil ised
Ġporn ographic
ĠFe ira
ĠAbb ott
Mc C
Ġdisappro ves
ĠME D
ĠBÃ¶ sch
ĠCher ry
Ġrede em
Ġcrac ks
Ġlivelihood s
ĠSW IFT
Ġflaw ed
Ġnutr ition
Ġmilitar isation
Ġsanct uary
ĠAlab ama
Ġunth inkable
ĠDebor ah
8 2
B P
D eb
E O
G rant
T ae
g ot
Ġ ),
en i
es is
Ġn ostal
se where
ow gli
Ġst alls
ĠE agle
ul sive
ĠP reet
and el
Ġcom pelling
th a
ĠU ru
ab u
ab ol
Ġman iac
ĠN as
ĠN im
ĠW here
Ġco aches
Ġcons ervatives
ok ie
gr ad
Ġmon itors
ered ith
Ġfl are
Ġcre m
ond s
Ġfav ors
ĠAm ir
Ġpromot er
unt ary
ĠSe oul
Ġve t
Ġconstit utions
Ġprofess ors
Ġstri pper
Ġemb ed
int endent
Ġliberal ise
ĠMad onna
ĠQu int
Ġtort uring
Ġhous ed
ĠSil va
Sp ike
Ġloose ly
Ġgrass roots
ĠRand zio
Ġinfilt rates
Ġinfant ry
Ġcontempl ating
ĠLight ning
ĠZh ang
ĠTechn ological
Ġic on
Ġvend or
ĠPia zza
Ġinexpl icably
Ġtranqu il
N eg
b ra
d ac
g ency
at um
at io
Ġo g
ro ph
Ġl apt
Ġl ava
Ġg own
Ġfor k
ĠC obb
ĠM oth
ĠP oe
ĠR ut
Ġr ash
ĠH ann
Ġtr amp
ĠW aters
Ġco er
Ġco erc
Ġconc ise
erm ann
ĠV asant
Ġback bone
low n
ov sky
land ers
Ġsign atories
ĠSc ots
Ġinvestig ative
Ġmoment arily
ĠAd v
Ġconnect s
Ġinflu enza
Ġstra pped
ĠAt omic
Ġsun k
ĠDev on
Ġmountain ous
Ġbra ke
ĠRod ney
Ġunha pp
ĠSav ary
Col le
Ġfortun es
ĠGarc ÃŃa
ĠRu pert
Ġindef initely
Ġoverr iding
Ġsuperv ise
Ġdys function
ĠProtest ant
SME s
6 9
E ither
O C
e et
f ried
l en
Ã £
Ġthe or
on ne
Ġo lig
as co
Ġl ing
ur dy
ri ft
ri que
ĠM ama
ĠE rin
ĠS iva
ĠP ep
ĠP atsy
ĠB enson
and ering
ie ces
ere r
Ġinc idence
og ging
pos al
erm it
Ġdisc ern
Ġgu ideline
led ged
Ġsm ash
Ġinter active
Ġday light
ĠMar in
ead ing
Ġpract ise
Ġfail ings
Ġhard ware
Ġsl um
Ġparticip ates
ole t
ĠEd wards
roll ing
ĠJust ine
Ġreact ing
Ġappoint s
Ġsubsidi ary
ĠDev lin
Ġrobber ies
ĠBut ter
ĠPer u
Ġreaction ary
Ġatmosp heric
Ġnurs ery
IN G
Ġ193 9
Ġmel od
Spe aking
Ġlament s
ĠGib ral
ĠGarc ia
ĠRey nolds
ĠCash man
ĠHoff man
ĠPrinc ipal
ĠAmbro se
C ross
D un
S ara
h m
l iness
Å Ħ
Ġa vert
om is
Ġe lusive
Ġhe w
ĠE TA
ĠS agar
ĠP ret
ĠA M
Ġsh red
ant in
ust ed
art a
ĠG avin
ĠL yle
Ġout going
Ġpl oy
Ġar tic
Ġco ve
Ġco pper
Ġimp rompt
Ġrec ast
Ġwhere in
Ġsc al
Ġsp ouse
ern er
Ġexp ired
Ġloc om
Ġactiv ated
ĠZ o
gu ins
Ġland lady
Ġsl im
Ġsl ain
ĠMon key
Ġrob otic
ĠBe aut
Ġten or
Ġred emption
Ġcritic ized
ĠAs ylum
Some one
Ġauthor ising
ĠSu z
ĠBer Ã¨s
ĠX avier
nes ota
Mar c
Ġyouth s
Ġisol ate
Ġsli pped
Ġparal ys
ĠSand ers
ĠJun cker
El sewhere
ograp hed
Ġunp aid
Cons id
Ġgate way
Har old
Ġplain ly
adel oupe
ĠStev enson
Ġmun itions
ĠLor na
Ġintercept s
ĠSidd harth
ĠDaw son
ourge ois
ĠMeen a
Ġsupre m
Ġdiscrep ancy
Att empt
ĠJee va
ĠTH E
Ġbron ze
Ġtiss ue
ĠLead er
Jenn ifer
ĠAbkhaz ia
incl air
Insp ired
C ole
N ancy
p ared
r amb
w ritten
he a
Ġthe rm
on ium
at z
Ġw atered
Ġb its
an u
Ġm ummy
Ġd ared
Ġd ares
Ġg uru
ur st
ol ve
ĠE ye
ĠS apna
od der
ĠG est
ĠT ian
ĠJ unk
ĠL ost
og s
He alth
Ġif s
Ġi w
Ġdisc redit
Ġtra ctor
Ġprov ocation
Ġturn out
ĠMar a
Ġemploy ing
Ġequ als
ĠSp ark
Ġess ay
Ġgun ned
ĠCar ver
ĠChrist y
Ġbad ge
Ġill um
Ġsens ation
ĠMinister ial
ĠAb igail
Ġacqu ires
ĠSl ade
Ġqual ification
Ġoccur rences
Ġquot ing
Ġcomprehen s
ĠSy rian
ĠJon ah
ĠKy i
Ġwithdraw s
Ġsho ves
Jack ie
Ġreass ured
Ġcert ified
ĠChand ra
Ġscar red
ĠCas p
Ġrocket s
Ġrow dy
Ġridic ule
Ġprejud ices
Jul ia
Ġdismay ed
anth rop
ĠRober to
Ġhalluc inations
oir s
ĠFrances ca
Ġplun ges
ĠFil ip
Ġincompet ence
Ġbloss oms
Particular ly
ĠDyn asty
Ġfier y
ĠUrs ula
ponge Bob
ĠLatv ian
7 9
8 7
U R
b ank
k m
s aving
Ġo ath
Ġm oot
ic ides
Ġon coming
ĠM illy
Ġcon sole
ĠI gn
el ina
Ġse ct
ive k
Ġv odka
art ite
ĠB ak
ĠT err
ĠD elt
ĠK now
iz zy
ight ing
Ġwork ings
Ġpre historic
og un
Ġimp asse
ign ant
Ġsc ars
Ġsc iss
Ġsc aring
Ġsp awn
ĠV amp
me at
Ġbu gs
Ġform ulating
Ġche ers
Ġproject ions
Ġdon ate
ĠBar oque
Ġstri ps
ĠMan ch
ĠPh oe
ĠPar agraph
Ġhit men
Ġforg iven
Ġring ing
Ġscreen play
hand edly
Ġprec ision
Ġconce ive
Ġlength s
cont rolled
Ġhur ts
Ġchann elled
ĠBoy d
ĠEr nie
Ġseason al
ĠRose mary
Ġtimet ables
Ġanaly tical
Ġflo ats
Ġtur key
Ġrational e
Ġdeterior ated
sell ing
Ang ela
Ġcrown ed
ĠKath leen
Ġsau ce
Ġdissu ade
ĠSalv ador
Ġpreval ent
Ġseiz ure
Ġlobb ies
ibl ical
ĠHaut ala
I ron
b eth
d ream
d istance
f aced
u ant
Ġb ikers
Ġp end
Ġd ucks
im ir
ĠC live
ĠM arn
ra ges
el ix
ĠA pol
Ġsh ine
ĠB BC
Ġk icking
iv als
Ġcom ical
ĠT osh
ine ering
oin ing
Ġtime frame
ject s
Ġrep roduction
Ġbo ast
Ġlaw ful
not iced
Ġplay ground
Ġhead way
Ġfav ourably
ĠState ment
Ġbar bec
Ġhor rend
ĠAd a
Ġcontract ed
Ġsett ings
Ġpick up
Ġmount ing
ĠMa ureen
Ġpenal ise
Ġscientific ally
ĠHung arians
Ã¶ der
Ġdict ates
Ġpred icts
you ng
ĠHer o
ĠJeff erson
ĠWall is
ĠClin t
Ġiron ically
Ġmobil ising
Ġmicro phone
Ġnin ety
ĠGi ul
Ġpursu ers
orp ion
Ġasp ires
ĠRoc ard
Ġattach ment
Ġeru ption
Ġapplaud ed
ĠNichol son
Ġsew er
Ġflags hip
Ġsubdu ed
Nord ic
Ã£ o
D em
F ormer
R D
R y
p roducts
v ist
w eek
Ġ 00
in ction
Ġs izes
Ġin hib
Ġin gen
Ġm isman
Ġe w
ĠM ild
ay er
ĠS ikh
ch t
ĠI D
ĠB ij
ĠB uster
od i
ĠR ath
ĠG ig
ĠG abe
ĠJ ia
th ree
Ġout breaks
Ġshe ets
ĠUn ni
Ġar son
pos ition
Ġte ase
ater al
Ġrem ar
pon s
hes is
Ġrep etition
ĠTh y
ĠAl ma
ĠAl vin
Ġpar ap
ĠMin i
Ġlow ered
ĠSw ord
ĠAb el
Ġbehav es
Ġsqu ir
Ġ198 2
Ġsun rise
Ġappoint ing
ĠGl ass
Ġspot light
Cl ass
Car ol
Ġrif les
Me asures
Ġmirac ulously
Ġextract ed
Ġdepl orable
Ġenlist ed
Leg al
Ġmit igate
Ġrelent less
ĠPO W
ĠKau f
Ġpenn iless
Ġfluct uations
Sah aran
ĠLann oye
Grad ually
' ?
A mar
B ow
m our
p illar
t z
Ä ĥ
in to
st e
ĠC ut
ĠC op
ri arch
ĠE k
ĠE xt
ay ana
Ġal lied
Ġal liances
ĠS uch
Ġde act
ch ard
ĠP asc
Ġher ald
art ney
ĠR V
ard er
ĠD ob
Ġch ateau
ĠH ers
ĠH ey
pl ots
ĠW els
ĠW arden
og a
Ġatt entions
Ġeff ic
Ġcol ored
Ġsm okes
ank ed
oh ar
Ġsim ulation
ĠAr cher
ĠSh ob
Ġship ments
ĠBl anche
Ġter rain
Ch arl
Ġaud iences
af r
Ġ8 8
Ġdetail ing
Ġblood shed
Ġarm aments
Ġconsult ative
Ġcontract ors
ĠMart ian
Ġ197 3
Ġ197 7
Ġdeser ved
Pro gress
ĠDep ression
ĠCommun ism
Cl ark
Ġadvis er
hy un
Frank ie
Ġmultilateral ism
Ġexceed ing
Among st
Ġble ed
Ġdrift s
ĠAlp ine
Ġju ice
ĠFern and
Ġswall ows
Ġlod ged
Near by
Ġhards hips
Ġguerr illas
Ġmischie vous
gart en
Ġappet ite
Ġbroadc asters
ĠBlok land
F er
L ew
L inda
M organ
n ist
is i
at ious
en act
Ġl est
Ġfor a
Ġwh it
ĠM oor
Ġst aunch
ĠS ex
ul um
Ġle an
ĠB ess
ĠR oo
ard less
Ġdo om
ĠT ric
ĠD rey
Ġwas t
ĠJ aff
ĠL amb
ĠF ormer
ide on
Ġam used
Ġstr ings
ĠSh anti
Ġcreat or
Ġpar as
ĠSp ani
ĠMin nesota
Ġinvestig ators
ĠGe b
ĠJan ice
Ġdisp arity
rehen sive
Ġcli p
ait lin
Mar co
fin anced
Ġdevast ation
Ġnut s
Ġcliff s
Reg rett
Ġdece ive
ube i
Ġsle azy
Ġstumb ling
ĠApp le
ĠBart on
Ġpreca utions
ĠAlp ha
Ġwond ered
abil isation
Ġrevers al
ĠDaw g
ĠSW AT
ĠToul on
ĠCornel ius
Ġvideot ape
Ġbrace let
Barb ara
Ġvehement ly
Rah ul
Ġimprompt u
U D
b irth
m ble
z ek
Ġp ear
Ġm ans
Ġth ta
Ġth riving
ic ent
Ġre indeer
ur ous
Ġwe ary
ore r
qu it
ĠB ates
ĠB aring
Ġcom et
um en
Ġag itated
ĠG ut
ĠT ann
ĠD as
Ġout bur
ĠH ere
ĠH olden
ĠK ad
ĠK ung
Ġover power
irst y
Ġinv al
Ġinv ading
Ġsp ills
Ġdown fall
Ġdeb ris
Ġins erted
Ġcur ric
Ġbudget ing
Ġpres ume
ĠGroup s
Ġprogress ed
Ġship owners
Ġfoc al
Un aware
Ġcompl icity
year s
ĠPaul ie
Ġacqu itted
ĠBer ger
Ġmand ates
ĠTe h
Ġadvantage ous
ĠTurk men
Ġjournal ism
Ġmotor ways
ĠSant os
Ġcold ly
Ġunfair ly
ĠDaniel le
Ġdismiss al
Ġhal ted
Ġtight ening
ano ia
ĠBy ron
Ġdisagree ments
ĠCass andra
Ġunwilling ness
Ġattrib utes
ĠKrist en
Ġindul ge
Ġdent al
ĠCall ahan
ĠBou levard
Ġoverl ap
Ġrekind le
Ġcatal ogue
ĠFergus on
Ãª te
Ġcer am
Ġcyan ide
A v
C all
I G
b les
c led
e val
t an
Ġt aw
Ġf use
al ow
Ġd y
Ġbe li
st art
Ġe agle
id as
ĠS tern
ĠP ict
ĠB ir
all o
Ġwhe at
ud u
Ġme ek
pt a
Ġout s
Ġdis contin
Ġcr ad
Ġpr one
ĠV id
Ġbl ond
Ġfr aming
ĠY ad
ĠY uki
Ġmay hem
Ġcompet itions
Ġpres upp
ĠAm nesty
Ġdest inations
Ġcomb ated
ĠRe ich
Ġty re
Ġ7 9
ĠReg ister
Ġsepar at
Ġsubsid ised
ĠSu u
Ġconcept ion
Ġhide ous
Ġclean ed
Ġimpl ants
Ġexplos ions
ĠKy r
ĠRoman o
Ġshut ting
ĠNat alia
Ġhur ting
Ġremark ably
Ġtail or
isp ers
Ġske let
Ġblackmail ing
Ġcoc oa
Ġinad missible
ĠDam ien
Ġgest ures
Ġly rics
Ġstrang led
Ġfert ile
Ġmemor able
ĠFif teen
ĠMadh avan
Ġinterc ultural
unc iation
ĠAmaz on
somet hing
Ġunreserved ly
ĠBened ict
Ġoverha ul
Gener ally
C ome
S um
b ridge
c hel
m os
p resident
r t
s ervice
Ġs ine
Ġb a
Ġh orde
ar b
Ġre vert
Ġpro be
ĠE gg
ch arge
ĠP it
end o
est ing
ĠR est
ĠG oll
ĠD Ã¼
Ġad herence
Ġun armed
Ġqu int
Ġev icted
ĠCh ucky
ild e
me al
Ġdef ender
arn a
Ġhead master
Ġwel sh
Ġfore man
Ġopport une
Ġconsum es
Ġsupp ress
Ġrese mble
Ġpar ish
ann ual
Ġlim ous
ĠBl anca
Ġ10 3
ĠMan u
set te
Ġopt s
ĠWill is
Ġtack les
Ġ14 0
ĠKos ov
ĠHel ena
IT ES
Ġprohib iting
ĠGrand pa
ĠNic ola
Ġrum or
ĠMat rix
ĠChurch ill
Ġdismant le
ĠRou ge
Ġstereoty pes
Ġrepatri ation
ĠGibral tar
ĠWels h
C omb
D own
H an
O ld
c ultural
c olo
e ven
m ill
Ġt ins
in ted
re ally
Ġo min
Ġh older
Ġn ic
Ġfor fe
se ly
ĠC app
ad as
ĠP R
ĠP ee
Ġv int
ĠB order
ies e
Ġim pe
ard i
ĠD aul
ĠJ ak
th ouse
Ġup ward
Ġun imp
ĠN ov
arli er
Ġinc o
ign ing
ath on
Ġstr on
Ġmod eration
Ġaccount ed
Ġadm on
Ġboy cott
Ġthird s
Ġmight y
Ġcamp ers
ĠAg n
ull en
Ġcred itors
Ġmag ist
ĠBe ethoven
Ġbomb ed
ĠGu ide
Ġbuy er
Ġpsych o
Am id
Ġoccup ants
ĠMag ic
ĠTrans atlantic
Ġprec inct
Ġspect ators
Ġreass uring
ĠComp etition
ĠAli en
ĠCr ime
Ġscore board
ĠRoc hester
ĠMoh ammed
Ġexacerb ate
Ġinse parable
Ġbol ster
Ġimmort ality
Stan ley
ĠHig gins
Ġlaud able
Democ racy
Ġinfer ior
ĠGoe bbels
Ġunbelie vable
Ġinexper ienced
Ġgi ants
ĠHyder abad
Ġcomprehens ively
Ġhorrend ous
G ord
b ishop
f ledged
v ens
Ġt i
Ġp ant
Ġg it
ĠE nt
ort y
Ġse g
oc us
ĠB ai
ĠD ot
Ġwor sen
ĠSt eele
Ġman ners
Ġam aze
Ġconc erts
ĠV illa
Ġmake up
Ġper taining
Ġent angled
Ġprom isc
Ġche que
Ġvar iation
Ġvar ieties
Ġfac ult
Ġiniti ation
Ġwater way
ĠBl anc
Ġamb ushes
ĠAd ri
sid ered
ĠPh yll
Ġcontain ers
Ġut op
Ġfast est
Ġfrust rating
EU R
Ġannounce ments
ĠAc cess
Ġliber als
bl ock
Ġjeopard ising
Ġstal ks
girl s
Ġaspir ation
Ġcompr ise
writ ing
Ġdecentral isation
ĠShel ly
ĠBri ggs
Fif thly
ĠWat ts
Ġdissatisf action
ĠKish an
Jac ob
Ġcourtes y
Ġtum or
Ġconting ent
ĠObs ervatory
ĠCree k
ĠBald win
ĠUt ah
ĠErit rea
Ġdestit ute
Ġupb ringing
Ori gin
ĠOsset ia
G M
H R
M ain
S ue
S oph
Y u
d ro
e very
g ard
is ode
Ġb ree
Ġp ork
Ġre ap
st y
ĠM ace
Ġst yles
Ġcon gress
ĠE NP
ĠP VC
ĠG P
ĠG opi
ĠG BP
ĠL angu
ĠH abs
ind y
ĠF AO
Ġtr ance
ĠN amb
Ġra pp
Ġinv o
Ġob ese
ail ed
arm an
bers ome
ĠY osh
Ġrun ner
Ġimm oral
az zo
Al bert
ĠAg ainst
Ġpost ers
lt ered
Ġkn ives
Sh ocked
ĠJan aki
Ġconsult s
ĠPe pe
Ġreb orn
Ġcontent ious
Ġer osion
Ġpsych ology
Comm un
Ġroll ed
Ġmad ly
Ġstrength s
ĠDar ren
[...]
